#version: 0.2
Ġ Ġ
ĠĠ ĠĠ
č Ċ
ĠĠ Ġ
ĠĠĠĠ ĠĠĠĠ
s e
i n
ĠĠĠĠ ĠĠĠ
o n
r e
a t
e r
s t
o r
Ġ =
Ġ t
e n
d e
a l
a r
ĠĠĠĠĠĠĠĠ ĠĠĠ
se l
a n
sel f
l e
m e
Ġ i
i on
h e
- -
i t
Ġ c
Ġ '
r o
Ġ "
Ġ f
c t
Ġ p
a s
c e
g e
u t
ĠĠĠĠĠĠĠĠ ĠĠĠĠĠĠĠĠ
Ġ self
u r
Ġ re
Ġ n
l o
m p
Ġ in
Ġ s
in g
p e
a me
u e
) :
Ġ o
en t
Ġ a
l i
' ,
Ġ m
at e
c o
Ġt he
u n
e x
Ġ d
i d
Ġ b
de f
a d
c h
Ġ #
f i
ĠĠĠĠĠĠĠĠ ĠĠĠĠĠĠĠ
se r
e d
r a
o t
c k
u l
e l
-- --
Ġi f
u m
( )
Ġ w
or t
s s
' :
r i
" "
p t
ur n
Ġ (
an d
# #
on e
t urn
" ,
y pe
o de
v al
Ġ def
ge t
i s
i l
e s
at a
o l
Ġf or
l a
in t
č čĊ
' )
at ion
( '
n ame
m a
d i
e st
Ġt o
Ġi s
u p
c on
Ġre turn
st r
N one
Ġ T
_ _
e t
mp ort
se t
Ġ [
e ct
Ġ 1
t er
ar g
= =
v er
i z
ro m
ul t
t h
Ġo f
a p
0 0
) ,
Ġ +
as s
' ]
Ġ" ""
k e
a m
Ġ -
a b
q u
t ype
p ut
Ġ 0
at h
ex t
re s
) )
Ġ {
Ġ u
ĠĠĠĠĠĠĠĠ ĠĠĠĠĠĠĠĠĠĠĠ
i g
Ġ e
p o
Ġ as
a ge
val ue
( "
v e
p ar
h t
Ġc on
t o
[ '
" :
o d
pt ion
Ġ S
Ġ A
Ġ C
en d
Ġn ot
v i
or m
c l
it h
. _
ct ion
Ġ None
i c
---- ----
i me
al l
Ġt h
f rom
r ue
p ro
ser t
## ##
Ġ and
Ġ st
ode l
Ġi mport
li st
arg s
p er
ĠĠĠĠ Ġ
Ġ g
" )
Ġ ex
r an
Ġ l
ab le
Ġ= =
u b
iz e
d ata
Ġ h
Ġ :
r or
] ,
t a
j ect
Ġ de
I n
i st
u s
i le
Ġc o
ke y
Ġre s
Ġ F
p ath
d er
q ue
lo g
Ġ _
m ent
o ut
Ġ 2
t e
f orm
a se
0 1
Ġ *
in e
Ġ or
R e
s c
an ce
re n
fi le
s h
= '
a ck
o w
Ġb e
al se
ad d
== ==
o b
o ur
Ġ r
fi g
Ġ P
ap p
er s
i m
] )
Ġ D
ar t
ĠĠĠĠĠĠĠĠĠĠĠĠĠĠĠĠ ĠĠĠĠĠĠĠĠĠĠĠĠĠĠĠĠ
Ġ me
e w
re d
f o
c he
p y
Ġw ith
que st
} ,
it e
m b
p s
Ġ L
cl ass
t r
Ġ str
t est
Ġt est
el se
i al
at ch
Ġ %
Ġd ata
u re
d s
Ġ else
a ult
t ime
Ġn ame
b o
l y
Ġ v
Ġ I
en s
Ġp ro
r int
Ġ )
i mport
Ġ O
our ce
mp le
Ġ value
it y
p re
Ġ se
i f
o m
par am
Ġ E
Ġm a
w or
Ġ M
la b
h o
Ġ x
un t
= "
T rue
st ance
an g
de x
d ate
f e
m o
i se
ro up
Ġp ar
p on
Ġ y
E R
r ror
as sert
Ġ @
ĠĠĠĠĠĠĠĠĠĠĠĠĠĠĠĠ ĠĠĠĠĠĠĠ
lo w
i p
in it
t ri
s ize
t ext
E rror
lo ad
u le
m odel
ur l
li c
o f
m s
co de
[ "
Ġn p
co l
0 2
#### ####
re ate
Ġ `
lab el
s p
pon se
O N
la y
Ġ he
Ġ N
ra in
o c
. .
di ct
d d
l en
ss age
Ġ an
I N
i r
Ġf ile
Ġ get
o p
ma ge
el d
Ġ on
ce ss
a g
Ġ >
i es
vi ce
u st
Ġas sert
-------- --------
"" "
i fi
Ġc l
Ġt ype
Ġ B
Ġth is
) .
in d
lo c
ht t
t y
E S
" ]
co m
um ent
Ġp rint
ra y
Ġo ut
en er
ren t
o s
Ġ 3
Ġ set
at or
ĠT he
ver s
lo ck
a pe
se d
u ser
ĉ ĉ
Ġ k
form at
u g
Ġ __
/ /
as k
val id
Ġn um
Ġf rom
a c
ĠT rue
er ror
Ġo b
di r
or y
pe c
Ġ un
th od
r y
li ent
n um
qu al
app end
1 5
Ġ list
Ġm odel
p ort
a y
s a
ut e
p h
n ode
i ve
C on
ig ht
Ġ ra
Ġd i
ss ion
f a
sc ri
ĠĠĠĠĠĠĠĠĠĠĠĠĠĠĠĠ ĠĠĠĠĠĠĠĠ
n s
A T
: :
m in
j s
Ġth at
8 6
f f
Ġ V
y n
vers ion
Ġ R
Ġl en
w args
con fig
b er
ar y
un d
ing s
Ġ G
Ġ <
in fo
Ġ log
ar ray
F alse
un ction
: //
{ '
o ck
re ad
ĠĠĠĠ ĠĠ
Ġres ult
ame ter
ĠF alse
Ġ at
t ent
Ġw h
w w
Ġ en
p p
g er
Ġ W
l ine
st at
Ġ U
ig n
in stance
Ġb y
i v
i eld
co unt
an t
Ġc h
Ġo s
==== ====
ce s
ran ge
Ġ al
od ule
il d
Ġdef ault
ce pt
il l
Ġ Re
o g
an n
Ġ H
7 7
O R
en se
pe ct
__ (
e p
m it
1 0
u d
w a
Ġp re
ar get
o re
lo at
js on
ran s
up date
E N
Ġra ise
ar d
it ion
X X
( ):
Ġin t
re ss
ut h
Ġ key
o k
Ġc ol
Ġt ime
ate d
n ect
Ġs h
Ġw e
(' \
g s
Ġ ro
in dex
ation s
b y
S T
er y
( [
l l
z h
ption s
c ur
ens or
g roup
he ck
li f
Ġ{ }
v ent
Ġa re
re ct
I D
Ġ 4
* *
ma x
ĠĠĠĠĠĠĠĠ Ġ
s ub
Ġ- >
] .
c a
j o
str ing
T ype
ob ject
out put
ption al
Ġre quest
r ame
qu i
1 2
se n
ar i
w ith
Ġ čĊ
ul um
de d
r un
E qual
ulum i
st ate
a ct
') },
ut il
': {'
86 15
3 2
in put
wor k
mp l
on g
w e
m l
tri b
Ġi t
po int
Ġe lif
Ġb o
po s
re quest
A R
p i
b ack
S t
ow n
r ite
') ,
ta in
Ġ[ ]
co mp
Ġ }
b u
S E
b ase
p a
y s
f or
Ġ args
t rain
ma in
Ġu se
a mple
I T
E x
Ġ all
u mp
ar k
htt ps
ad er
Ġout put
u ct
a x
li b
c or
l it
Ġ ser
arg ument
L E
st art
Ġ In
param s
lo t
ĠĠĠĠĠĠĠĠĠĠĠĠĠĠĠĠ ĠĠĠĠĠĠĠĠĠĠĠ
jo in
Ġ+ =
me thod
a ve
m and
77 01
P ro
assert Equal
Ġin put
qu ery
e c
Ġu ser
i b
yn c
n et
Ġn o
res ult
int er
an ge
sh ape
m at
co re
Ġa dd
k wargs
Ġn ew
ĠC on
R E
Ġ* *
' '
ar ch
Ġco mp
Ġs ub
Ġd o
d b
Ġ /
Ġob ject
Ġ 5
Ġ range
per ty
() )
ce ption
ameter s
9 9
fe ren
g ht
Ġw ill
'] ,
Ġi d
ma p
ul d
ar n
g th
as h
la ce
al ue
ap i
l in
Ġ le
R es
6 4
d f
scri ption
######## ########
Ġp o
Ġ \
fi x
ex p
re g
Ġex cept
A N
c s
c reate
wor d
D ata
d a
me ssage
Ġn ode
o u
ul l
Ġp ath
c lient
pect ed
Ġp y
ion s
n p
Ġ j
se s
ial iz
d o
I ON
Ġc ur
re e
Ġt ry
k en
h is
or g
th on
c al
Ġs pec
bo x
Ġma x
lo b
u me
i mage
en ce
st e
. __
Ġf unction
feren ce
Ġ{ '
Ġcon fig
() ,
l p
g r
] ]
A L
g ener
def ault
che ck
t ings
t x
res ponse
th er
m odule
M E
1 1
it er
ic ense
00 00
Ġc heck
Ġs up
N ame
Ġres ponse
ann el
lay er
ĠE x
a il
v el
Ġis instance
Ġ la
ĠI f
it le
Ġco m
w rite
vi ew
i x
un c
n ot
Ġ label
re turn
u al
and om
b e
re p
I d
Ġo p
at tr
b lock
Ġ --
ari able
D E
Ġb u
> >
I C
a st
5 7
Ġh as
Ġ( '
or ch
T est
Ġ .
Ġd is
st ra
g ra
e f
ifi c
htt p
5 3
'] )
Ġr un
1 4
lo ss
Ġpar am
Ġc reate
mpl ate
id s
le ment
it s
A S
at ure
Ġi mage
util s
Ġcl ass
ĠO ptional
r on
Ġa pp
E n
a k
ri ght
U T
stat us
Ġ error
Ġst art
l at
m d
() .
= [
Ġ[ '
Ġp er
Ġa x
0 4
re am
v ar
if y
Ġt f
le d
t s
el ds
i o
ww w
' .
5 6
ĠĠĠĠĠĠĠĠ ĠĠĠĠ
Ġnum ber
a v
Ġme ssage
Ġdi ct
i ck
Ġ !
qui red
n o
or s
c all
Ġ> >>
um n
loc al
Ġt rain
a ch
t he
sp lit
C o
Ġc an
Ġa c
i ch
f loat
Ġin dex
Ġf il
ĠĠĠĠĠĠĠĠĠĠĠĠĠĠĠĠ ĠĠĠĠĠĠĠĠĠĠĠĠĠĠĠ
Ġ end
t ra
u res
Ġin ter
ĠT his
fi l
In put
Ġ z
n e
ĠL icense
d ing
C T
( (
d is
Ġ ext
A r
e mp
wa it
ro w
ĠRe turn
ad ata
S e
c lo
. """
p rint
Ġp ass
---------------- ----------------
Ġ! =
] [
u de
model s
R O
m i
F ield
u se
Ġm ock
ol ume
Ġl ine
par se
Ġw or
b atch
con tent
.. .
r c
re f
Ġn e
Ġvalue s
L ist
Ġme thod
at us
up le
Ġ },
con nect
n ew
er t
" .
b ut
Ġ |
ction s
le te
value s
ver t
ĠĠĠĠĠĠĠĠĠĠĠĠĠĠĠĠ ĠĠ
s y
ho uld
` `
ang o
Ġhe lp
[ :
pro perty
Ġt arget
j ango
o me
i de
1 6
st ri
ate g
s um
Ġcl s
' ):
Ġ ent
] :
pro cess
K e
ob j
type s
t rans
tr y
m on
Ġin stance
p ri
Ġex pected
c f
M A
a ce
a uth
{ }
ot al
Ġg roup
or der
Ġu sed
Ġst ate
g ing
Ġ url
a in
00 0
ump y
le t
Ġs hould
o und
ial ize
po ch
t arget
fa ce
li mit
f low
stra int
mb ol
id th
d oc
9 7
mb da
m ark
ĠĠĠĠ čĊ
ot e
p l
Ġm in
p ulumi
sel ect
S et
Ġ valid
Ġn s
t in
ĠĠĠĠĠĠĠĠ ĠĠĠĠĠ
Ġp ulumi
Ġf e
ht ml
l d
fil ter
======== ========
b ug
Ġ one
Ġstr ing
mo ve
Ġm s
ol d
Ġd ist
" ),
en v
c y
um ns
pro ject
P ar
cl ude
' s
Ġ version
res h
Ġo pt
co pe
ho st
Ġp l
ĠReturn s
2 01
len gth
or age
t es
t able
D e
Ġparam s
ur ation
2 8
Ġ 6
s ing
M odel
= (
r t
ĠA n
s ource
te m
Ġt orch
L O
Ġ` `
di m
ite m
ens ion
Ġc ode
C h
ra w
u c
m an
EN T
t adata
Ġd b
Ġcon tain
trib ute
Ġd f
o pt
h and
S er
G E
Ke y
XX XX
ms g
G et
all y
id x
C H
len ame
Ġwh ich
t ing
Ġ J
ma il
od y
id d
Ġpar ser
o st
Ġk wargs
Ġf loat
Ġ json
ser vice
p lay
mb ed
Ġcur rent
str uct
Ġb ase
n al
ot h
exp r
fi lename
Ġo ther
Ġon ly
mo ck
to ken
Ġres ource
Ġd ate
res ource
Ġop en
ĠS e
a re
u id
wa re
P I
in al
Ġ( "
le an
Ġbo ol
iz er
sa mple
t itle
R I
E D
v is
2 0
sc al
ad ers
Ġc all
node s
c ent
Ġre g
ol der
1 8
a mp
con text
fi eld
p lot
: `
name s
Ġ query
f rame
f t
at ures
gener al
F rame
ite ms
sp ace
l er
ĠC o
al s
n orm
of t
Ġc lient
m ode
ate s
c ri
Ġ ]
Ġd oc
Ġm ust
t ro
che d
Ġh ave
o ptions
M e
alue Error
Ġs ize
IN G
ri st
ch annel
Ġ X
Ġwh en
Ġb atch
A dd
Ġs y
ud y
Ġ Y
C O
we ight
co der
n er
Ġy ou
ĠA r
Ġa wait
Ġs p
Ġt ext
} )
T ext
b in
F ile
Ġs ys
ir st
3 3
Ġ q
Ġ array
Ġt rans
Ġs ource
ur ch
ut ion
O T
n d
mi ssion
of f
cor d
ro ot
f unction
at ter
po p
add ress
ifi ed
q l
Ġun der
c i
Ġa ct
ch rist
vi de
Ġfor mat
st udy
f unc
ment s
n n
ĠĠĠĠĠĠĠĠ ĠĠ
ch urch
Ġin it
c re
Ġ arg
st ant
f ind
z er
Ġ update
U n
M P
qu ence
5 0
Ġsup er
Ġ' ''
j es
U R
F I
e vent
rect ory
ic al
jes us
s o
arn ing
ck et
p ack
1 7
he re
op en
Ġas ync
k s
con ference
Ġma y
Ġd type
as ses
et a
') )
de vice
data set
g o
of jesus
church ofjesus
churchofjesus christ
scri pt
ut o
' t
ro p
Ġe ach
ult i
" ],
5 5
Ġb lock
sa ve
Ġro w
k ip
lic y
k er
Ġ up
sen t
t f
Ġp a
ĠĠĠĠĠĠĠĠĠĠĠĠĠĠĠĠ ĠĠĠĠĠĠ
la st
Ġmodel s
Ġ1 0
3 4
Ġms g
ĠĠĠĠĠĠĠĠĠĠĠĠĠĠĠĠ Ġ
de scription
ste m
Ġa d
8615 8
Ġ[ "
to p
ã ģ
Ġ Q
ind ow
re q
Ġg ener
ust om
A D
Ġa b
Ġax is
N A
Ġ{ "
9 6
Ġe vent
h ash
Ġa g
Ġt ra
Ġf ield
c at
com mand
Ġob j
P E
le vel
ĠS et
ge st
Ġcon nect
s pec
Ġc al
P o
Ġm at
ri x
m y
t ask
st ack
sen d
ĠCon straint
D I
o us
)) )
file s
le s
ifi er
og le
ax is
Ġt ensor
Ġ K
9 8
t ensor
S tr
v ed
ri but
en ame
i ce
m ary
sc he
A B
p atch
P O
ang u
label s
Ġm o
Ġp os
s ign
fi elds
w ard
key s
Ġo per
lic ation
D O
angu age
s v
de lete
ag er
loc ation
Ġf irst
Ġ load
d own
ut es
Ġl in
vi ron
i ct
se arch
re l
le ction
Ġan y
q a
con d
n t
â ķ
st amp
m ask
Ġco py
i as
ĠV alueError
ig h
Ġ lo
C ol
1 3
r andom
U L
Ġ argument
Ġex p
r iter
te mplate
ise s
te mp
lob al
ust er
Ġre quired
ch ar
cur rent
Ġp art
T ime
d type
ĠS t
Ġ ver
co py
p ol
at ive
V alue
p end
g n
rep lace
Ġp ri
U N
U S
ist s
de bug
9 0
Ġ ),
a ke
ser ver
Ġt e
Ġcom mand
P T
p ass
e val
on ly
Ġsh ape
ex ec
Ġno qa
num ber
r it
p lace
li ke
ra ph
2 2
p age
r ad
Ġm odule
ĠĠĠĠĠĠĠĠĠĠĠĠĠĠĠĠ ĠĠĠĠĠĠĠĠĠĠĠĠĠĠĠĠĠĠĠ
s cope
Ġi tem
ra p
) ]
fi r
I L
on ent
Ġdata set
t ect
Ġb ack
Ġlog ging
ent ity
A t
ĠP ar
o ver
w idth
Ġfile s
Ġre ad
Ġ< =
Ġcon tin
sh ot
a che
ĠĠĠĠĠĠĠĠ ĠĠĠĠĠĠ
e poch
Ġi m
Con fig
---- --
iv en
Ġ 8
el l
bu ild
G roup
Ġor der
Ġn umpy
ä ¸
ĠĠĠĠĠĠĠĠĠĠĠĠĠĠĠĠ ĠĠĠĠĠ
net work
ph a
ib le
Ġen um
il ity
ĠĠĠĠĠĠĠĠ čĊ
j ob
ĠD ata
ĠU n
Ġcon tent
3 0
im g
v o
r ate
5 4
ĠĠĠĠĠĠĠĠĠĠĠĠĠĠĠĠĠĠĠĠĠĠĠĠ ĠĠ
he ader
n ing
v olume
col umns
mb er
T T
Ġ val
per t
â Ķ
st ep
ile d
ran ch
set tings
A C
i a
le ase
par t
B u
it ies
n ap
ist er
se ssion
ut f
par ameters
Ġt ag
ch ange
pe d
i ss
p c
iz ed
Ġser ver
v id
st er
[ -
Ġe lement
ann ot
ed ge
Ġ --------
st ore
ef ault
Ġo ptions
low er
B ase
', '
L og
py thon
col or
Ġo ver
i ent
par ser
et work
p ub
stat ic
di ces
to col
m atch
Ġcon text
idd en
Ġ ...
a ction
clo se
Ġs o
Ġa uth
Ġb ut
2 4
Ġlog ger
cl s
I S
O b
st ream
Res ponse
ĠL ist
pert ies
T o
mple ment
w o
iz ation
Ġbu ild
Ġc or
p u
ff er
lin k
p v
po st
Ġv ariable
o ps
Ġs ample
t t
Ġresult s
################ ################
ializ ed
form ation
n el
ma ke
Ġst atus
Ġma ke
Ġ &
` .
gra m
1 00
fo re
gra ph
on t
Ġdist ribut
f ter
ializ er
Ġfil ename
d u
Ġdo es
x y
ol s
ult ip
or d
vi rt
Ġpro ject
Ġu sing
f n
T he
l ing
N ot
me tadata
che s
c md
re ak
nap shot
e qual
s u
g en
ES T
cri pt
6 5
Ġm atch
H e
A c
st d
U p
c b
me an
Ġhe ader
Ġcontin ue
= {
Ġspec ified
i que
Ġa ction
un k
Ġr andom
d jango
m t
C ON
l ass
Ġt able
Ġ> =
ail able
un ds
Re quest
m ory
Ġ2 01
" ])
er r
uc cess
[: ,
i elds
lic ense
ĠT est
t ed
il der
pa rent
s core
bo ol
ent ial
ca che
Ġ local
s ol
c li
'] ['
Ġs ame
b ar
T R
8 4
5 01
Ġg iven
Ġpo int
âķ Ĳ
do main
ĠO R
emp ty
st all
l ta
( _
Ġp d
P ath
Ġ ],
Ġfil ter
result s
Ġ limit
ta il
In ter
** **
con v
he ight
ĠĠĠĠĠĠĠĠĠĠĠĠĠĠĠĠ ĠĠĠĠ
ta g
o per
Ġs ort
im um
Ġsup port
Ġ 7
'] .
t en
able d
] ['
et ch
cl asses
f er
0 3
Ġde st
la mbda
ug gest
Ġpl t
Ex ception
H E
Ġm ode
Ġs cal
in s
scal e
le ct
n ext
Me ssage
object s
ĠP y
id get
lin es
. ')
Ġto ken
lay ers
Ġdate time
Ġ loss
Ġde scription
) ),
M et
tx t
Ġin to
H O
a u
Ġla st
tro l
B o
L I
p ing
at er
T I
ĉĉ ĉ
s w
Ġm an
Ġt ask
E X
Ġco unt
2 00
9 4
d de
date time
l an
Ġ ass
Ġde vice
Ġpar ameters
Ġt uple
ac count
Ġ1 00
Ġext ra
) ):
A l
Ġ https
me tri
Ġla mbda
ĠP ro
con f
AT E
T e
by tes
pro b
sh ow
stri p
7 1
Ġst at
âķĲ âķĲ
que ue
âĶ Ģ
s ort
Ġch ange
point s
ĠT ype
Ġwe ight
pre fix
Ġwh ile
z e
col umn
6 6
U ser
ran sa
t rue
NA ME
bo se
< /
ver y
v ariable
w ay
as ync
ers ion
Ġma in
s rc
ock et
fe atures
im izer
i an
Ġd im
Ġp ort
ĠEx ception
F orm
t otal
Ġpar ameter
Ġne ed
ĠA N
l per
0 8
b it
ĠĠĠĠĠĠĠĠĠĠĠĠĠĠĠĠĠĠĠĠĠĠĠĠ Ġ
Ġf ull
\ \
co ding
ĠC ON
pe line
oft ware
Ġfor m
vide o
V i
vis ion
ĠAr gs
ĠSe e
trib utes
connect ion
C om
um ber
f la
ay load
Ġ# #
c ul
ĠF or
pre c
2 5
St atus
T Y
Ġc ase
Ġf ound
ad min
ĠI N
Ġh and
ific ation
ect or
gr ad
( __
Ġa pi
d uct
] ))
e mail
1 9
ri de
e mbed
Ġi ter
oth er
S h
d ay
at ing
ith er
Ġp ack
Ġlabel s
F A
te ger
n ow
fir st
ES S
Ġ ..
re quired
sy mbol
Ġt otal
ch o
v ate
w h
r id
pro file
0 5
Ġcol or
N ode
ction ary
Ġo ptional
Ġser vice
Ġpa rent
per i
pos ition
Ġ qu
Ġv ar
S pec
Ġto p
off set
Ġlen gth
and ard
Ġm ore
orm al
' },
A n
b ot
b ody
ĠAn y
Ob ject
P re
po se
i ang
Ġs ign
Str ing
Ġ1 2
ic s
" ):
ext ra
s ide
A P
en cy
Ġ' .
------ -
stat s
* -
Ġex ist
Ġcon st
Add ress
ateg ory
Ġal low
st orage
Ġb reak
atter n
ol low
Ġt emp
m er
ca st
Ġpro cess
d ump
go ogle
Ġn ext
lo y
Ġa v
Ġe val
Ġpy thon
d ot
co res
trans form
F F
us h
Ġm ap
c c
lat form
A G
S I
0 6
ut ure
TT P
c ro
K E
Ġch annel
Ġch ar
Ġ- *-
Ġim g
Ġ select
D es
mission s
or ies
Ġd jango
Ġ http
Ġ' /
Ġf ields
e ar
~ ~
in ed
Ġin fo
Ġp age
n an
T ensor
C heck
ĠPar ameters
m ote
. ")
f ull
p red
Ġ" --
Ġse ssion
di c
Ġ right
", "
ver age
Ġst ream
i e
g ment
Ġj ob
Ġte mplate
Ġm ark
Ġinput s
Ġp lot
ul ar
In dex
Ġor ig
h as
log ger
Ġw as
ent ifier
ex it
Ġk er
ran k
Ġex ample
fo o
Ġf ix
IN T
fa ct
input s
7 6
i str
Re turn
ĠN ot
28 57
re move
L o
ro und
re st
Ġh ost
( *
en c
2857 14
pass word
Ġw here
Res ult
Ġd if
ab ility
Ġt itle
Ġex ec
. ,
Ġtrain ing
mp ty
__ ,
Ġwor k
al id
f l
channel s
AT ION
cf g
g in
he ad
Ġ-------- --
Ġcol umn
B y
8 2
bo unds
le ss
b ranch
t mp
ab s
âĶĢ âĶĢ
Ġ[ ],
ĠD efault
un ter
cs v
V ER
gr id
py test
ke ep
Ġof f
" ))
Ġdistribut ed
ver se
clo ud
a z
ed it
re al
Ġn on
pt h
di rect
me mber
/ {
time out
O r
Ġset tings
Ġdoc ument
(' --
we b
ĠR es
M O
Ġdi rectory
c le
ens ions
ĠD e
ĠĠĠĠĠĠĠĠĠĠĠĠĠĠĠĠĠĠĠĠĠĠĠĠĠĠĠĠĠĠĠĠ ĠĠĠĠĠĠĠ
ĠO F
box es
en viron
' }
8 9
le m
ol ution
er ate
ĠG et
ok en
Q u
ing le
8615 9
M L
g ress
T O
Ġf ind
ri ver
he aders
t on
C E
UL T
u ang
Ġs um
T H
Ġbo x
7 5
a pt
h ist
Vi ew
O ut
ator s
p n
ition al
i mple
Ġname s
pre ssion
a ises
r ule
ch ain
m od
Ġpar se
f ul
Ġth en
c ase
Ġs u
ï ¼
and as
p en
Ġ lib
Ġs ave
s with
Ġle vel
k ens
u uid
zer os
che ma
ff ect
init ialize
Ġg o
in ation
p k
Ġe ither
I P
set up
ransa ction
In fo
ch ild
l ate
Ġ -------
Ġp ol
Ġm ask
ho u
Ġopt s
virt ual
con trib
i re
con st
ĠT O
') .
s or
Ġhe aders
Ġro ot
Ġb ody
ã Ĥ
Ġre pre
py right
s up
Ġt ri
s ys
Ġre t
ĠĠĠĠĠĠĠĠĠĠĠĠĠĠĠĠĠĠĠĠĠĠĠĠ ĠĠĠĠĠ
ultip le
inter nal
Data Frame
a red
ĠĠĠĠĠĠĠĠĠĠĠĠĠĠĠĠĠĠĠĠĠĠĠĠ ĠĠĠĠ
ex ample
con tain
y le
me ta
( {
8 1
lab le
Ġun it
P y
he x
ã Ģ
Ġin clude
exec ute
r and
C lass
Ġenum erate
3 6
I pv
po ol
C ase
] ),
Ġth an
53 57
de v
e lement
fa il
Ar gs
Ġs rc
3 5
Ġin formation
Ġme tadata
ta ch
ĠS er
l s
Ġg raph
Ġse arch
( -
g re
Ġn n
Ġme an
f it
bo ard
ex ists
un it
w ise
Ġs ome
= %
he d
Ġb et
Co mp
ser ialize
ang le
Ġhe re
r l
'' '
ge x
Ġa fter
Ġre f
wor ds
Ġcontain ing
n umpy
ĠW e
o ption
Ġinter face
s ync
gn ore
ser v
I s
'] [
h a
Ġf ollow
ER R
resh old
add r
bu cket
Ġpro b
= ['
Ġconnect ion
9 1
Ġth read
ug h
Ġra w
Ġst ep
im al
ac cess
a it
u int
Ġp add
a w
Ġ' --
error s
an y
output s
St ate
de lta
we en
li ed
assert True
ĠA dd
Ġsy mbol
ta gs
ac y
sample s
Ġreturn s
C reate
N O
Ġv olume
t uple
er a
act ive
com mit
he ther
con ds
pack age
Ġ ,
g t
Ġspec ific
ct x
weight s
l r
de c
ta ct
app lication
read y
DI R
Ġ' %
Ġf l
u x
vi ded
n own
Ġn etwork
Ġtrans form
Q U
` ,
Ġsh ow
script or
t ick
Ġc tx
Ġw rite
with in
t orch
c v
sche ma
9 5
i code
o lean
Ġme tri
tent ion
D ict
s kip
Ġadd ress
ent ic
ub le
ition s
a iled
n der
or ig
as on
Ġt rue
static method
R L
ug in
me di
] ):
r ary
u ff
Ġd own
Ġe poch
group s
ã ĥ
ĠCo pyright
li ght
Ġ' _
ĠV ar
uggest ion
B U
G ener
Ġ layer
Ġ" ,
ĠU ser
te ms
cent er
t ree
Ġcol umns
U P
C L
l ong
OR T
8 0
g ument
in ce
Ġsp lit
en code
Res ource
================ ================
s on
R AN
Ġen v
. "
= _
re port
Ġ ar
Ġt x
le ft
2 6
ent er
qui re
t d
ex pected
fe ature
Ġ' -
o se
Ġpro perty
Ġy ield
f s
UR L
set ter
tra ct
2 7
mo unt
ab el
ig r
x x
ith ub
Par ser
Ġt y
E L
in dices
C lient
). __
f older
od ing
2 56
ĠI D
Ġs c
par k
e ps
Ð ¾
ĠA l
Ġcon d
po ut
ĠĠĠĠĠĠĠĠĠĠĠĠĠĠĠĠĠĠĠĠĠĠĠĠ ĠĠĠĠĠĠ
N o
re cord
int e
com mon
test s
C ode
i ces
en g
norm al
S ize
de st
s l
ļ Ħ
ce ll
Ġse e
ç ļĦ
ION S
co mple
Ġrequest s
state s
Ġc ustom
oc i
mat rix
sy stem
di fi
inter val
ĠI S
n on
Ġargument s
c ert
red ential
Ġent ity
call back
mplement ed
ĠC reate
Ġ Z
Ġp ub
s ql
Ġc v
Ġthe re
con stant
Ġl anguage
Ġi gnore
T E
ĠY ou
2 1
se ed
Ġid x
US ER
ĠA PI
de code
ro pout
Ġw idth
ry pt
tt p
resh ape
Ġp e
Ġ ):
R ES
Ġby tes
L IC
am era
ĠH e
se q
L e
ce ptions
Re als
I mage
Ġat tribute
back end
comp onent
Ġ" "
pre ss
time stamp
as sed
Ġg lobal
U M
Ġver bose
Ġw rit
Ġpy test
auth or
rap per
Ġt wo
Ġb in
Ġat tr
f g
2 3
s m
Ġi mp
A SE
ĠPy thon
di st
im ul
f ra
b l
C RI
ur i
Ġcon n
Ġ --------------------------------
Ġre l
f uture
TY PE
cur ity
st op
de scriptor
Ġ" .
u ation
Ġbet ween
Ġre p
0 7
Ġfe ature
O per
li sh
O L
in k
Ġme ta
Ġ view
ĠC heck
Ġpack age
Ġf la
ne ss
s k
Ġe mbed
R un
Ð °
Ġstr uct
D ate
I O
he lper
Ġcon vert
Ġhe ight
æ ķ
'] :
pt r
al pha
cal led
ĠG uang
Ġpro vided
Ġ' '
ir s
if t
XXXX XXXX
Ġp i
Ġobject s
ste ps
Ġbe fore
ĠU RL
AB LE
x i
P RO
Ġy our
FA ULT
a f
x ml
Ġav ailable
Ġtime out
Ġ2 00
doc s
Ġker nel
b eta
Ġ Key
E vent
Ġs ingle
5 9
T ra
Ġo ld
Ġex ception
ĠW AR
H and
Ġdi ctionary
ext end
pro to
E T
L ine
m ulti
Ġ: :
u i
str u
pa ce
valid ation
ent ry
Ġa p
Ġc oding
vid er
Ġf rame
M an
er o
message s
Ġvalid ation
li ce
p loy
sa fe
ĠT ime
S ub
0 9
la ck
Ġpre fix
A pp
b lob
CRI PT
Ġt mp
ĠD ict
bo und
F or
Ġ location
in sert
ĠG ener
e m
Test Case
Ġoff set
] +
ĠS tr
ĠAN Y
ĠD E
fe rent
ta ck
Ġoper ation
iv ation
L ay
Ġreturn ed
ex ception
comp ile
m ath
g ithub
Ġ utils
is ion
s ig
po licy
Ġde l
pre dict
ĠN ame
) [
Ġit s
Ġscal e
idd le
P AT
Ġf ig
ag ent
li p
C K
user name
" }
Ġre move
app ing
B lock
\ '
Ġe mpty
å ı
Ġo ption
Ġdi rect
3 1
Ġal so
man ager
at io
Ġst d
path s
Ġtype s
pri ce
h idden
it or
pos it
Ġpo st
ĠType Error
nect ion
Ġent ry
D ES
': '
V alid
æķ °
Ġwe b
f fix
Ġal pha
2 02
T able
ĉĉ ĉĉ
Ġlin es
Ġnode s
Ġc ache
v es
Con text
tail s
: ]
u sed
S S
Ġhas attr
reg ister
) ',
Ġs kip
pro perties
A PI
(' /
Ġwith out
load er
Ġcreate d
at tribute
Ġac cess
4 4
a uto
Ġs a
8 97
D AT
ĠTO DO
IT Y
3 7
qui res
ord in
de red
Ġ" \
var s
N umber
S y
S ON
get ter
con n
D is
Con tent
Ar ray
å Ī
di f
w indow
le ep
ub e
GE T
in es
load s
V E
b r
( ['
Ġs oftware
pe ed
as ic
ĠC h
hand le
en coder
ren cy
C A
R aises
Ð µ
Ġf unc
Ser vice
valid ate
Ġkey s
b a
u ate
Ġ 9
start swith
it ch
vo id
Ġext ension
8 5
di rectory
Ġre nder
Ġ loc
Ġc ell
Ġfollow ing
h er
arn ings
+ +
g lobal
en e
rel u
comp ute
assert Raises
( ?
one s
di o
dis play
Ġdb g
ĠĠĠĠĠĠĠĠĠĠĠĠĠĠĠĠĠĠĠĠĠĠĠĠĠĠĠĠĠĠĠĠ Ġ
Ġdis able
bo ok
ri es
Ġv is
ĠH TTP
Ġb ot
ma ster
arg v
o uld
Ġc ho
ĠA t
ho ok
Ġm ath
ĠD is
iss ing
c u
ser ved
Ġp layer
z ip
Ġsort ed
in stall
Ġle ft
Ch ar
il y
c an
di ction
A uth
n a
al low
pp ing
Q L
bu ffer
Se quence
D F
P er
} /
Ġp assed
) *
c ap
Ġr ule
ĠN OT
i k
ce d
ĠEx ample
ĠData Frame
Ġn ormal
Ġde pend
Ġc md
Ġz ip
C all
se ction
pub lic
KE Y
w d
d ong
Po licy
Ġ keep
in clude
Ġw ait
di stri
az ure
T rans
in valid
he lp
Ġ1 6
O P
Ġ' __
Ġset up
EN SE
p b
ter nal
re ction
Ġmat rix
ĠWAR RAN
I tem
Ġ utf
Ġoutput s
. ",
Ġget attr
Ġal ready
IN D
t ure
ĠĠĠĠĠĠĠĠĠĠĠĠĠĠĠĠĠĠĠĠĠĠĠĠĠĠĠĠĠĠĠĠ ĠĠĠĠĠĠĠĠĠĠĠ
ĠGuang dong
U B
l int
Ġp h
, "
P ri
Ġac count
opt s
T ag
ic ro
ĠĠĠĠĠĠĠĠĠĠĠĠĠĠĠĠĠĠĠĠĠĠĠĠĠĠĠĠĠĠĠĠ ĠĠĠĠ
ĠE n
or ity
vi ous
us r
Ġch ild
Ġdo main
Ġ Ð
res pon
ĠL O
Ġsupport ed
end point
S ER
Ġ err
Co unt
ĠSet tings
Ġ" /
wor ld
Ġwor d
6 7
Ġs uccess
sche d
Ġse nd
istr y
ĠV ersion
A GE
ar ds
Ġs cope
li ance
and id
ĠR un
n one
ro le
Ġcon v
cre t
ra m
row s
A A
cl uster
f c
Ġre port
log in
z hou
Ġun ique
M ax
ow er
sum mary
at al
o ok
ifi es
F e
F rom
license s
f etch
Ġfe atures
to m
Ġc lo
sv p
ch ron
pa che
s oft
l anguage
ext ension
In stance
Pro file
viron ment
Ġs ql
uff le
PAT H
Ġi p
Ġm y
Ġst ack
Ġde tect
( \
M odule
W AR
R A
re t
he ll
Ġcl uster
2 9
Ġn ow
con struct
R svp
o unt
train ing
metri c
4 8
D o
g y
D ig
S ource
ra ises
j iang
al ance
sol ute
EN D
c lean
am ma
F T
Ġde lete
di ms
Re g
or ds
w Rsvp
Ġg rad
zer o
wRsvp Te
o o
fi ll
ac c
Ġob tain
53 17
d t
f b
ĠĠĠĠĠĠĠĠĠĠĠĠĠĠĠĠĠĠĠĠĠĠĠĠĠĠĠĠĠĠĠĠ ĠĠ
Ġconfig uration
c p
s cores
yn chron
V AL
peri ment
= {'
me d
Ġcomp onent
p g
Ġi tems
init ion
e a
s q
et s
CT ION
Ġw hether
Ġvariable s
ĠT HE
Ġ2 0
Ġweight s
3 9
M ENT
od s
ĠI t
Out put
po w
iv ed
Ġper missions
b ias
ch ine
image s
St orage
3 8
de sc
ud a
Ġp ers
cur acy
iv ity
= -
Ġc fg
let ed
se c
Ġf in
Ġde bug
Ġ html
c d
T his
il ter
Ġtag s
ĠA ll
inter face
0000 0000
Ġd t
re ed
at ic
Ġser ialized
tro ll
H T
h en
(" --
ste ad
metri cs
A d
Ġf ail
Ġcal led
D B
Ġ" -
c ustom
Ġerror s
Ġ' \
Ġre al
am s
user s
ĠW IT
doc ument
set s
prec ated
Ġa ut
Ġs chema
") .
PO ST
TI ES
6 0
Ġt ree
b n
c pu
init ial
ve c
Ġan not
DES CRIPT
W e
Ġtest s
Ġbu cket
Ġty ping
M S
f in
do uble
F low
Ġh ash
Ġco mple
Ġw ant
ï¼ Į
contain er
iddle ware
m ul
Ġs ig
top ic
ar m
um my
": "
} "
Ġs w
ve lo
log ging
Ġdis play
a ded
En try
ä »
re set
Ġa uto
N et
ge d
con vert
P L
en sed
Ġbe en
Ġse nt
g g
Ġt er
url s
V ersion
Ġ like
ro ss
ro ugh
, '
4 0
at t
Ġpass word
Ġlin k
Ġp andas
ĠP ath
ok up
pro tocol
Ġst ride
Ġre ference
b ers
me mory
Ġc a
ss ible
Ġst op
ran sp
pa re
Ġtensor flow
at s
At tribute
**** ****
_ (
le g
Ġs k
sh ort
Ġj ust
Ġst orage
Ġg en
redential s
d rop
o id
ex ceptions
am ount
He ader
s uccess
Ġ vi
th is
ca use
Ġp red
or ation
b est
un its
app ly
Ġcall back
de tect
ĠS h
ĠC ol
ta x
gener ate
Ac cess
Ġo w
ter m
Ġe v
ĠWARRAN TIES
ss ue
sh ip
r pc
Ar gument
ar r
Ġse cond
ĠB ase
entic ation
æ ľ
Ġm od
Ġdif ferent
it al
w s
w arning
ĠA pache
"] .
Ġre cord
enc ies
Ġin cl
Ð ¸
L abel
- %
Ġ" %
lo op
Ġpre dict
Ġextra ct
Ġh idden
troll er
" {
D S
an s
rep r
T oken
ĠT o
R ule
T h
f lat
b b
un ique
FI LE
Up date
Ġ et
re mote
Ġp s
if act
AL L
resource s
g l
P ORT
d river
er ic
En d
hand ler
L icense
th ing
pi peline
M ock
n i
p ayload
u an
Ġs cript
to kens
Ġ_ ,
Ġcomp ute
g or
end er
ĠCo mp
extra ct
C P
ateg ories
Ġp ayload
Ġcom mit
âķĲâķĲ âķĲâķĲ
th reshold
Ġgener ate
Bu ilder
Ġin dices
Ġs core
ĠF ile
"] :
Ġcal cul
LO G
M M
am l
e q
g ger
(' _
di v
Ġde c
Met adata
I G
g round
re po
method s
cript or
Ġpro perties
8 8
Z E
â Ģ
Ġpoint s
F unction
ul er
T ER
e ded
Ġen coding
lat ive
Qu ery
h older
D IT
Ġ video
al y
con trol
to ols
In valid
Ġ5 0
event s
Ġ" _
ap ache
ĠStr ing
( {'
A ll
I mplemented
u ild
end ing
r s
Col umn
f fi
Ġ //
ut or
ĠM e
down load
iss ue
gor ith
red u
g b
Ġcon f
s im
Ġcor rect
s age
w here
Ġact ual
Ġ edge
ĠIn ter
create d
igh b
ar ies
ass ign
Ġcol lection
# !
f req
h y
al let
Ġmethod s
p latform
Ġm ultiple
co unter
M ap
b ro
Ġpy lint
pro duct
F OR
re ssion
Ġn et
Ġg rid
Ġbase d
b box
co s
") ;
yn am
W ith
Con nection
Log ger
Com mand
W idget
f inal
Ġs m
Ġe very
Ġrow s
1 99
O n
Ġse quence
config uration
fla gs
Ġb est
Hand ler
c ategory
class method
tra ce
ma g
Ġex pect
s leep
Ġ" ",
Ġinit ial
Ġp ick
Ġt ick
Ġthe m
hist ory
L oc
(' -
(" \
Ġbo und
de pend
Ġin stead
ĠĠĠĠĠĠĠĠĠĠĠĠĠĠĠĠĠĠĠĠĠĠĠĠĠĠĠĠĠĠĠĠ ĠĠĠĠĠĠĠĠĠĠ
lan k
h igh
Ġsy stem
Ġa mount
Des criptor
Ġf ailed
P C
Ġm on
=[ ],
Ġtra ce
285714 3
( **
4 285714
] ],
oc ab
com m
process ing
Form at
4285714 2857143
Ġapp lic
ĠĠĠĠĠĠĠĠĠĠĠĠ čĊ
---- -
i mp
ker as
HO UT
ar s
Ġ[ [
00 1
Ġag ent
D et
v ing
) ;
M ES
dir name
p r
service s
Ġback end
Ġpi peline
: %
Ġd on
Ġelement s
Ġb oth
el y
Ġpos ition
g it
v ol
Ġc lean
pro p
Ġspec ify
å ¤
Ġ' ,
Ser ver
p layer
name space
Ġcor respon
g ative
un try
__ )
AS S
Ġwrit ing
y ear
se quence
in c
st yle
e k
assert Is
opt imizer
le arn
iz es
way s
a ctions
~~ ~~
Ġ ~
Ġcon stant
di ff
Ġorig inal
s uggestion
Ġd ir
ĠN ote
P ER
s ite
in v
th read
DE FAULT
Ġmessage s
in x
est ed
r u
par ameter
dump s
. ',
al le
ic ensed
Ġh ow
O ptions
T EST
æ ĸ
IN E
tra ck
Ġp lace
Ġdata base
ĠT ensor
F ound
he s
set ting
Ġthe se
Man ager
ĠS hand
ĠI mage
ast ype
ĠShand ong
C C
w in
Ġ" __
ĠD o
AC K
ĠNot Implemented
ĠLO G
Ġstat s
a ir
__ ()
Ġl ong
port ed
AN G
8 7
o red
Ġe mail
Ġopt imizer
fact or
} ")
Ġthe y
ic le
ĠO n
__ ':
ĠU p
Or der
d m
ut er
ĠI P
lay out
Ġpadd ing
" >
mb ers
Se ssion
I M
W N
z one
re qu
le ctions
Ġs ince
Ġb lob
DESCRIPT OR
ma c
d ropout
u red
con cat
P ack
Ġgener ated
ĠWIT HOUT
Ġw indow
Ġ} )
#! /
P S
Ġp ad
Ġdef ined
Ġreg ister
Ġad ded
pri vate
ĠK IND
C M
act or
bu ilder
Ġ( (
)) .
com ment
H el
'] ]
Ġre ce
up per
Ñ Ĥ
Ġ queue
ĠC al
. *
t ransaction
der r
av ailable
E lement
Ġh ist
ĠL o
epoch s
Ġrepre sent
ĠĠĠĠĠĠĠĠĠĠĠĠĠĠĠĠĠĠĠĠĠĠĠĠĠĠĠĠĠĠĠĠ ĠĠĠĠĠĠ
col s
distri but
Ġ $
di ctions
ac cept
own er
Ġfunction s
real m
Ð¾ Ð
_ %
ob s
Con v
stra ct
Ġin st
Ġme mory
it es
LE CT
Ġv ari
ĠN o
Bo x
LIC ENSE
ateg or
4 5
ĠL icensed
Data set
EX T
V ariable
de pth
test ing
Ġ% (
sub scription
En t
ransp ort
å ħ
Ġre place
block s
S cal
] ])
ro ute
p attern
Ġpo ol
it ive
Ġde ser
Ġapplic able
In teger
A s
c uda
Ġcontain s
I R
P tr
l lo
p ad
Ġtime stamp
argument s
CH E
ERR OR
F O
ex c
ver ify
module s
ath er
v a
Ġ{} '.
c er
at ches
P os
k nown
P ol
R o
Ġin stall
() .__
update d
Ġsh ort
Ġf ont
ir cu
AR T
å Ĳ
Ġp attern
Ġex it
Ġbe cause
' \
Ġw arnings
In it
Ġass ign
e e
s lot
s in
Ġc annot
Ġh igh
reg ion
E CT
ĠUn ion
di stance
serv ation
ex cept
est im
ĠC om
cor rect
f ree
w riter
ser ies
r f
Ġhe ad
} .
ynchron ous
r b
ho me
Ġdis k
1 000
N OT
Ġ ge
bo ve
() ))
Ġth rough
"] ["
ific ate
plot lib
A Y
_ ,
Ġs ure
Ġchar act
ter min
A ction
W indow
Ġre du
code s
Ġat tributes
ateg y
ax A
Ġpol ling
en ces
Ġm er
De vice
at tributes
is hed
Ġex ists
Ġvalid ate
ker nel
it ude
is h
s d
ase s
-------------------------------- --------
Ġex press
Ġauth or
Ġhand le
S ION
ched ule
s napshot
Ġs ocket
co in
Pro perty
m al
u ded
C lo
inte ger
Ġimp lied
4 2
e ff
pl an
Ġlo op
Ġrepre sen
r type
v m
Ġ li
12 8
D efault
up load
cor ds
Ġimage s
an k
gorith m
g p
Ġg over
Ġde sc
ance l
ĠM odel
Ġ{} ".
ĠNotImplemented Error
Ġf it
4 7
b ind
r atio
init ializer
O p
ĠĠĠĠĠĠĠĠĠĠĠĠĠĠĠĠĠĠĠĠĠĠĠĠĠĠĠĠĠĠĠĠ ĠĠĠĠĠ
Char Field
h od
Ġapp ly
d ings
Ġa bove
to ol
C ur
Ġf inal
Ġla w
Ġgroup s
C al
w idget
() [
Ġr ate
Ġkey word
ploy ment
' {
en abled
S p
v ector
Ġexist ing
Ġmetri c
W OR
lic it
ĠB y
. \
O S
n ull
Ġd ay
L L
gener ator
Ġs v
Lay er
S A
ynam ic
D i
Ġse ction
Ġend point
F ilter
å į
Ġ3 2
variable s
Ġc re
Ġp atch
ur ing
" \
on s
IC E
1 97
O f
Ġin teger
fa ke
ign ore
en able
Ġs ol
ĠP o
redu ce
Ġarg parse
col lection
ight s
ä º
Ġver ify
std out
d uration
o ptional
un i
qu ant
target s
a N
o ols
construct or
g ments
i er
Ġn ull
(" /
par ts
Ġ2 02
Ġname space
ST AT
Ġcomp liance
AS IS
pow er
Inter face
Return s
Ġfe ed
s ocket
Ġ' {
Ġm ulti
Ġres p
= ["
ib Builder
Ġmax imum
Par ameter
/ '
re c
Ġen able
ys is
pol y
ra ise
fa ces
Pro tocol
DIT IONS
ĠM o
ĠH ttp
Ġset ting
_ {
b le
1 02
ch unk
Ġhe lper
Ġs av
al ias
Ġab solute
posit ory
} '
re lease
Ġco re
fo und
Ġpro duct
è ¯
Ġg t
ĠB ASIS
fix ture
jo int
Ġgover ning
æ ĺ
se conds
Ġe qual
pro gress
ĠCON DITIONS
eng ine
} ')
age d
ak er
" },
C RE
Ġc ategory
In t
iv es
riter ia
M o
ab c
BU G
Ñ Ģ
Ġ license
Ġpre v
t wo
ĠĠ čĊ
cli ck
Ġs napshot
Ġcl asses
RO M
Ġbin ary
ircu it
8 3
d raw
i pe
m g
v ari
id er
line ar
fla g
Ġad min
Ġag reed
ex clude
ĠI mport
S napshot
s i
t ab
Ġde tails
ex ist
ĠS y
FI G
4 6
ex port
Ġco mb
ens ure
]] :
Ġsub process
Ġcontain er
Ġlimit ations
Ġin valid
c m
ri c
Ġper form
stru ction
( ["
] *
Ġse par
Ġz ero
Ġab out
D ef
P AR
fe ed
'] ))
ag g
ĠRes ource
se curity
sq rt
al th
ĠT ext
Ġtra ck
) ])
Ġ1 5
ĠĠĠĠĠĠĠĠĠĠĠĠĠĠĠĠĠĠĠĠĠĠĠĠĠĠĠĠĠĠĠĠ ĠĠĠĠĠĠĠĠĠĠĠĠĠĠĠ
mi ss
H TTP
Ġ 64
Ġpre vious
Ġcom mon
R ange
U D
Ġmetri cs
il er
Ġde lta
ĠUn less
D oc
n g
Ñ ģ
201 9
d at
l t
ad cast
Ġ3 0
St art
N etwork
S V
Ġm apping
G L
b us
cur sor
I ter
Ġto kens
ĠA uth
quest ion
Ġac cept
as ure
la g
Ġse q
tri e
fa iled
å ®
Ġm ibBuilder
pro xy
nd array
Test s
Ġass oci
C l
M ode
Ġ ])
Ġle arning
Ġinter val
Ġunit test
ĠO r
filter s
DAT A
Ġ el
A ct
a ut
k w
re ce
so le
pn g
7 3
Ġex pression
Ġid ent
) /
S D
è ¿
Ġv ol
ĠQ u
ategor ical
D ER
I f
c ard
u ally
Ġre mo
Ġs im
SI ZE
h ass
in str
ue st
am ily
dis k
4 9
Ġ" )
Ġs cores
ver bose
ci i
igr ations
Ġf etch
ut ed
pre v
Ġpre sent
Ġpri vate
F L
ame tri
Ġcon trol
([ [
b alance
Ð ½
Ġmark et
se ns
pe er
ad apt
Ġpo ssible
p d
Ġp op
reg istry
but ton
O UT
Ġ' ',
Ġin d
unt il
ĠCon fig
A M
Ġc li
lic a
Ġpo licy
N um
`` .
: \
Ġf ill
es c
Ġpath s
ar ange
ent s
Ġd er
art ifact
oper ator
R out
Ġre direct
pi ck
a a
in f
ome try
} ".
Ġb box
Ġ[ (
il ities
Ġuser s
Ġdist ance
Ser ies
CO L
andid ate
Re f
ib ility
% (
.. /
g pu
à ¦
Te mplate
Ġse ed
attr s
Ġag ain
component s
Call back
Ġ1 000
ĠĠĠĠĠĠĠĠĠĠĠĠĠĠĠĠĠĠĠĠĠĠĠĠĠĠĠĠĠĠĠĠ ĠĠĠĠĠĠĠĠĠ
ĠU se
Ġdoes n
h s
s ist
Ġd one
ver ter
difi ed
A pi
Ġthe ir
ĠA pp
ces sed
ast er
ro t
scri be
cur s
check point
ĠN umber
B atch
MA X
Po int
Ġoper ator
Ġallow ed
igr ation
Ġtarget s
__ ":
TR A
= {}
Ġre verse
Ġs ide
Ġnot e
r al
Ġadd itional
5 8
dif y
' [
A ss
i ps
č ččĊ
Ġre ason
Ġin te
ma pping
pro ps
ac ity
Ġcomp at
Ġstat ic
. '
N ew
s qu
v s
se cond
assert False
Ġmo ve
Ġc ap
Ġf low
Ġb ranch
ĠP er
mo st
bu f
W S
s pect
Ġfor ward
act ory
St andard
201 7
ful ly
ĠW or
Ġupdate d
Ġdown load
he et
Ġs yn
Ġd raw
en u
im er
ren der
ĠW hen
ĠJ iang
Ġn orm
frame work
ĠT oken
Ġen vironment
) }
b its
S O
for ce
C I
å Ľ
om atic
Ġms at
B O
m ing
sing le
cri ption
eval uate
Ġbox es
Dig ital
il tin
ation al
Ġex c
MA GE
å Ĭ
Ġh y
Ġsu ch
Ġo c
Ġpe er
1 98
P U
Ġp k
Ġp latform
te red
ĠE X
ix el
task s
TI ME
Ġf older
ĠO pen
Ġun icode
Ġen code
Ġrun ning
Ġst ore
Ġf n
Ġst yle
format s
mplement ation
, ),
Ġre st
Ġs ix
ST R
ç »
se cret
Ġm issing
il ar
ĠO b
c la
en ded
Ġpar sed
requ ency
ĠS pec
Ġwor ds
T ask
y a
de coder
as is
99 99
Po ol
Ġ lock
Text s
Ġo ur
ĠJ SON
Ac count
Ġdim ension
V olume
j ust
w rap
} '.
er ature
Ġi ssue
Ġd ump
Ġw ould
up lic
Ġwith in
Se arch
Ġdocument ation
cle ar
m id
s g
Ġb it
Ġh ass
INT ER
é ĩ
ect ion
pre ter
dd d
bin ary
Ġpers on
S c
Ġ- =
Ġright s
MO DE
Ent ity
N N
en ch
it ed
Ġco ordin
load Texts
G ER
Ġro le
comple te
Ġs pace
Ġcur sor
su ffix
miss ing
a i
Ġre mote
und le
by te
Ġi pv
ch or
time s
read only
Ġst eps
B ack
r ong
"" )
') ),
ĠC ave
comp at
be gin
ĠS ub
ĠC O
ust ers
sign ed
2 55
sh ift
Ġen coder
ong o
cor ding
################################ ################################
æ į
ĠA s
Ġpro file
6 9
æ ł
a fter
s park
data base
Ġbu ffer
MA P
M IN
g amma
ĠB o
Pro cess
Ġpadd le
en um
Ġv ector
Ġoper ations
Ġgo ogle
E num
U E
V ar
Ġre q
request s
b ig
h wRsvpTe
de lay
Ġ2 5
sh a
Ġmat plotlib
ä ½
Ġ ut
Ġ rank
Ġbe ing
Col or
ĠSer ies
Ġd s
ĠS oftware
Set tings
b ad
scal ar
ĠAN D
7 0
H ttp
Ġto ol
]) .
en coding
Ġby te
sw ap
' ^
Ġc ert
Ġf ree
Ġcol lections
11 11
command s
ĠO ut
AG S
n b
al led
as cii
Ġpro vide
ializ ation
P UT
r v
Ġre lative
co st
Met hod
P R
on ce
ran ces
Ġax es
} }
col ors
port s
mit ted
A uto
] ["
t ile
al ysis
li s
E C
in st
add ing
Ġk ind
train ed
mer ge
c ing
RE AD
ĠSt andard
grad ient
c r
f ont
() ),
la p
ĠIn dex
f name
res p
Ġ: ,
Ġpro tocol
ĠM ulti
ĠN aN
Ġopt im
ĠSet s
Al ert
sort ed
WAR E
g ence
m m
en gth
ss ian
Ġe ps
Ġme di
ĠL og
struct ure
Ġevent s
z y
un ct
key word
A UT
h at
qu bit
Ġu int
Ġtest ing
man y
g ine
i res
Ġm x
the ta
## #
mpl ing
Ġsub ject
Ġid entifier
Ġc rop
li m
Ġ[ -
Ġme mber
Ġpro gram
AT T
m k
t il
Ġin dic
id entifier
.. ..
Ġreg ion
Ġselect ed
) \
O B
pl ugin
Par ams
h int
def ined
ĠF ROM
view s
ro ll
V alueError
Ġcon struct
mb le
Ġ{} )
exp and
Ser ializer
A li
N E
ut able
lo okup
ĉĉ ĉĉĉ
C md
at tention
que e
ĠE nt
ac le
environ ment
alle l
M in
è ¡
ĠS ich
Ġde v
ĠF I
if est
Not Found
ĠSich uan
g ent
log y
c rypt
le x
le ar
li a
Ġfor ce
Ġse ns
) "
F loat
T rain
id ent
ad ing
per cent
Ġch unk
Ġpl an
ĠY un
O pt
s ses
ut ing
Ġst ock
CON F
ĠYun nan
in ds
co mb
sh ared
get Logger
Ġse conds
Ġinter nal
5 2
ip v
â ĸ
le arning
for ward
MA IN
Ġcorrespon ding
ĠC lient
log its
SE LECT
Ġcommand s
__ .
par ametri
per missions
W rapper
(' %
Ġwh at
sy m
âĶĢâĶĢ âĶĢâĶĢ
M I
de s
ar ge
ir d
dec ay
co me
Ġurl lib
/ ',
(" %
Ġal ways
IT E
opt im
d l
Ġre quires
s imple
al t
Ġdistribut ion
Ġ1 1
Ġch ain
Ġpub lic
, )
I E
Ġ) .
ĠN ode
ron t
VER SION
N s
0000 00
S C
Ġ' )
ĠB axA
Ġun its
Ġsample s
TH ER
Sy mbol
ĠExample s
T arget
ul ation
Ġlib rary
h ot
Ġ arch
arg in
Ġwor ld
Ġlo ok
Ġap pro
S H
i od
at tach
instance s
esc ape
') ])
__ __
res ses
Ġstr ings
child ren
l ation
u ch
ĠT e
cro ss
Ġe ffect
ĠĠĠĠĠĠĠĠĠĠĠĠĠĠĠĠĠĠĠĠĠĠĠĠĠĠĠĠĠĠĠĠ ĠĠĠĠĠĠĠĠ
sign ature
Ġtop ic
() ).
ĠT rans
St ream
me sh
ce l
Ġ ì
re view
Ġo ps
AN D
let ion
CON FIG
Ġ virtual
co ver
]] ):
Ġne eded
Ġgrad ient
4 3
O ptional
al e
ran ce
Ġ2 55
Ġorig in
+ '
embed ding
Ġvi a
Ġ" {
Ġs imul
cur rency
Ġinstance s
Ġfla g
icro soft
re ference
al og
un ch
M at
t le
or iz
un icode
ex pression
be fore
Ġi ds
sub ject
Ġapp lication
quee ze
J ECT
R ed
U RE
k ind
re gex
ĠR E
pend ing
c ut
are a
res sed
us ing
) ],
> \
l ers
re es
re quire
-- -
ate way
Ch ange
parametri ze
M eta
S chema
ç Ķ
Ġv oid
[: -
cli p
fact ory
Ġassoci ated
me m
Ġc sv
Ġcon tact
Ġx ml
Ġact ive
: .
d uc
al ign
Ġ' ')
vo ice
vid ers
Ġin di
ist ribut
for med
b i
Ġ" +
H ER
B ASE
1 01
P RE
feren ces
stru ctions
D own
M T
N orm
re en
Ġat tention
w arn
un ks
12 3
={ "
mg mt
f d
ĠS O
Ġother wise
cho ice
Pack et
pa ir
Ġfl ask
ĠSettings Cmd
sched ule
4 1
O K
W E
le v
ĠA c
ĠE vent
Ġsh util
Ġac c
M ulti
fe e
MA IL
l ang
æ Ĺ
Ġ join
Ġf ra
ĠM ib
ON E
send Text
ha vi
ni Digital
an xi
') ],
IL ITY
re ason
Ġp lease
Ġst ri
SE T
ĠEx it
abs path
bl ue
ĠUp date
> =
ut ation
co ords
Ġb ar
pl t
7 2
9 2
S tack
ĠA sync
tain er
Ġneed s
A nd
w ik
Ġf p
Ġexec ute
Ġmeta var
I p
i us
n ative
and s
FOR M
G B
P age
in ner
Ġ[ ])
è ®
Ġ{ },
s izes
v t
LI ST
6 8
c pp
j i
re quires
"] [
Pro gram
mon th
let on
Ġact ivation
N ormal
} \
ĠV alid
E d
Ġbe gin
Ġro t
Ġdeser ialized
L S
b s
ab ilities
ĠĠĠĠĠĠĠĠĠĠĠĠĠĠĠĠĠĠĠĠĠĠĠĠĠĠĠĠĠĠĠĠ ĠĠĠĠĠĠĠĠĠĠĠĠ
ax es
N UM
Ġs ci
cb b
4 00
Ġco uld
Ġpro gress
uggest ions
ĠHttp Response
b t
Ġ lower
Ġd rop
Ġb ias
pro viders
Ġma chine
av a
G R
S um
Ġ edit
Ġt r
AC E
QU EST
Ġmer ge
M ix
Ġc amera
Ġstd out
I MAGE
Ġuse s
local host
At tr
w allet
Ġma ster
ĠIn valid
peri od
Ġcond ition
W or
e ffect
h d
Ġre quire
ter s
ĠS T
fir m
ench mark
T ri
T ree
p ush
Ġg ap
LO W
p ot
re v
Trans form
Ġsv n
C enter
l st
ist ic
Ġse gment
mpl er
. /
b ed
Ġc ross
Ġ< /
ud ing
rel ation
ãĢ Ĥ
F actory
a vi
p df
s lice
v ocab
Ġcheck point
Bu ffer
2 000
y aml
MP L
late st
sh uffle
ag ing
ĠQ t
An not
m env
"" ,
val s
Ġde precated
Ġen abled
P l
c amera
c ategories
Ġ util
st age
Ġc pp
Ġin v
ex pect
Ġd uring
ĠG roup
vo ke
Le vel
ĠP re
da pt
au dio
Ġ low
ĠT uple
Ġme sh
ca ched
Ġchannel s
Ġrepresent ation
N ING
d ense
w rit
Ġf lat
ĠF ield
mo co
Ġbo olean
Id entifier
' re
Con straint
not e
pub lish
/ %
F ore
Ġre gex
Ġtime s
Ġuser name
F ailed
æ ī
Ġ ))
sel ine
pre view
Ġdi rection
Ġ6 0
k es
v as
Ġ' <
AN T
) ",
r m
comple x
æį ®
g uid
s ome
Ġb eta
ĠS QL
ĠA d
be i
Ġfla gs
Ġsav ed
de ll
ro id
ro py
Ġas ynchronous
Ex ec
cul ate
h our
Ġ mp
al f
Ġi g
con tact
form s
init ions
ĠRe quest
ud it
i li
av g
ĠKey Error
R ow
Ġt ransaction
Ġpro du
T A
b f
f alse
us age
se gment
al an
MP LE
package s
w it
st derr
sp an
96 33
constant s
ĠHe bei
T uple
s queeze
'] ),
OR Y
ĠIn put
trans pose
sv n
Ġdest ination
m ar
ad ya
count s
set Status
Ġman y
Ġmean s
I ST
d k
o ogle
Ġ ensure
lo aded
ue ue
ac curacy
unit test
Valid ator
O pen
{ "
Ġf ake
> <
g ame
re r
um ul
Ġth reshold
P N
Q t
z en
Ġf actor
Ġset Up
Ex t
Ġp ower
Ġpre diction
Ġcho ices
p andas
é Ģ
() ):
Ġsh uffle
5 18
P ass
IN FO
run ning
8615 7
lin ks
{} '.
element s
g an
ge o
Ġs imple
Ġcom ment
flat ten
F ail
S up
b lack
Ġ layers
Ġb ad
mark et
medi a
) (
p adding
') [
ĠR aises
ca de
ĠIn it
O ff
æ Ī
Ġp ut
Ġdefault s
day s
' })
C ore
e lem
Ġa st
Ġdef inition
Ġde leted
log s
pre sent
ĠM eta
ãģ ®
y ang
Ġc types
() ]
ĠD i
ug ment
OR S
av ing
Ġinter pol
rand int
j or
Ġin sert
LE D
ak es
D ep
Ġow ner
U rl
\ ',
Ġhe x
Ġag g
Ġker as
Ġpre c
ut ton
Ġw ho
Ġy ear
æķ° æį®
ĠImport Error
U SE
V ICE
u ous
Ġ1 4
annot ations
Ġsu ffix
7 8
P art
S UB
W arning
ry ption
Ġal ias
Ġf req
ad ded
ma k
pro vider
Re ad
ne ighb
mark er
ĠAr gument
ĠOn ly
ur face
Ġde pth
tri es
iv ative
AP P
M atch
ent ities
li er
Sy stem
Ġincl uded
B UT
t z
sh are
3 00
5 00
D ir
w ards
Ġthe ta
pro gram
Ġex clude
Ġl r
Ġse n
ĠE rror
lib rary
edge s
Ġc y
ializ ers
sol ution
Ġrel ated
s peed
is ode
di rection
ĠM ake
Ġstate s
Ġasync io
rule s
ĠRun time
P ort
de ep
end swith
sp h
Type s
Ġrepresen ting
* .
G HT
L ink
d p
g a
s yn
ĠC lo
sh ould
content s
Ġblock s
Ġpri mary
prob s
ube i
d one
Ġf alse
Ġname d
scri ptions
12 34
DI S
Bu cket
FT WARE
me s
Ġp ixel
as m
ber t
prec ision
ĠOut put
S ocket
re direct
(" -
Ġbe low
ĠO per
ĠH ubei
ci ent
Ġsum mary
Ġsci py
T op
Ġ å
Ġm igrations
con tin
ext ensions
fig ure
ind ent
ug ins
project s
ĠMe ssage
! !
E MAIL
J SON
un ity
Ġup load
Ġsign ature
s parse
ad get
iz hou
ĠĠĠĠĠĠĠĠĠĠĠĠĠĠĠĠĠĠĠĠĠĠĠĠĠĠĠĠĠĠĠĠ ĠĠĠĠĠĠĠĠĠĠĠĠĠĠ
Ex pected
Pre fix
me mbers
Ġs uggestion
return s
Des cription
Fe ature
c ar
c rop
de tail
Ġpro p
storage center
sched uler
M on
N e
Ġ ri
Ġde ployment
ant s
De lete
:` ~
cre ment
FI L
Ġdim ensions
Ð° Ð
[ (
f p
Ġbu ilder
oci ation
6 3
O ne
lic as
Pro xy
pl oration
atter ns
Ġ angle
de tails
il ent
ma chine
__ .__
01 01
cf unc
Ġqu ant
Lo ss
example s
Ġre set
ĠF OR
Ġle g
Ġab s
ĠI d
ĠM ock
run time
Ġmodule s
Ġchange d
medi ate
Ġhist ory
P h
s n
Ġn d
Ġde code
Ġ_ ("
mat ches
Ġresource s
Ġsign al
) ')
G raph
u dio
ĠS E
ĠĠĠĠĠĠĠĠĠĠĠĠĠĠĠĠĠĠĠĠĠĠĠĠĠĠĠĠĠĠĠĠ ĠĠĠĠĠĠĠĠĠĠĠĠĠĠĠĠĠĠĠ
Ġnum bers
Ġpa ir
Ġgener ator
UN T
J ob
e red
l as
un pack
ist ics
######## ####
Ġan other
Ġ-------------------------------- ----------------------------------------
- \
B e
ve loc
ĠP RO
ari o
`` ,
LO CK
Ġcal lable
Ġsk learn
ipe out
R Y
ĉ čĊ
ĠA S
file path
iv ar
Ġle ast
cond ition
HO ST
orig inal
Ġpro g
Ġat tach
AB ILITY
Ġdirect ly
g lob
Ġd river
il on
ĠI ter
ock er
Ġdif f
dest ination
9 3
S k
c redentials
m ix
ĠH T
Ch annel
fail ure
m iddleware
de leted
ur al
ex periment
Ġd uration
Ġw ell
Ġ1 28
ĠDefault s
S a
] (
ator y
Ġent ries
7 4
b asic
en ate
Ġ' [
Ġs chedule
Ġw ay
ĠT h
Ġg lob
Ġ: ]
ĠL e
* (
: ',
f un
res ol
che my
Ġext ensions
fb d
Clo se
t l
pi x
Col lection
Ġmatch ing
a verage
or ary
Ġfor ms
Type Error
position s
Ġdepend encies
d x
ad s
(' <
Ġper mission
Ġcall ing
Ġpick le
Det ail
z ure
Ġb l
con troller
Ġu uid
ine ss
Ġcur r
stri ct
r ing
Ġt s
ĠĠĠĠĠĠĠĠĠĠĠĠĠĠĠĠ čĊ
qu ential
ĠL I
change d
fer red
Ġsvn test
f time
x t
al g
Ġa verage
ĠC ur
Ġat temp
ou se
velo p
s ame
co untry
name d
99 9
source s
Bu ild
au ssian
Ġhand ler
$ ',
re ater
ar is
pe at
Ġ2 56
om ial
Config uration
Ġchange s
ransa ctions
Line ar
ĠHT ML
P ub
Ġlist s
annot ation
^ ^
j pg
age ment
te p
assert In
ĠN e
host name
Ġaut omatic
> ",
S P
Ġ1 3
Ġro und
sph inx
qu ote
Field Descriptor
Ġsm all
: ",
C re
c nt
Ġre trie
cl ar
ĠĠĠĠĠĠĠĠĠĠĠĠĠĠĠĠĠĠĠĠĠĠĠĠĠĠĠĠĠĠĠĠ ĠĠĠĠĠĠĠĠĠĠĠĠĠĠĠĠĠĠĠĠĠĠĠĠĠĠĠĠĠĠĠĠ
201 8
job s
allow ed
Ġremo ved
A ST
t ty
he llo
Ġc ast
ol ds
ĠM et
ĠM ongo
ĠN O
ĠV alue
Ġline ar
UL L
ĠOb ject
Ġig no
> `
Ġn adya
el li
Ġco unter
AT CH
DE BUG
ĠJiang su
pro c
Value s
Ġb lank
Ġto o
col lect
Ġl ate
({ "
orig in
ä ¿
Ġt ake
co very
Ġst ored
place holder
uni form
r r
r as
on y
ot es
Ġ* ,
Ġal gorithm
DE F
++ ++
D ATE
H ash
b boxes
lo or
== =
to ur
ĠF e
lit er
ĠAl so
Ġet c
B ro
{ {
Ġ2 4
ec imal
frame s
p an
z z
al k
Ġm ost
Ġpri or
Mix in
) -
a o
er ies
ro zen
Ġh ook
ist ant
RI BUT
Ġcond itions
Cl uster
T emp
o ugh
re verse
Ġs olution
ex ternal
base name
201 6
Un ion
6 2
I VE
ag ger
iv ely
Ġpri ce
ĠSO FTWARE
S QL
T C
W riter
Ġa ctions
ĠE T
ail ability
dim ension
Ġfin ally
distribut ed
w all
de g
Ġn ested
Ġa void
id ence
pre diction
fe at
======== ====
Ġpart ic
Lo ader
Ġannot ations
} :
Ġ ?
se g
se p
ra g
cl one
In v
Reg ister
adapt er
c ss
st ock
Ġi o
Ġf aker
ct est
Ġw riter
5 1
ot o
Ġw idget
pri ority
sup er
issue s
Ġcharact ers
A b
u a
æ Į
sel l
ment um
part ition
Py thon
L ength
_ .
å ĩ
Ġs lice
Ġ4 0
E val
co gn
Ġd en
ens ity
Ġass ume
I F
Ġr pc
ach ine
RO OT
Ġpl ugin
ĠSer vice
Ġev en
E M
P ON
de serialize
reg ular
row ser
volume s
Lay out
Ad min
518 5
C S
k it
(" [
8615 90
cor ator
84 99
. )
S Y
S ign
is file
Ġh wRsvpTe
ok ie
Ġfilter s
g i
é ¢
Re p
Ġal ign
riter ion
django project
istr ation
S L
ad o
om s
ĠR o
Se lect
{} ".
ä¸ Ģ
Ġview s
Ġco st
og ram
Ġcurrent ly
CO DE
la in
all back
Con trol
Ġrece ived
G e
i ases
p at
ĠD ef
H y
pre dictions
dis able
Ġmo dify
ä¸ ª
Ġ201 8
cho ices
Ġoc cur
âĸ Ī
con s
Ġg ot
ener gy
ok ed
Ke ys
function s
ĠDE FAULT
Ġow n
e v
re cords
pi o
ĠIn ner
dataset s
Ġmat ches
helper s
c ip
di ag
pp ings
ĠCon struct
Ġsub set
ĠCol umn
ut c
Ġin ject
work flow
Ġscal ar
ch ors
Ġcon straint
Ġy et
work er
ĠCON F
Oper ator
- >
M iddleware
an e
Ġd st
ss l
Re cord
ĠP ri
ide o
pri mary
åį ķ
L i
å Ń
02 4
gra de
ä¸ Ń
/ "
B in
Ġ ččĊ
ul k
[' _
ĠD et
Ġadd r
Ġind ent
' +
) ")
con straint
qu ences
Ġbe havi
fa st
sub mit
a ff
list en
Con tainer
Ġne gative
Ġcall s
oper ation
âķĲâķĲâķĲâķĲ âķĲâķĲâķĲâķĲ
' "
6 1
K ind
Ġre served
Ġs hell
ma ppings
ĠR ed
Ġrun time
andid ates
U ST
Ġcon s
Ġfig ure
Ġinst alled
b lank
se e
Ġc lear
pe t
8615 76
Ġser ies
LO C
inte gr
J o
b one
d y
t ol
al ert
Re gex
Ġcol lect
hy per
Ġp tr
te am
Ġr ad
ĠD oc
pre load
Ġattr s
******** ********
velop ment
) +
Ġm log
back up
train er
ME T
Me mory
ĠDis pose
> '
A v
E mpty
Ġs peed
ĠL ine
if f
RI GHT
V ENT
a e
Ġi mplementation
Ġre lease
set Max
Ġset s
ign Key
call s
d st
s uggestions
er ify
de p
al ity
ĠD B
sign al
sw itch
Ġclo se
si red
k nn
Ġc m
mon itor
duc er
PON SE
V ID
å ¼
de l
ĠV ariable
Ġexec ution
HER E
L ong
O F
S to
w atch
Ġf o
ser ve
ri end
ĠC lass
Ġth ose
ĠF unction
ĠM an
stri de
N S
Ġ# ##
Ġapp lied
FI X
202 0
End point
ĠMongo lia
A ME
D D
t k
å º
pro tect
XX X
Pro vider
symbol s
ĠRes ponse
Ġter min
Ġcalcul ate
Ġigno red
T EXT
un ge
all en
Ġex port
us ion
Ġres ol
ir t
ces ses
Ġtask s
uplic ate
S imple
Ġf ore
str ftime
ĠD O
Pro ject
Ġarray s
stant i
AD D
Ġstruct ure
ĠCal lable
C ache
P Y
Ġc enter
Ġre pository
il t
Ġh ome
ise d
ĠIn teger
Ġannot ation
) '
Ġ estim
Ġ= ================================
de letion
ap pro
Ġst ill
ho od
select ed
hand lers
a ces
c id
n c
ç Ľ
Ġu sage
(" <
Ġl ater
rel ated
over ride
Ġin place
tr uth
Ġwe re
wh ite
head s
Argument Parser
B utton
F lag
c n
v lan
ro uter
ut ions
Ġre po
ent ries
co v
Ġb lack
di ctionary
Ġmin imum
Ġpart s
pol ling
Oper ations
~~~~ ~~~~
C ho
d ummy
é Ĺ
li es
Ġapp end
4 04
p id
connect ions
m ultip
dir s
embed dings
pk g
Ġepoch s
| '
er ial
ent rances
vi e
ĠM ax
Gener ator
bro adcast
ru pt
: ])
C ap
b ra
me t
Ġse ss
Ġma cro
Ġ< <
Ġpre dictions
main ing
Ġpos itive
fl ush
STAT US
Ġencode d
oriz ont
5 12
S U
Y ou
u ses
tri al
Ġon ce
read er
act ivation
Ġcheck s
process or
Ch ild
S ensor
S ender
i i
p x
Ġ' {}
ĠO ptions
Ġwor ks
Ac cept
ĠRuntime Error
setMax Access
C F
M issing
as set
() ['
ĠC DF
Ġsh ared
Ġrequest ed
Ġeval u
Ass ociation
O ver
s hell
ĠA ST
ĠP lease
Ġper cent
Ġlin ks
part ial
Bo olean
Com mon
Valid ation
term ine
c ir
d types
g u
Ġ vert
Ġ" {}
mp y
um an
ĠĠĠĠĠĠĠĠĠĠĠĠĠĠĠĠĠĠĠĠĠĠĠĠĠĠĠĠĠĠĠĠ ĠĠĠĠĠĠĠĠĠĠĠĠĠ
tx id
Path Check
MES PathCheck
Z h
d ynamic
Ġex periment
ĠO S
Ġlog in
sub plot
=% .
Gener ic
VAL ID
Storage Center
ffi c
V M
Ġs box
arg max
AR Y
An y
G T
H ist
c ancel
w rapper
de t
Ġp lay
ĠJ MESPathCheck
resource Group
ĠSe quence
aly zer
I tems
ur se
ĠL anguage
ĠO THER
ifi ers
lin alg
KE T
Fail ure
E mbed
Ġ( -
ĠM O
cy cle
ĠAr g
page s
Ġmark er
contain s
tick s
Ġembed ding
ĠNOT E
Ġprec ision
ch at
ed irs
Ġcom m
template s
HE AD
Ġeval uate
agg reg
7 9
L ib
U sage
Ġc redentials
Ġw rap
up y
Ġl on
oc ation
ay ment
AS K
Ġtra its
Ġca ched
avi er
i loc
in a
or n
ĠM IT
table s
Un it
Ġlo aded
oper ations
ĠAt tribute
c riteria
g on
} ",
ro i
ut ures
Ġ( %
çĶ ¨
L im
Ġf oo
ch a
ul ate
ĠA ct
mo oth
ci pe
Ġcontent s
Spec ifies
ĠAl ert
Doc ument
Ġcoordin ates
m ult
u pt
Ġs lot
ho p
8615 86
Ġle t
Ġent ities
order s
Ġreg ular
rid ge
ch art
qui val
gre en
CL ASS
U til
Ġnot ice
Ġnum eric
Con stant
Ġcol ors
inter net
Ġover ride
sw er
sup ported
Ġtrace back
Hel per
AUT H
7 02
B C
B ER
ì Ŀ
Ġal ong
ING S
M IT
N ET
R andom
d c
} ',
Ġd at
Ġb asic
par s
Ġst andard
Ġcur rency
Ġcopy right
Ġcli ck
elli gence
O PT
h ow
w b
Ġf uture
Ġw ipeout
pt s
ĠC ustom
art icle
Ġle ss
trans late
sl ug
atal o
MODE L
Mat rix
allen ge
' d
7 98
m c
ĠP ub
bo ot
valid ator
è¡ Į
R et
g z
ch i
con tract
ic a
Ġac curacy
Ġarg str
WOR D
Ġmedi a
ĠMib Table
li ve
ed s
ref resh
Ġpackage s
æĸ °
Ġ202 0
wik i
m u
mp t
id entity
ĠE N
ĠW hether
run ner
8615 98
Bo ol
mak edirs
orizont al
e b
Ð »
è ´
Ġ js
li ces
Ġd id
Ġb ro
Ġpro xy
config ure
âķ ł
Ġdetect ion
Ġc apt
ap er
([ ])
sub set
velo per
On ly
high light
ĠLo ad
A gent
B Y
b reak
e lif
in ing
Ġ( _
tri gger
ĠB uild
wh en
web app
j a
r se
v ance
Ġi mplemented
Ġa k
Ġb boxes
Ġsource s
Tra ck
Ġincl uding
A sync
al chemy
as array
Type Id
Ar t
Ġup per
Ġfl uid
FL AGS
irt ual
( ',
Ġre try
Ġm ight
ĠIn c
Result s
202 1
Scal e
] }
Ġf name
Ġcharact er
Ġredu ce
P rint
c ity
i py
t w
t ransport
æ İ
en an
de rer
Ġdef ine
ĠThe se
Ġfix ed
Ġar r
Date Time
We b
Ġsig ma
æĺ ¯
A V
F ont
o v
t cp
ĠĠĠĠĠĠĠĠĠĠĠĠĠĠĠĠĠĠĠĠĠĠĠĠĠĠĠĠĠĠĠĠ ĠĠĠĠĠĠĠĠĠĠĠĠĠĠĠĠ
act iv
cre te
Q ueue
to list
ĠE lement
---------------- --------
config s
ĠRe g
ãĤ Ĵ
ĠArgument s
M AN
e very
f amily
s imul
u izhou
Ġl l
Re ference
ĠI O
do or
Ġfe e
NA MES
Ġbot tom
Metadata Model
P ASS
s ince
en o
Ġb a
Ġu s
Ġe q
ic ast
RE CT
By tes
aw s
Integer Field
is o
Ġ1 8
ph inx
Ġ} }
Ġsymbol s
Ġb n
Ġde coder
ĠĠĠĠĠĠĠĠĠĠĠĠĠĠĠĠĠĠĠĠĠĠĠĠĠĠĠĠĠĠĠĠ ĠĠĠĠĠĠĠĠĠĠĠĠĠĠĠĠĠĠ
Ġare a
run c
Ġprob lem
Ġsens or
d r
Ġi con
Ġin side
cess ary
Ġrel ation
Back end
R el
re a
default s
UR CE
UN D
Ġconstant s
! ")
( ('
A X
Ñ ĥ
int elligence
RE QUEST
lin ux
ne gative
Str uct
Fore ignKey
Ġnd array
mp o
ri ve
il ing
Ġex ternal
app s
ĠL abel
ĠClo ud
h i
re et
co eff
ch an
ĠS up
range s
12 7
work ers
std in
instr ument
unct ools
re ward
at ial
Ġ" '
res ize
lic ies
IN ST
App lication
MI B
R est
U ID
[ ^
b d
c as
æ ŀ
li d
ff ff
Ġlog s
leg end
detect ion
concat enate
W rite
r gb
Ġc ar
Ġc ms
Ġde sired
pre pare
ĠH enan
Ġspec ial
Par ameters
Ġreal m
M ark
ke leton
ef fi
DO MAIN
Ġexample s
Lo ad
veloc ity
> ',
r strip
il ation
ĠT rain
ic ally
Loc ation
: ,
A CT
T ick
Ġper iod
hook s
assertIs None
Ġautomatic ally
0 33
Ġs ilent
ter n
Pos ition
z on
Ð º
Ġt z
Ġc s
Ġl at
8615 97
rep ly
Ġtrain er
Ġdataset s
TO P
N OR
S ING
s pe
ĠC ode
ca pt
Ġac cording
Ġinit ialize
Ġpub lish
quival ent
C ustom
Ġ es
Ġc c
ub er
Ġres pect
ĠP O
ph one
Ġdi vision
Ex ample
CO MM
Ġsw ap
I Z
n ms
u j
ype s
Ġ1 024
Ġh our
bo olean
bin s
Ġtri gger
vari ance
\ "
l u
p us
ect ors
th resh
]) [
ĠG oogle
loy ment
L U
V ector
id ual
Ġma kes
mo id
ER S
Ġexp licit
Ġ201 9
sup port
RES PONSE
L Y
P a
i ver
do ors
0000 0
Ġbu f
Ġqu ote
ĠSer ver
pix el
\ .
s an
str ings
par sed
Ġ> >
inter faces
iter items
ne g
ä¸ º
cert ificate
gy m
Pl ugin
ĠĠĠ čĊ
Ġp ush
Ġs in
di gest
Ġex ceptions
ĠD jango
Ġv s
Ġx p
og raph
update s
back ground
sk ill
TRA IN
O ption
R ate
g uild
Ġin ner
Ġg u
ĠCon v
Oper ation
ĠComp ute
Snapshot MetadataModel
Ġsim ilar
G I
c mp
x s
st and
ul lable
ĠF orm
sc reen
Ġpro per
PO INT
WOR K
B ot
C D
I mpl
V ideo
ra ck
') ]
Ġg amma
ĠV i
ched uler
soft max
] =
Ġn one
ĠA ss
En coder
sig ma
ĠAs sert
D ist
F unc
M apping
ç ½
Ġt akes
Ġc ir
ut down
Ġw rapper
con t
Ġl ang
Ġob s
Ġ4 00
DO WN
fra c
Ġsyn tax
StorageCenter Api
Ġ -----
Ġd x
il ong
con sole
po logy
Ġg ran
ĠD es
Ġcase s
ĠHe ilong
distribut ion
ĠHeilong jiang
S K
f old
h ref
i ed
ro y
ab stract
Ġg it
ĠD ate
Ġse cret
Ġtemp file
D U
k ing
m ultiple
re cv
Ġc at
un e
num eric
ST ART
gener ated
Ġmo difi
mag ic
R PC
i rect
m q
t ex
list s
Ġco ver
Ġco untry
ag ic
Ġ4 04
bu iltin
spec ific
Ġeval uation
dered Dict
Ġhy per
E P
Y PE
[ [
o h
de ploy
Ġ" <
str ategy
version s
Ġsh ot
Ġpart ial
Bro ker
_ )
y e
me th
po sed
=' -
bu y
vert ed
limit er
Rout e
lis hed
) **
B E
K EN
m is
q dm
de precated
def initions
ĠC OP
ĠN etwork
Ġwor ker
ĠSt ate
unk nown
depend encies
/ (
> </
e er
} {
str ument
ĠT able
Ġ1 7
'] ):
Ġexp r
sm all
SS L
Ġpredict ed
ĠEnt ity
æĹ ¶
Ġlate st
f mt
â ŀ
on d
lo ur
Ġa dapt
co ordin
ĠS ha
ĠU SE
Ġsub scription
Ġ5 00
ash board
no ise
Ġallow s
aris on
å Ģ
Ġ until
Ġd a
pro j
log ical
sh an
ĠIn t
mat mul
Ġcomp are
AN CE
org an
Ġfe at
sent ence
bro cade
CHE CK
Ext ension
D ense
py plot
Ġgo od
âķł âŀ
âķłâŀ ©
ort h
ass istant
pro g
class ifier
act er
AR CH
Ġupdate s
IL D
vid ual
unge on
f lip
i vers
i ally
Ġ' #
end or
Add r
fin ished
NotFound Error
b atches
c df
y to
Ġ light
re try
Ġc ategories
Ġre ader
Ġg reater
Ġpre pare
Ġne ighb
Ġtri al
Auth entication
sist ent
) ?
b undle
er m
st ub
Ġsh ift
Ġsent ence
ĠCOP Y
H ook
st it
ĠC an
data frame
time delta
Ġv ocab
ĠW HERE
with out
iter ations
pl ugins
pack et
96 55
serv ations
Ġty p
' ",
R aw
m as
Ġ æ
ĠE ach
ĠM ust
Ġro om
ca f
Ġstart ing
av es
cre en
find all
Ġinte gr
atalo ader
B it
d om
set default
Ġ""" ,
Ġpro vider
u ped
w t
å ľ
inter pol
Ġrun s
Ġbehavi or
MET HO
: {
P H
é ĺ
re gs
le c
Ġm ultip
Ġde ep
Ġx x
AS H
Ġiter ation
rl z
Ġcre ating
ĠSpec ifies
Annot ation
c wd
i mpl
ot ion
us ive
red is
ph ase
ĠSt art
CON T
ĠInter preter
T otal
d n
p in
u di
w arnings
å ¹
Ġf ast
Ġs parse
pre vious
ĠCon vert
DE X
MA G
LO AD
pred s
Ġ layout
ar p
Ġ( [
Ġse p
Ġse nder
ĠCon nection
field set
su ite
COL OR
Sum mary
Pass word
Ġagg reg
Lim it
Ġ ë
ĠĠĠĠ ččĊ
Ġre ward
Ġs ite
ri e
(' .
ma jor
Ġde termin
... ,
ENT RY
ãĢ ģ
bucket s
/ <
C annot
F ault
T F
f und
Ġt ol
ĠO ne
Ġma g
ĠB e
trans lation
sql ite
Loc al
ĠCom mand
C R
H ost
he alth
Ġre cords
Ġm ix
Ġcon t
all close
Ġcomp ile
Ġstate ment
Ġtransform s
ĠKey word
Ġrule s
ĠSha anxi
S ingle
m ob
Ġf h
Ġs q
00 01
per m
Ġex act
process ors
Ġ& ',
Ġcount s
ĠDe vice
+ "
c make
v or
st ar
Ġre vision
CO UNT
Class ifier
åĪ Ĩ
é¢ ĺ
G rad
I AL
b c
å ¯
se par
Ġp ur
lo sses
to day
Ġst derr
Ġde termine
Ġk now
Ġlog its
net es
pl us
Tra ce
uber netes
: -
a de
f m
i con
x p
in place
re name
me asure
Ġin spect
Ġde scri
Ġsh ip
Ġz er
Ġsc ra
Ġnormal ize
c andidate
d en
m ust
n x
o lo
he jiang
Ġs qu
ue ss
um bn
Ġw rong
Ġuse ful
ĠZ hejiang
umbn ail
R ights
Ġb us
ĠO ther
ĠRe ad
Ġtime delta
ax M
... ")
TR AN
prec ation
Ġedge s
i j
Ġc lip
Ġw atch
Ġg ame
back ward
ys ql
Ġrep r
Ro ot
mk dir
ĠDoc ument
Ġc ircuit
Ġe p
ph i
LO B
char s
video intelligence
artifact s
U se
en ario
ĠN E
act ual
Pro perties
Set s
Sh ape
By te
Auth or
Ġfail ure
: "
p ies
Ġre dis
"] ]
num bers
normal ize
atal og
Map per
L ines
å ·
Ġc ut
Ġc andidate
ge ometry
Ġn b
ma y
ĠA uto
per son
te ch
sc atter
[" _
ĠV M
Co uld
connect ed
pri or
Ġback up
ĠPro cess
Ġpack et
Ali as
B L
B ACK
la zy
cl usters
Ġse g
yn omial
max imum
8615 96
cal c
Ġdis abled
clo sed
Ġq ml
td c
Ġday s
F tdc
ĠT H
ĠC l
loc ations
CT host
CThost Ftdc
G RO
P lease
a con
v en
Ġb ig
Ġ[ {
iz ers
Ġe qu
cl uded
sc an
Ġk w
Ġap pe
Ġvis it
S kip
i or
m icro
se mble
er min
de ployment
Ġs imp
Ġpro to
ĠM y
ĠB E
ĠW indow
Ex p
Ġter ms
l and
w n
un used
per mission
Ġen gine
Ġdefault dict
Ġpol y
Ġcomple x
4 01
F UN
t p
Ġt b
ĠT ask
Ġ3 00
ud o
base d
Ġlo okup
Ob j
Ġtable s
wh ile
backend s
Ġagain st
agic Mock
% %
C ESS
I SE
R M
S N
p atterns
Ġt ile
it ers
ro les
Ġw in
res net
the me
Time stamp
em cc
Ġcomple te
exist ing
ĠSy mbol
ĠMibTable Column
: '
} /{
å Į
æ Ģ
Ġt a
li ct
Ġr c
Ġen c
Un known
go od
gen e
ĠNot es
Ġrepresen ts
Di rectory
cla use
FORM AT
Program ming
F C
on al
re lative
ĠC L
Ġstr ategy
Argument s
âĢ Ļ
comm end
, ))
or dered
le ter
ob js
Ġme asure
min imum
arch ive
Ġpos itions
Ġwrit ten
Pri vate
att n
Hel lo
e mb
l m
t c
x c
ut ors
ur ations
ot a
Ġw arning
ta ke
Ġma de
Ġan chor
qual ity
index es
select ion
Inter val
gre es
gre ssion
ĠSy stem
GL X
pick le
Ġstri p
d og
s at
Ġc la
Ġs n
Ġd ropout
], [
length s
Ġmo dified
Ġload er
Ġload ing
squ are
C ID
r ation
u v
å °
un der
Ġcon trib
Ġl arge
Ġco s
AT TR
ef t
pri ate
pl s
eval uation
Ġ-------------------------------- --------------------------------
# --------------------------------
C art
M achine
O M
se ek
pe ak
ul a
ĠN ew
Ġro ute
ĠEx change
var type
Se curity
cri min
Ġtensor s
CL UD
subscription Id
CLUD ING
/ #
å ¾
Ġt m
Ġd ue
ial og
Ġy aml
sub scriptions
iter al
Name s
not ification
Ġtuple s
account s
ï¼ ļ
C an
f r
g ers
Ġ vec
Ġt urn
is ual
mo ji
]] ]
IC ES
201 4
Ġpa irs
Dis play
IM IT
ites pace
R C
X i
u zhou
in fer
Ġm c
ma zon
pro du
") ),
comp are
ME M
0000 000
exec ution
DEF INE
mpo ol
B a
B LOCK
F ind
e fa
ç ī
on om
st andard
Ġf unctools
ĠS H
pro cessed
ĠL IMIT
AR D
exp l
device s
ĠSt atus
Ġconvert ed
æĪ Ĳ
C DF
D ark
N ESS
n ested
Ġm id
act ivity
Ex tract
RE D
Ġformat s
19 2
ĠAt tributes
upt ools
( """
L ast
M ac
Ġ ed
Ġt ransport
ar c
fi re
ĠThe re
ep isode
Ġsy m
Ġiter tools
XXXXXXXX XXXXXXXX
102 4
M ake
R en
Ġs l
ĠT F
ly ing
sp aces
sen der
8615 94
Ġbo ard
Ġ8 0
CRE ATE
clar ation
C V
F ields
J son
M ask
c ategorical
f x
s ock
Ġc nt
un ic
is dir
Ġe lem
pro d
Ġcol s
Ġversion s
CH AN
temp erature
Ġpage s
ĠAttribute Error
: ],
] /
t as
y label
he at
Ġd ig
Ġd types
ad f
Ġco in
ly ph
Con tact
En vironment
Ġcode s
'} ),
æľ ī
ĠWor ld
B ar
D est
F S
g d
Ġt qdm
ĠC ast
Ġcl usters
group dict
Ġser ializer
iter ation
AB EL
ä¸ į
b p
Ã ©
Ġst ub
Ġ* =
mo dified
sub process
Ġact ually
ĠGener al
Ġvari ance
Detail s
uj ian
I mport
Ñ ı
se ss
Ġo m
def inition
Ġw allet
ĠD ecimal
Con nect
ref s
ten ded
Do main
Scal ar
Hy rule
B axM
F E
e ver
v c
an chor
Ġs che
Ġm ass
ĠF ujian
sh ard
Ġse c
ho le
ĠB u
AT ED
Ġne cessary
limit s
Par se
Com mit
TO KEN
Ġcert ificate
Off set
Ġpixel s
M B
e ch
i os
t b
ra se
() }
am b
ĠF irst
Ġor dered
ĠO p
ĠB lock
Ġsup p
D A
G EN
e cho
or ing
ma ps
ta ched
AT A
Ar g
ĠDE BUG
detect ions
" ',
C ell
S PE
u ator
v l
å Ĩ
at om
er ing
pro files
LOG GER
Ġmon th
Iter ator
sens or
B id
f an
f loor
k a
st one
Ġc k
Ġc riteria
ch unks
end ar
Ġh app
sc ene
ĠW rite
pa irs
LE TE
Ġauth entication
xy z
AA AA
ĠPo int
Ġpk g
Ġasynchronous ly
S cript
x b
Ġ" #
co verage
def ine
str ate
Ġh aving
ĠO N
ĠM ark
ĠRe move
8615 77
Ġ201 1
ESS AGE
Check er
Ġnormal ized
clean up
D el
n dim
ä ¹
get item
tr unc
Ġpro c
ense mble
Se gment
RO LE
Par am
50 9
Ġchild ren
Th read
Batch Norm
1 12
t ion
in structions
ser ializer
ĠS hould
list dir
Ġan s
lif y
man ifest
token izer
Ġ201 7
âĸĪ âĸĪ
i um
m ass
s al
Ġs park
Ġr v
ĠD A
assert All
Ġk nown
Ex pression
map per
201 2
tmp dir
Ġsql alchemy
neighb or
ĠInterpreter Exception
A MP
H ex
P ost
x or
Ġp ot
ran ks
ĠI MP
assert Not
ant ic
cur r
pos al
Ġinit ialized
Sh ow
W R
W IT
y ield
Ġ um
Ġ uri
an alysis
ex e
ty le
Ġat t
Ġpath lib
rep licas
ast ic
dis abled
Ġjson ify
Ġcal c
Ġwork ing
Ġloc ations
Dig is
expl oration
J avier
m enu
q q
x label
è ¾
Ġ question
Ġt w
Ġf mt
ur tle
') ).
ap is
par allel
Ġpro cessed
Ġun used
Ex ists
are st
Un able
script s
At tack
ãĥ ¼
SER VER
Ġassign ed
STR ING
caf Javier
l on
w ires
in voke
it ect
Ġco ords
Ex change
no st
Ġz one
Ġexp and
transform s
Ġselect ion
Ġweb app
vance d
METHO D
G rid
x im
re vision
ent ropy
Ġr and
ĠM in
iv ot
sen ce
AR M
201 1
PO S
callback s
Pol ler
cafJavier Parser
t age
Ġ' '.
li very
ĠT YPE
Ġg round
ĠF L
Ġdata frame
=" <
Ġnum er
ĠG e
run s
Ġ5 12
be am
Ġsy mpy
rad ius
Ġback ground
He ight
grad s
ĠGener ated
Ġsepar ate
Ġder ivative
Red irect
E ast
R R
h ing
ve red
ĠA b
AR G
mark down
Ġcomponent s
P i
S ec
e qu
j ava
ar row
Ġf ace
is m
Ġe m
Ġde lay
key points
ann er
ST OR
sub project
state ment
St ats
Ġser ialize
Ġdis cord
Ġreg istry
Ġsupport s
ãĢ ĺ
ãĢ Ļ
cap acity
> "
E mail
b enchmark
le af
ro uped
Ġm u
Ġb ins
im ing
ĠO UT
Con troller
fix ed
cat ing
ire ction
argv list
slot s
ĠQu ant
âķłâŀ© ãĢĺ
T S
o sed
o auth
se er
Ġf s
Ġd ummy
end s
all ery
Ġg s
=' ',
Ġy ang
[: ]
rest py
ffi cient
r p
} ]
Ġa ugment
res ume
Ġ% }
sa ved
201 5
Ġprocess ing
proto buf
Window s
ĠWor k
crimin ator
se ct
se cs
Ġs ync
== '
ver ts
tr l
ĠR et
group by
host s
Ġpart ition
protect ed
6 00
C or
R UN
T x
re peat
Ġ" ")
co ord
Ġd y
sc api
domain s
Ġthread ing
lev ant
l b
Ñ ĭ
ç Ł
st ory
ad j
ase d
ĠĠĠĠĠĠĠĠĠĠĠĠĠĠĠĠĠĠĠĠĠĠĠĠĠĠĠĠĠĠĠĠ ĠĠĠĠĠĠĠĠĠĠĠĠĠĠĠĠĠ
pre trained
Ġman ager
66 0
svn admin
Cre ation
liter als
Ġpartic ular
C LI
g le
Ġin c
Ġb alance
ĠM at
mo mentum
Ġal ert
EN G
can vas
L in
c am
Ġ1 9
ob servation
bo s
ĠE nd
shape s
Get s
Ġtemp erature
I ES
M sg
de tach
al loc
ro me
Ġp print
Ġs oft
Ġo k
Ġme m
format ter
Ġdi ag
gener ic
En abled
TE MPL
Ġretrie ve
, -
P ES
S rv
W est
ser ial
ma cro
Ġcon version
=' %
valid ated
Ġdo ctest
Form atter
Ġembed dings
bt n
Ġ================================= ================================
M ain
d ag
k seer
x d
} _
Ġa zure
ab solute
out h
Ġr atio
ĠL IC
ĠO ver
fe kseer
instance Id
Ġch unks
ĠRe al
56 7
RO Poller
Ġconnect ions
Ġman aged
bot tom
OL DER
ĠCh ange
/ *
> ,
S tep
x e
y es
æ Ŀ
in ator
in ference
Ġa udio
fi c
Ġth ree
") [
ĠF ilter
gr pc
trans fer
Ġad just
dic ate
Ro le
ĠOr deredDict
present ation
resourceGroup Name
ĠCast le
C UR
T ABLE
b et
s ur
t rees
ar ing
ce ed
Ġs leep
get block
ver sed
ĠF l
Ġob servation
ĠAr ray
sche me
has hes
Ġbot o
Ġperform ance
B ig
B ound
L INE
R SE
um in
able s
ty p
ĠRe served
Pro b
wh ich
Ġprob ability
Ġsa fe
Ġclo ud
IG HT
r mt
w asm
get attr
int f
ig rate
to o
Ġnot ification
Re ce
ĠB ack
ĠG raph
Ġkey words
PI PE
Ġlib virt
Ġsimul ation
Ġba seline
= """
st im
con verter
age s
ĠA pi
ĠC or
ĠF ind
Ġr l
Ġout side
Ġlog ic
comp ress
dis patch
ãģ Ļ
Inter pol
ĠQu ery
Ġinject Fault
f w
r nn
in ations
Ġp ys
__ ))
ran ches
init ialized
read line
ĠH ow
not ify
Ġone s
Met ric
Pre pare
Ġskip ped
Ġsuccess fully
Ġappro priate
, %
= "",
B ad
O C
c red
t ic
å ½
de ps
Ġa m
get her
Ġh ref
rep lica
select or
Ġover write
Ġvis ual
Ġpred s
CC ESS
Ġcompat ible
ATT RIBUT
ĠEnt rance
a cl
in der
Ġt ab
get env
ve h
sh ips
ĠP i
valid ators
EN S
led ge
Ġpri ority
Ġsw itch
Ġdec imal
thread s
Mon itor
L IN
r aries
à §
Ġ' +
il ds
Ġto ols
00 3
ic les
ĠP ass
Ġadd resses
ĠY ANG
PR ESS
hint Text
Sto re
ĠLIC ENSE
G ui
M y
M ult
Ġ 00
Ġ" *
() ;
Ġv m
ĠM icrosoft
dict s
Ġch art
Ġno va
Res v
IC T
ĠJ son
Ġexp lo
trace back
={} ):
G lobal
H U
X ML
b g
o om
al ps
Ġre d
out ine
Ġbu iltin
Ġformat ted
DI RECT
Ġsome thing
Ġca use
åĩ º
A F
M ultiple
S im
h ui
se mb
Ġs creen
Ġw ires
mb o
ST ATE
Ġdo uble
Ġconnect ed
ãĤ ĭ
Ġdirect ories
ĠFI X
############ ###
/ ')
F n
a ug
f requency
æ Ĭ
ce ler
ur b
ri ces
ay er
sub net
Ġ202 1
gan ization
ĠFe ature
. %
t ar
Ð ¼
Ñ Į
in fl
Ġ= ====
an chors
Ġre n
Ġin structions
Ġcon sole
date s
Ġkey point
Ġcheck ing
Ġne g
={ },
ĠWe b
éĩ ı
G AP
y our
se gments
Ġi mplement
Ġ' "
Ġin fer
Ġs sl
Ġd ynamic
ri er
'] ]:
Ġe ar
out er
Re move
im s
sub strate
iter ator
{} .
mark ets
tensor flow
cro ps
Comp onent
alan cer
Hist ory
Ġlon ger
yto CM
' m
4 05
C KET
O FF
Q uest
U RI
i ma
w id
æ ±
on ts
Ġc ent
Ġc rypt
Ġd ot
ss h
(" #
ist ered
ĠV erify
Ġsh own
request ed
Ġno ise
Se quential
stri ction
encode d
ĠZ Z
RES ULT
Ġattemp t
A I
æ ³
ç §
se ctions
at ar
ad a
am ing
De leter
pub key
Ġman ifest
ĠPro ject
Ġjob s
Event s
WAR NING
' %
> {{
L ock
M D
g ather
h alf
n ers
Ġ= >
Ġt runc
Ġc er
Ġin cre
Re al
ĠB UT
12 5
Ġit self
Ġplot ly
BU ILD
UP PORT
Ġindic ates
C ES
H older
I V
P D
R GB
] ',
Ġ" $
Ġre ct
Ġs ynchronous
ma ker
)) [
pre tty
ac ing
ĠH el
__( __
ĠAn hui
Ġsa mpling
Ġcho ice
HT ML
security center
Dep loyment
J ID
M icrosoft
S M
b ute
f ront
r um
t we
ĠĠĠĠĠĠĠĠ ččĊ
00 2
'] =
ren ce
Ġ> ',
"] ',
sa mpling
Ġresult ing
AR K
vert ices
cat alog
dic ates
Dis k
(? :
æł ¼
Ġflat ten
ĠPub lic
+ =
b oth
Ġ ------
Ġf requency
(' .')
po ses
Ġ2 3
Re quired
ĠĠĠĠĠĠĠĠĠĠĠĠĠĠĠĠĠĠĠĠĠĠĠĠĠĠĠĠĠĠĠĠ ĠĠĠĠĠĠĠĠĠĠĠĠĠĠĠĠĠĠĠĠĠĠĠ
fo ot
En v
trans ition
exec utor
USER NAME
VAL UE
ĠBo olean
Bin ary
" })
C amera
e g
u ro
ro gram
Ġ" [
Ġre view
Ġre maining
un ion
Ġ* **
mo difi
Ġid entity
Ġrun ner
{} )
PO SE
su it
Ġfin ished
____ ____
Ġindi cating
ĠIter able
MAG ES
itect ure
B ank
M pls
d ocker
en ant
Ġse en
Ġ` ``
ĠR ights
mit ive
04 8
auth entic
vis ible
Ġbut ton
Al low
âĶĢâĶĢ âĶĢ
æĸ ĩ
ier arch
.... ....
I ssue
Ġ âĶ
Ġi r
Ġc b
res olution
cl usive
ĠB it
sub type
ys ical
Ġman ual
air flow
Broker ID
L ANG
[ \
o res
z A
le ms
ĠT EST
Ġtest res
Ġtest dir
fe ats
Ġset attr
tx n
tra st
Ġfilename s
LI ED
Ġ'/ '
rand n
ĠStr uct
00000000 00000000
ĠIP v
rot ation
Ġeps ilon
Ed ge
æĮ ĩ
M ed
S B
[ ...,
c um
t ip
ur m
il la
Ġ1 48
Ġcon verter
Ġh alf
ĠB Y
loc ator
ĉĉ čĊ
lin space
check s
sv g
Ġread ing
stream s
åĬ ł
Ġindi vidual
Art ifact
F older
_ '
m n
t i
x path
Ġ lab
ar ded
Ġm m
Ġb ind
ch allenge
ĠF ound
Ġme mbers
ĠL edge
Ġhe alth
ĠN ow
ĠN ormal
info s
Ġraise d
Ġ\ "
... ')
man ual
Ġtemplate s
Ġpe ak
PRE FIX
S o
V IR
n py
Ġ' *
Ġm is
el f
la re
ver gence
Ġr se
Ġout er
ĠU N
not es
ific ations
53 6
tra de
File s
Ġlevel s
ĠSh anxi
Clo ud
SD M
K wargs
L D
P K
d ating
e led
r d
w ind
un ce
un tain
la ces
di alog
Ġst ory
Ġse gments
Ġx range
ĠB atch
pi pe
cat alyzer
ĠData set
Ġar ound
Ġpers ist
Cho ice
D raw
e ss
f riend
ol ding
ab ort
per form
ĠP lot
ON G
Ġun known
ĠG uizhou
reg ions
ste ms
Name d
ten ant
Ġiter ations
fra ction
ĠGener ate
Ġarch ive
utc now
Ġhome assistant
C ert
a h
b all
c rit
l ue
m f
in line
ent ion
Ġ[ {'
(" _
ĠI s
mo ves
Ġbo ot
Ġbo unds
Ex ist
Ġbu ilt
Ġreg ression
Ġinit ializer
Ġiter ator
Ġsign ed
gre ater
Gener ated
Ġstride s
ĠEvent Name
= __
c andidates
| \
oc al
op le
comp any
Ġdis patch
spec s
Ġte am
parser s
async io
TY PES
PRO JECT
Ġmon itor
lec ule
( "")
) `
L ABEL
` ")
g ateway
g adget
ct rl
Ġre start
Ġcon cat
ta u
Ġres olution
response s
stra p
53 5
Ġclass ification
Co py
De sert
Ġframe s
67 97
Ġbound ing
ĠOr der
V er
ce il
ing er
Ġm gr
ĠS to
Ġun signed
ann o
Ġro uter
ost ed
top ics
ĠCON T
Ġbound ary
o le
z ation
ç ®
Ġ# ################################
Ġ1 0000
ĠA R
Ġ_ ('
add itional
ĠP age
ir ation
mpl itude
Ġad j
Ġhost name
air y
llo ut
sd k
Ġ}} </
Tick et
éĺ µ
S w
U ns
i ence
Ð ²
Ġs pa
Ġd l
ra ce
ab ric
Ġor d
Re ader
ang les
mo ved
tri p
oc b
64 702
reg ression
local s
scal ed
Ġservice s
Ġtx t
Ġter m
compat ible
GRO UP
E Y
G D
p ure
í ķ
me try
Ġs cheduler
Ġco verage
Ġco eff
Ġme t
sub dir
check er
open flow
UL AR
cho ose
CP U
Ġrequire ments
zz le
onom y
; \
V ert
m ol
æ Ń
et te
set Up
Ġh ard
Ġco pies
ĠP ost
Ġx y
Ġlog file
Ex it
Ġquery set
bound ary
predict ed
Ġdetect ed
mal loc
Callback Impl
åĽ ŀ
deep copy
AME TER
PASS WORD
ĠLIMIT ED
! ')
1 0000
M agicMock
f ollow
k f
l c
m argin
t ures
un squeeze
add resses
read lines
ĠH and
comp iler
Ġpo inter
sum er
Ġlo sses
ĠConfig uration
gradient s
ĠTrans form
istribut ion
Ed it
ĠFIX ME
w er
è ½
Ġre v
ter ms
qu bits
ĠM n
scal ing
:` .
Ġtoken izer
Ġdevice s
Qu ant
ls Type
Ġcre ation
Ġcoordin ate
( ",
h ard
s py
s ure
æ µ
er red
Ġn m
ex act
Ġb el
il li
Ġ2 1
Ġse curity
ĠM odule
ĠV AL
Ġclass ifier
fil led
Ġsp an
LI B
Comp ute
QU I
tick er
arm up
ĠCal culate
Default Deleter
ĠValid ation
Top ic
Inv est
Ge o
Ren derer
çŁ ©
: ")
W H
W IN
e ager
i red
r at
on ic
Ġp g
Ġn ullable
Ġ[ ('
ap sed
ĠC ho
Ġl b
Re LU
Ġcomp uted
22 22
Ġ201 6
side red
Ġvolume s
posit ive
leg al
rec ip
rece ived
çŁ© éĺµ
F R
S ave
V AR
b rowser
i form
m or
Ġn a
Ġs pect
Re gression
wa ve
lib virt
vis or
CO M
Ġmap ped
Create d
assertRaises Regex
assertIs Not
A IL
I t
a wait
b ing
er ation
st aff
Ġ" ":
li hood
Ġ{ %
ĠS w
ĠS phinx
Ġse ver
ĠR andom
qui ck
8615 75
point er
Ġstart s
part itions
SI G
Ġph ase
inc ip
big query
recip ient
M ESSAGE
N P
S chedule
X Y
b and
f id
g ate
q t
or acle
un ded
)) ]
Ġe quivalent
Ġspec ifies
Ġconfig ure
rep lay
En able
av ailability
Ġdoc s
Ġgener al
Ġvar s
ba seline
clean ed
Ġexpect ation
ART IC
TRA CT
Ġinterpol ation
ĠCl uster
F D
T D
c ending
s as
t ransactions
x ff
è §
it ation
it ize
co ef
Ġnum s
sub mission
ĠIn stance
AN NOT
Ġac ross
Ar r
Ġent er
ãģ Ĺ
vision ing
Ġps df
ĠJiang xi
SU CCESS
$ ')
G it
] {
v ote
Ġ ^
Ġ est
in ct
at las
an cy
he st
ge om
Ġcon sidered
ĠA D
Ġnot hing
Ġ% .
Ġun expected
ĠU RI
Ex ploration
Ġle arn
Ġresponse s
Id entity
Set ting
ĠID s
Ġsig node
Ġplace holder
most Equal
L P
g ain
n r
q s
r st
ä ¾
re at
Ġre cent
Ġn x
00 4
(" .
Ġde p
num s
Group s
Pri ce
ä» ĵ
Opt imizer
IE W
O ps
o ods
Ġ ()
an c
Ġre curs
ĠT ag
th an
Ġe as
ĠS ource
mo re
ER Y
Ġ4 2
ib ration
Ġdo or
man agement
Al mostEqual
depend ency
WN ER
( ':
C AS
I ds
O ri
re pository
re trie
er as
Ġm d
et h
ap d
po d
Ġg pu
ĠM ER
min or
ĠU SER
ST M
Ġconfig ured
Co unter
function al
PO INTER
network s
Ġav g
Ġsc ene
Ali gn
Li ke
stanti ate
Ġbro adcast
ĠIMP LIED
( %
] ",
b old
q n
s id
é Ļ
Ġf act
ce eded
Ġ{} ))
work space
ĠCon text
ĠEx t
Ġdist ri
86158 7
ãģ «
mask s
sw agger
ESS ION
window s
Ġdepend ency
ĠAuth ors
ĠInit ialize
Lib rary
B axA
g ray
m en
on gs
Ġs ur
Ġd p
Ġb asis
es h
ĠT hen
'] ).
)) ))
Ġcon tract
sh op
load ing
object Type
ĠQ Q
Ġredu ction
B ody
S ection
d ns
t imer
æ Ķ
an aly
ut ter
ĠĠĠĠĠĠĠĠĠĠĠĠĠĠĠĠ ĠĠĠĠčĊ
ra b
is instance
ĠC lsType
vi ation
Ġg ive
Ġde al
ph rase
EN CE
reg istration
DE LETE
16 8
Ġtrans ition
function app
oper ational
cro ll
case s
Ġsc an
Ġfail s
Ġcalcul ated
Ġvari ant
Ġge ometry
Ġtool chain
require ments
ĠCOPY RIGHT
ĠQuant um
l g
v at
in h
ĠS o
ĠA UT
Ġh int
In stall
IN DEX
ĠH as
Ġtermin al
ĠOther wise
ĠFL AGS
/ ")
in formation
Ġt ax
Ġc e
Ġc atalog
Ġs at
Ġm ime
ĠS ign
Ġ2 2
Ġr hs
port ion
wa mp
Ġpre vent
pos able
SE CRE
Ġadd ing
Ġversion added
Ser ial
Ġcall er
Ġport s
ĠGener ator
Widget s
TIME OUT
istribut ed
WE I
PN G
Ġcons ider
rmt ree
* \
+ )
D ay
P lot
] },
` )
g ran
p res
or ient
he ap
Ġf old
li fe
ul ated
'] ]]
fil er
PI O
spec ial
Ġver y
cmd line
Ġhand ling
Sh ort
transform er
ĠMulti value
Ġrot ation
mq tt
= ',
y ou
Ġ ;
Ġs izes
ser ialized
ol ation
ext ras
ile s
ĠD ummy
ho use
Ġan n
:: -
Ġindex es
tensor s
Ġinclude s
fra gment
æĸ ¹
å® ŀ
Ġcompat ibility
veloper s
+ ',
/ ",
A WEI
C B
D river
c ircuit
f utures
g res
h ape
p ip
s heet
x is
â £
æ Ľ
de scribe
Ġf amily
Ġd d
Ġres pon
Re port
sh utdown
"] ),
let ing
pk l
Do es
review er
ĠCur rent
upy ter
Bytes IO
M a
R SV
Ġre striction
Ġb order
der iv
Ġse quences
ĠE VENT
assert AlmostEqual
Ġhe at
ĠN um
AT OR
OR DER
IT NESS
Data Identifier
play list
PT E
ĠPar ameter
multi value
Ðµ Ð½
Ġcorrect ly
Ġleg end
resol ve
HU AWEI
RSV PTE
+ ]
S R
x o
Ġ sell
in struction
Ġs pe
co urse
Ġas set
sp ot
Ġen crypt
sign up
Time out
ĠSt ream
apt er
ĠAuth entication
hour s
ony m
ĠWindow s
Ġcer tain
( ("
5 000
9 01
> ')
O O
S lot
U I
W idth
_ "
a res
b az
w ner
w ater
w alk
al ive
Ġc p
Ġp ending
un g
get cwd
ĠS ection
quest ions
Ġ\ \
lan e
conf idence
CA DE
Sk ull
Exists Error
B asis
h ods
i am
m igrations
è ¦
Ġp at
ĠS c
In formation
Ġor acle
ĠP UR
ĠĠĠĠĠĠ čĊ
mand atory
Ġcomp ression
File Association
change s
LI MIT
Le g
depend ent
Ġspecify ing
black list
^^ ^^
DateTime Field
RSE FileAssociation
Interpol ators
G en
M any
M igration
P A
c les
th at
ab ly
Ġpro j
ĠE val
Ġprint f
Con d
da ily
Ġ-- -
split lines
pri v
CH ANT
Ġact ivity
su ally
Ġwork flow
ĠCol lection
Ġevery thing
attach ment
æİ ¥
_ ="
f q
l arge
o x
Ġ Ñģ
Ġt t
ion Error
Ġp df
ut ron
Ġre fer
pe ated
ul ly
Ġpre trained
Ġsh ard
=[ ]
Ġmin utes
Ġinit ialization
ĠPar se
oper ators
Ġph i
ĠSh ow
éĹ ´
TRAN S
bos ity
CHANT ABILITY
2 34
F ix
L ROPoller
V irtual
Ġf und
Ġin verse
'] ]):
ren ew
Ġset uptools
ph ab
ĠH y
Ġab ort
rad ing
Ġlocal s
ĠRes ult
non zero
Le arn
ĠDis posable
assign ment
Ġclean up
æł ĩ
Http Response
âĶĢâĶĢâĶĢâĶĢ âĶĢâĶĢâĶĢâĶĢ
Ġgradient s
alan cing
contin ue
HEAD ER
umin ance
P an
P RI
P latform
g aussian
s he
v out
x f
Ñ ĩ
Ġ artifact
Ġb its
la ps
Ġde limiter
=' /
Ġr gb
time zone
ĠCon tent
ĠEx ec
edit or
cert bot
Ġrep lica
æľ ¬
CM D
Act or
ĠLI ABILITY
Ġexplicit ly
åĢ ¼
ĠPUR POSE
ĠDisposable Wrapper
N D
T ransaction
n av
x ia
re store
Ġin correct
(' {
ĠC ytoCM
Ġst age
ĠP ARTIC
im show
Ġme as
ĠM on
IN PUT
Ġun less
Ġmock ed
mark s
vis ited
Ġtrans fer
Ġorder ing
TH ON
sl urm
G RA
O ld
P res
R ot
T ASK
U ME
e ck
f ns
i ment
s lices
Ð ´
ç º
é ¡
ar Down
Ġf rozen
Ġu i
Ġres ize
ho ver
15 0
Ġen ough
Ġtime zone
Ġser ializers
Ġsub net
En ter
Ġ[' -
ref lection
Ġne ver
000 3
Ġmat ched
tensor board
pol l
Ġman ually
enc rypt
sig moid
åħ ¥
Cur rent
Ġsepar ated
è¡ ¨
Ph one
rag ma
ĠPARTIC ULAR
8 08
= ('
F irst
H W
i ke
m ut
p ull
y y
ĠS ave
Ġbe am
ĠĠĠĠĠĠĠĠĠĠĠĠĠĠĠĠĠĠĠĠĠĠĠĠĠĠĠĠĠĠĠĠ ĠĠĠĠĠĠĠĠĠĠĠĠĠĠĠĠĠĠĠĠ
Ġ% %
02 2
IT S
RE L
UT E
split s
dim ensions
Ġany thing
sol ve
âĢ Ķ
å® ļ
Rout er
crement al
ä¿ ¡
++++ ++++
assertAll Close
assertIsNot None
F ra
S uccess
ç Ĳ
co lour
Ġb enchmark
Ġw on
Ġ( {
Ġcon troller
ĠL ook
mple ments
com ing
Ġcomp iler
Ġsub mit
ach ing
ĠSe ssion
vis it
Ġcontin uation
Log Entry
Ġdocument s
eps ilon
quant ity
feed back
Ġsen ding
ä¸Ģ ä¸ª
Ġsche me
ĠMER CHANTABILITY
P lace
S top
b ulk
h ave
å ī
Ġ art
al ace
Ġp ip
pe m
(' [
Ġimport s
ĠE d
Ġma int
Ġan aly
Ġat om
ĠEx tract
block hash
float ing
201 0
De bug
ĠGuang xi
Fe ed
Token izer
Pol y
widget s
Ġak share
Prepare r
SECRE T
l n
t v
in voice
Ġn args
Ġm ut
ol ling
(' #
ject ory
ĠP Y
ĠP h
Ġhe ap
pa red
Pro duct
ME TR
Ġstart ed
prob ability
assertIs Instance
Ġrece ive
ĠCom ment
cip ient
CID ENT
CAS CADE
1 10
p ag
w rong
ä ¼
re tries
Ġt gt
me mpool
ro om
Ġp in
as a
Ġre c
Ġre tain
() ])
and atory
int o
Ġex og
im ize
Ġan swer
be at
De pth
PO CH
Ġrep ly
Ġprovide s
ĠOper ator
aggreg ate
coordin ates
G u
S imul
f y
Ĵ Į
li ver
(' ''
di a
con firm
Ġ2 24
86 01
ializ able
Ġfunction ality
Ġfil tered
CH O
ĠTest s
late x
medi an
mac M
Ġattach ment
SK IP
A rea
S CHE
W ord
å §
Ġ= ================
Ġc riterion
Ġf ur
Ġs dk
Ġl w
Ġma c
Ġat ol
16 0
order ing
vis ual
ãģ ¾
ĠData base
Ġsu it
Ġbet ter
tuple s
ASE T
sk u
Wor ld
æŀ ľ
ĠTH IS
C SS
T itle
] -
c riterion
t len
an te
Ġc pu
Ġp ag
un nel
qu eries
ic ip
ĠL ayer
Ġpar allel
min utes
>> >
dis connect
Ġurl s
Ġtrans pose
ire wall
Tra de
Ġmer ged
hwRsvpTe Sender
Wor k
Util s
å¯ ¹
C ircuit
F ree
i ods
å ŀ
in p
con tour
__ _
Ġde corator
out ube
of s
ĠG ET
ĠG PU
pi ed
54 7
Ġover lap
Ġwho le
Ġadapt er
may be
Ġappe ar
â£ ¿
, :]
j ar
k y
Ġs uc
ser vers
') ))
list a
im gs
ĠThe y
Ġch an
12 0
Ġent ire
Ġpl ug
Ġwork space
ĠCh annel
SER T
SER VICE
fetch all
STAT IC
éĢ ī
Ġproper ly
CLI ENT
tlen eck
P UB
S u
T L
p ur
Ġ escape
al gorithm
un an
Ġdef ining
end points
ĠD rop
Ġme mo
ĠM AG
Ġfile path
mat ched
ne ed
Ġ201 5
parent s
Des c
Ġcell s
åĲ Ī
roll back
Ab stract
C OR
U ES
` :
a co
b um
in o
Ġp ie
ex pi
est ing
(" {
ĠD ark
ph p
Con st
vent ory
AL LOW
DE V
save fig
level s
au x
dec imal
Ġconf idence
Element s
Ġge o
OB JECT
Ġconstruct or
FIL TER
åľ ¨
åŀ ĭ
E MP
F RA
S ite
T UT
h orizontal
m antic
v in
se en
Ġi ss
ĠS imple
Ġde tail
Ġlist ener
Con f
Ġra ster
ff t
ĠH unan
cal cul
Ġmin or
Ġreg ard
session s
google apis
Ġtransform er
UP DATE
ĠTensor Flow
VID ED
multip lier
TEMPL ATE
D iv
V OL
g mail
h old
i rror
k r
p pro
s ites
å ¸
lo pe
Ġm enu
Ġw a
iz ing
ĠS p
Ġres idual
Ġun pack
Ġwh ite
Ġsh are
mat erial
11 1
{} /
UR N
cell s
åı ¯
ws gi
sim ilar
joint s
ĠAc count
activ ate
Ġmag ic
C ategory
S tyle
b ridge
c ation
f h
n ed
in i
in ja
ar ter
Ġ" (
Ġin f
Ġb g
Ġb z
Ġ[ {"
'] }
ĠS V
Ġg p
Ġde scribe
ĠP art
ĠD ATA
ĠO ption
oc c
Ex port
201 3
CO MP
Ġiter able
ular ity
Date time
MM AL
Ġdir name
estim ator
Ġstri ct
effi cient
æ± Ĥ
" '
A nal
A udit
S pace
b rl
at trib
de sign
Ġc ancel
ro c
Ġm argin
po re
to pology
ĠS kip
Ġg l
ĠP ack
ang zhou
ip ment
Ġ4 01
IT ION
Ġ/ =
man aged
ĠSe arch
cent ral
86158 9
offset s
ãĤ ¿
ram id
rece ive
squ ared
WR ITE
ĠFl ask
inger print
Does Not
è¦ ģ
A mer
G PU
L eft
N ote
N ONE
h uman
m ime
n m
s box
z a
Ġ XXXXXXXX
st ress
Ġs an
di an
Ġis n
ĠD ep
ĠR PC
ĠH ome
Ġbo mb
Ġper formed
man age
Ġmay be
Ġtra de
Ġref resh
Run ner
Hand le
Conv olution
Ġvari ous
ĠMo untain
è¯ ·
ĠOper ation
retrie ve
ĠMAG IC
A IN
i ation
j pe
n y
o od
se quences
Ġc r
ex er
fi ed
ap ic
ig uous
ĠS ome
ĠC ap
data class
ĠP IL
Ġan alysis
cal culate
ĠAn d
place ment
fir med
He ad
rest ing
dec lare
Resource s
Ġdecode d
regular izer
Ġoccur red
organ ization
STOR AGE
Artifact Kind
: ')
F ace
S end
g ui
m igration
å ¢
Ġ energy
Ġp p
co co
ri cs
ol ver
00 6
Ġ2 7
ers on
ms at
ug ht
ud ent
([ -
we ek
cal e
57 4
scal er
ĠPro tocol
Ġstat istics
hist ogram
Py Array
Ġsql ite
ĠLog ger
Ġprodu ce
Ġta ken
' <
B asic
c ards
x a
re start
de cafJavierParser
Ġc id
Ġ' (
Ġp t
co vered
Ġd ark
(' ./
__ ["
to do
ĠA udi
Ġg uild
ĠF loat
ĠP l
"] ))
sa mpler
Ġal loc
__( **
RE T
22 4
Ġtemp orary
ffect ed
ĠUser Profile
ĠString IO
Ġcapt ure
ĠSH ALL
Ġpys park
. ".
G G
S ort
S cope
b asis
c nn
q list
t an
en ance
Ġc ity
Ġn ative
Ġd ense
Ġw b
Ġdef ines
get Group
set Level
Ġ{ :.
Ġh over
ĠF ITNESS
ĠD own
Ġpar sing
ĠU sed
Ġro ut
Ġser ial
Ġapp lies
ĠSet ting
Ġorder s
enc ryption
ĠDe lete
ha i
CA CHE
Ġ"/ "
Init ialize
Ġredu ced
Cur rency
ĠIndex Error
constraint s
D one
D ialog
V EL
] \
e ach
re cipe
an ded
me as
Ġc am
Ġre store
Ġthe me
Ġb c
Ġb rowser
ch dir
ul ary
is y
di g
ĠS end
os pec
tent ions
ĠU P
cur ve
object ive
pa use
Name space
Ġdim s
Tri gger
Ġcir q
sal es
D L
T AG
d ataloader
i lo
i ou
m gr
Ġ 90
en es
Ġ' ':
ct l
Ġs g
ĠĠĠĠĠĠĠĠĠĠĠĠĠĠĠĠĠĠĠĠĠĠĠĠĠĠĠĠĠĠĠĠ ĠĠĠĠĠĠĠĠĠĠĠĠĠĠĠĠĠĠĠĠĠ
class ification
mo ving
ip her
sub scribe
pi ke
Ġper iods
content Metadata
CO MPLE
FF FF
ĠAdd itional
system Profile
App ly
Ġconv olution
PL AY
ĠResource ExistsError
writ ten
Ġprodu ction
cogn ized
Ġevalu ated
B ranch
I ZE
t m
Ġt imer
Ġto gether
ig en
Ġde cor
Ġr pn
ĠL a
ĠM ain
col lections
ff ine
util ities
pi e
53 3
plot ly
Ġdoc string
Un less
ĠK EY
ĠSt orage
ä¸ ĭ
Ġstream s
direct ories
aw n
ĠAdd ress
NO DE
Ġhash lib
) })
A gg
G P
S hell
T LS
V al
a ver
w ill
å ¿
an swer
li de
Ġm ult
ck pt
th ree
ĠF in
Ġ3 7
ĠH OLDER
ID s
Ġread s
match ing
To ol
User s
hes is
Def inition
ĠResource NotFoundError
åĽ ½
Ġindic ate
Jo in
ĠMax imum
Ġrl z
çĲ Ĩ
. '''
D P
P P
P ush
c ies
d ur
g ies
l cv
s r
w c
al er
me mo
Ġp rom
Ġre levant
__ ),
th ird
Ġ{ :
Ġcon firm
ĠC PU
Ġg ate
start ed
be acon
Ġ`` '
vis ions
Ġunder lying
cul ar
ãĥ ĩ
fin ish
äº ¤
ĠHttpResponse Error
ĠInvalid Arguments
ĠSE LECT
cons ume
Ġblack list
Ġwrap ped
ç½ ĳ
Ġsqu are
U UID
Ġc map
Ġc ategorical
Ġp r
Ġa ir
Ġw arn
ri s
con version
iz ations
ĠS um
per f
ĠĠĠĠĠĠĠĠĠĠĠĠĠĠĠĠĠĠĠĠĠĠĠĠĠĠĠĠĠĠĠĠ ĠĠĠĠĠĠĠĠĠĠĠĠĠĠĠĠĠĠĠĠĠĠ
ms gs
ĉĉ ĠĠĠ
sen ts
work ing
io dic
ick ness
ach er
Co ordin
Ġinter faces
18 0
spec ified
AC CESS
åı ĸ
Ad am
gg le
Ġfont size
éĩ ĳ
blue print
abstract method
Authentication Error
CHAN GE
O WNER
V IEW
v pc
st able
Ġf ew
Ġs r
pe ers
li g
un ary
ab out
ht m
ĠS tep
ĠF ore
ĠP rint
ip pet
Error Format
ĠN ULL
ĠV isual
Ġat tack
Ġ-- >
fil tered
Ġformat ter
Ġmo ving
Ġauth entic
Inter nal
Message Type
ĠGet s
CE PT
Ġ-------------------------------- ----------------
Run ning
1111 1111
Train ing
strict ed
capt ure
DU LE
#-------------------------------- ----------------------------------------
æ³ ķ
B Box
E O
E f
S ample
[ ~
] '
b id
l un
m x
p lain
um b
es ian
Ġ{ {
ren cies
ER V
ĠB ad
run e
St at
Data Type
Ġpy game
DE L
IC ATION
row th
List Result
new axis
UN K
We ight
gl X
wit ter
Ġsupp lied
A WS
M Y
O wner
V is
h r
m ot
n or
å ĴĮ
al ette
ue s
Ġb undle
ra ps
ss ib
Ġde grees
Ġr ng
ĠM apping
com ments
port al
ĠR O
Ġal t
ild card
ĠH ouse
comp ose
SE TT
Ġdo ing
Ġfunction app
Ġmat erial
Ġfl ash
BU CKET
Ġvis ited
Ġcho ose
Ġkeep dims
Ġsol ver
PAR AMETER
ĠDA MAGES
' ll
5 14
I B
W ISE
k ube
t u
v endor
at ives
id le
Ġ( :
set item
ĠS park
per mitted
ĠF rame
Ġ2 8
Con vert
Ġ4 09
comp os
comp osed
Pro to
inter p
RE F
Ġsub class
sm ith
Ġsol ve
semb ly
a mazon
p ayment
} -
¦ Ĥ
Ġ ur
ra ft
ĠT ry
Ġimport ed
loc s
scri bed
Ġat las
instance Name
ST EM
raw transaction
ĠCo unt
ãģ ¨
Ġab stract
Ġback ward
Ġqu eries
dest roy
NE CTION
Ġsimul ator
ĠPRO VIDED
subplot s
Embed ding
Big Query
Ef fekseer
! =
B N
E ffect
M C
P attern
S oftware
c g
d ry
x os
Ã §
ì Ħ
de cor
ar gest
Ġre ject
Ġb ug
is kit
th ers
Ġth ings
Ġde ploy
us iness
op code
Ġbo ok
ific ant
Ġper mit
row n
Key word
Resource Options
ĠDis play
ä» ¥
Ġcorrespon ds
Auto Field
Author ization
5 17
C LO
O URCE
S core
h ance
t ot
â ĺ
æ ¯
ç İ
Ġt ransactions
Ġi ocb
ct ime
Ġd ri
Ġd ry
() `
Ġw s
Ġe cho
ĠA RI
Ġde g
ĠD on
Ġraise s
([ (
Ex pr
lin eno
Me mber
Ġmap s
åĪ Ĺ
Ġwait ing
_% .
ĠOpen API
coeff s
Pa rent
ograph y
CONT ENT
Ġ================================================================= ============
N U
h al
p oration
t ill
å ±
æ ģ
Ġt d
Ġc rit
Ġn or
Ġn ms
vi m
Ġg rpc
ĠP alace
art beat
Ġen co
St ory
Ġab le
Ġ201 4
prob lem
ĠIN CLUDING
Address Provider
Ġexec utable
multi processing
DAT ASET
ik i
Ġsuccess ful
Ġaccept ed
ĠClient AuthenticationError
liter al
Rep lica
Ġresol ve
, (
8 02
D ropout
I ME
M aster
c lock
t mpl
y m
at temp
or rent
ĠS ta
Ġco urse
Ġ2 6
Ġcl one
ENT ITY
CH AR
Ġmask ed
comm unity
Det ection
distance s
Ġbegin ning
Transform er
ĠLI ABLE
UST ER
LOC ATION
cid r
Ġhapp en
SCHE MA
P op
S ound
c redential
o ice
Ã £
st reet
Ġt enant
he el
Ġw x
Ġw ater
Ġto day
ap on
ig hest
ĠO P
ĠM ap
LE VEL
vert ise
File Name
HE THER
Com ment
fl ask
Gener al
Ġ", "
distri ct
acc umul
ä» ¶
OUT PUT
ĠEX PRESS
publish er
FIL ES
Cap ability
ĠARI SING
N C
N an
b order
d ri
v tx
ent rance
ed u
ance s
py torch
pre p
ir y
Ġdi v
ĠR est
ign ed
Ġal iases
comp ression
write V
filename s
Ġmat rices
Ġlo ops
gn itude
ĠCON TRACT
75 86
Ġcond itional
Ð¾Ð ²
Ġhook s
ADD R
M AL
N G
S peed
_ :
r w
å ĳ
in verse
Ġf utures
Ġp ull
Ġn t
Ġin ference
Ġs urface
Ġl st
Ġ2 000
sh ake
im ation
tr ust
Ġv ote
ĠM ay
ĠM igration
Ġ@ @
sp awn
ĠR ock
ĠW S
{} _
expr s
Un expected
IS H
ear ly
serv able
BU FF
Ġtick s
expect ation
Boolean Field
ierarch y
1 33
A verage
T K
Y Y
s z
ç ¤
al most
Ġs sh
(' ',
type d
Ġst uff
Ġpro ps
min ute
__( *
ok ies
assertEqual s
Ġcheck ed
io us
auth entication
idx s
Ġdate s
ĠSe lect
title s
ĠX in
At tention
ĠWIT H
Pol ling
Ġli ve
Ġcomb ination
Grad ient
ĠExchange Error
Commit LogEntry
Ã£ o
CommitLogEntry Model
' (
F l
L en
Z ero
g iven
h ub
x l
é Ķ
Ġt au
Ġ" :
ur a
Ġre ferences
li der
ra vel
Ġth resh
Ġde ps
Ġco pied
=' ')
fig size
fo li
Ġget s
ĠR ES
ĠG iven
Ġpre tty
EN V
back bone
RE G
AN Y
Ġla zy
char acter
Pre dict
insert ion
END POINT
Ġcomple ted
ĠApp ly
aster n
crypt o
DIS ABLE
MEM ORY
HttpResponse Error
æģ ¯
writeV int
) ==
B AS
H S
L ight
W ait
] )))
v r
y uan
er ge
Ġ' \\
Ġp atterns
Ġn k
Ġs croll
Ġa ge
Ġm icro
Ġw ave
Ġreturn ing
Ġe ff
ĠS ample
Ġimport lib
ist ed
sc ipy
Ġma il
ĠV irtual
ĠW HETHER
ann ed
IC S
UT F
ft p
gen es
Ġ'. '
dic ator
DAT AB
CA LE
Ġdepend s
Ġev il
Ġproduct s
second ary
Ġissue s
Ġden om
ĠOTHER WISE
cmp ct
Ġzer os
Cert ificate
â£¿ â£¿
ĠXin jiang
L M
P ick
R atio
V erify
[ ]
k ick
r pn
on ing
ro bot
Ġf ully
ue l
Ġb b
ĠT ORT
end ency
Ġex pi
ĠL ocation
ns ure
ĠRe quired
vert ical
tro py
exec utable
He aders
Ġthread s
ĠGener ic
her it
sec ure
ĠAuth or
fun cs
Pub lic
Ġconstraint s
ĠTrain ing
" %
N on
N AL
W A
\ "\
g un
p w
| [
} ),
Ã ¡
Ġt k
Ġ' @
Ġf all
ch n
one y
ve y
Ġg ain
Ġex e
Ġl and
Ġde scriptor
code c
Ġan chors
ĠB in
ĠW oods
stat istics
([ ],
pos als
Ġtrans l
Ġact iv
Ġte arDown
FA I
MO DULE
ctx t
son lib
Ġ-------------------------------- --------
stop ping
agent s
Ġclo sed
sec ut
ĠTe mplate
æĹ ¥
("[ +]
**************** ****************
å¼ ı
Validation Error
effi ci
ĠForm at
ĠVi ew
deploy ments
Ġpot ential
ç® Ĺ
E POCH
S pe
S ome
at ype
Ġf ront
Ġm andatory
ex og
ad v
il ine
Ġe mul
ĠS macM
ĠF airy
sh al
sh ards
Ġ3 6
ST K
Co mple
... )
tt l
EX P
wh at
Gener ate
Ġtx id
dif ferent
fin ite
199 9
ĠDo or
Act ivation
Mult icast
ĠFound ation
âĢĶ âĢĶ
D J
D ecimal
E E
G oogle
L R
S heet
a io
Ġc andidates
Ġf lip
ch ina
te gr
ĠI Python
Ġrange s
let ter
ãģ Ħ
Object s
åĪ °
Ġcallback s
ANG O
ili zation
D C
M argin
P ower
k t
p ly
r ng
on ed
de livery
al i
Ġf our
Ġp x
Ġin strument
la gs
po licies
Ġg adget
ist ers
num er
Ġsh all
lib s
return code
Ġcreate s
ĠX ML
ãģ Į
Ġpos itional
QU E
Net Device
Ġwindow s
Ġtr uth
pot hesis
incip al
å¢ ŀ
C apt
P ACE
R ENT
a ched
d on
h an
è ĩ
lo ve
Ġs keleton
ĠC H
Ġr ather
test res
Ġx or
ĠN et
ac quire
EN ABLE
qui et
pos ure
UT C
dis cord
doc string
AD MIN
Ġscal ing
proto c
]+ )
Ġhigh er
ĠBy tes
Ġneighb or
N ext
b z
f its
p aper
v et
ç ´
Ġ que
Ġ ----------------
as ing
lo pen
Ġd w
set attr
ob by
Ġ` [
fil t
Ġtrans lation
He ap
FA IL
Ġwork ers
Ġsu ite
ĠInter val
å¤ §
Point s
lst m
~~~~~~~~ ~~~~~~~~
Ġfh ir
Ġsq rt
Ġsl ug
SETT INGS
T r
Y an
] "
^ {
c lic
c map
f rozen
} _{
Ġ sel
re ach
Ġt p
de mo
ct ypes
as sets
Ġs mooth
Ġd om
Ġd ash
di git
Ġas k
Ġh ad
ta int
ĠP os
py obj
ON LY
IN IT
base app
DE VICE
ific ates
Ġinter mediate
FI EL
Ġoper ators
Ġweight ed
cfg x
ĠWAR NING
document s
ĠLOG GER
Ñģ ÑĤ
âķĲâķĲâķĲâķĲâķĲâķĲâķĲâķĲ âķĲâķĲâķĲâķĲâķĲâķĲâķĲâķĲ
ARM ErrorFormat
bet ween
LIN K
Ġear ly
Ġfur ther
Amer ica
C ancel
F LO
G ot
I A
M ust
M ire
] ']
b w
m se
n ight
p ay
p ivot
ĥ ½
in ject
re curs
ar ante
Ġp ragma
Ġb atches
il ename
ub class
ĠL ocal
ens ive
ON T
lock ed
Ġsh a
St atic
Ġ6 5
XXXX X
86158 8
200 7
Ġmap per
Ġexec uted
ĠÐ ½
linear ity
neighb ors
Ġsimp ly
ANNOT ATION
. ],
1 32
H as
b es
c atch
d ut
h n
k ubernetes
t ls
y olo
ð Ŀ
in an
al iases
Ġf allback
li ps
un tered
Ġd uplicate
"" ")
la unch
et c
Ġ[ ("
ĠS top
cl uding
Ġg uess
In strument
key words
log o
]) ),
Ġget ting
ĠB ot
vers al
ĠR EST
RE QUI
IC AL
En gine
Ġmin i
MP P
Ġup dating
ãģ §
mask ed
54 09
Ġval s
Ġcho sen
cap abilities
language s
Ġassign ment
Ref Count
åŃ ĺ
ĠLine ar
ĠOS Error
Ġep isode
Extract or
VOL UME
DoesNot Exist
ĠHOLDER S
ç¤ º
. +
? \
S wamp
u ge
er ance
Ġm uch
id adf
Ġb t
di al
ĠA li
ĠA CTION
ĠC all
pro posal
ren gth
ĠB ig
ener gies
Ġ3 1
Ġk lass
ĠV ER
ĠEx p
DE D
Ġbase string
Ġreg istered
vide os
last ic
search sorted
over flow
rest ype
att les
sens itive
Ġder ived
oriz on
Ġfra ction
ĠAsync LROPoller
ĠRo om
Simple RefCount
pars ity
Invest or
C lean
J S
S F
W ID
Z ip
a udit
j ax
m ysql
s mooth
æ ¬
Ġ âĢ
st ored
Ġf un
Ġf id
ad just
ult y
Ġg pio
ob ile
ĠL p
yn tax
Ġint ro
bu ff
db g
14 7
temp dir
Ġshape s
post code
IP v
Run time
af ka
Ġgrad s
Label s
comm ended
Ġagent s
inv ite
Ġcomb ined
Ġexpression s
skill s
ĠReal m
WIN DO
A CTION
P layer
R ight
S ql
U t
a ugment
b ow
f dd
g if
Ġ velocity
at tentions
st o
Ġ' :
Ġp ast
Ġn an
Ġin line
ot ing
il in
arg types
ĠS SL
Ġg r
") ]
ĠD istributed
ĠB asic
wa v
Ġla unch
right ness
split ext
Se lection
Ġsp atial
Ġgener ic
Str ategy
copy right
ĠIN T
TO DO
ĠTime stamp
('/ ')
Ġph one
DESCRIPT ION
track er
Ġsepar ator
Ġinte gers
lis ion
inst alled
unct uation
Ġlook ing
Normal ization
ACT IVE
ĠExt ension
ĠCap ability
ssib ly
) '),
, \
C y
R F
w f
co okie
Ġd ut
Ġd ns
key point
log file
ial ect
Ġpro tect
mo dify
ph an
Ġro spy
vent ion
train able
exp lo
Data base
go al
over lap
mer ate
report s
ĠÐ ¿
Ġsent ences
Hel p
Temp orary
Ġhour s
nost ic
Srv Flow
ä¿¡ æģ¯
? ',
E VENT
T wo
b ranches
f allback
r x
u ck
de cl
ro is
Ġf g
Ġs ock
Ġd ilation
"" ",
ĠT ri
ĠC ore
pro cesses
Ġst e
Ġg old
ir th
Ġun ion
Ġun ify
Con struct
ĠV ector
Ġpre process
Ġro ll
LE FT
Ġdis criminator
86158 0
Ġtra ffic
US D
fl ash
)* (
ffi li
Init ial
Ġhigh light
è¿ Ķ
ĠFI LE
ĠDi ctionary
gu ide
Ġgu ide
ç½ ®
Ġexact ly
ä¾ ĭ
ĠAUT H
' ``
D K
S m
_ =
g uest
h ide
l f
t gt
} `
st orm
Ġf ac
Ġs s
Ġs ong
Ġb py
ra ster
Ġ1 80
Ġas cending
ĠS hop
ĠA L
Ġnot ify
Ġl n
Ġde sign
app ings
ĠO pt
ĠO ff
=" %
ac les
read s
Ġcur ve
Ġcom ma
Co pyright
Ġinter n
Ġline width
Ġtrans formation
Ġad ds
Log in
ĠCON FIG
76 7
Ġtri es
tick et
normal ized
ĉĉĉĉ ĉĉ
Ġvis ible
fc n
arm ing
ĠPer mission
SO URCE
ĠQt Widgets
deg ree
Ġenc ryption
Ġexplo it
DJ ANGO
b log
g ot
i ate
on ical
ot ed
ot onic
') (
ĠT ra
set Description
ext methods
ĠC art
pro of
Ġ: {
ance st
=" /
ĠN ON
Ġat tached
Ġro les
inter preter
do es
project ion
Text Field
ĠQ U
Ġmo unt
Not ification
Ġhost s
QU AL
For ward
Per missions
cap s
accept s
snapshot s
bind ing
PAR AM
secut ive
* ',
F ront
T ED
d ash
d ashboard
ç Ĥ
ê °
Ġp aper
Ġo l
Ġo cc
ction aries
out s
Ġv p
IN V
gs f
ID D
ak ing
Ġcan vas
Frame work
State ment
Ġoffset s
Ġsk ill
Ġscript s
Ġdec ay
IG NOR
free ze
kw arg
ĠTe am
ĠAc cess
integr ation
Ġrad ius
ae mon
çĽ ®
cir cle
commend ation
Del ta
Ġspa ces
assertRaisesRegex p
' ve
/ ?
C ar
] `
e ye
o ct
p se
s mpl
s df
w x
y i
å Ł
Ġc as
Ġin struction
get new
la m
th umbnail
)) ),
Ġco v
ĠP ol
pre processing
Ġout file
ann ing
IT ER
Ġobject ive
ializ ing
57 3
Ġper m
Ġinter p
down loads
IL L
ĠUn icode
Node s
Ġqu bit
Ġsa mpler
leg acy
Ġident ify
sist ency
multip ly
rie ve
gd al
ĠOp code
Ġnumer ical
Ġfhir types
" /
$ (
B OT
E poch
G uang
H ASH
P ACK
d uplicate
e moji
q ps
y axis
ar di
Ġp b
def s
Ġh apd
Ġde part
ĠP ort
ĠD ist
En c
Ser ialize
ãģ ¦
ĠQ ueue
Ġmo mentum
fl uid
36 0
ĠEn gine
å¤ ļ
Pack age
Ġ$ (
hwRsvpTe Resv
NE W
NUM BER
Ġast roid
Ġsmall er
cip her
ãĥ¼ ãĤ¿
xim ate
Quest ion
! "
0 30
F in
N br
S elf
h stack
k ill
z ed
æ ı
Ġ er
Ġn r
li ck
ort ho
pt ime
arg min
Ġe mit
Ġst ick
Ġh of
ĠD ense
ĠĠĠĠĠĠĠĠĠĠĠĠĠĠĠĠĠĠĠĠĠĠĠĠĠĠĠĠĠĠĠĠ ĠĠĠĠĠĠĠĠĠĠĠĠĠĠĠĠĠĠĠĠĠĠĠĠ
tri c
ĠN on
Ġpre ss
AR GET
Ġconfig s
ak y
clo sure
open stack
Ġup stream
su ch
ins pect
Spec ific
Do uble
Ġhist ogram
Ġrepresent ed
åĽ ¾
è® ¡
Ġcomm unity
Ġdistri bute
= ""
A fter
M od
a rent
p assed
u um
w ho
re wards
re moved
id f
ul se
arg er
ĠA v
ĠC A
Ġth ird
app builder
pre process
mo use
tain s
Ex tended
Ġreg ions
CON ST
Ġlength s
Ġchar ge
Ġfl ush
bound aries
ĠWARRAN TY
Reg ion
Sp lit
Ġcomb ine
Ass ign
SELECT OR
ĠQt Gui
Dist ance
ĠMat rix
ĠCor poration
Ġsever al
R U
d h
g allery
h am
i ser
j k
k lass
w ide
re ject
Ġf c
Ġre cipient
Ġs ay
Ġm appings
Ġ( `
ĠT arget
00 5
par ty
Ġst and
Ġg uest
Ġex ploration
us ic
ĠO K
ĠE S
lab eled
Ġx s
col l
ĠB SD
iv ing
cor pus
Ġspec ification
Co mb
dis crete
struct ures
ĠCo py
Create s
Ġcustom er
Ġimp ro
fill na
Pool ing
ĠSettingsCmd Create
æī Ģ
Ġinterpol ated
LOC AL
åº ¦
+ \
1 15
C ent
F oo
I ce
h params
r g
s co
le ast
me ber
Ġc t
mp er
ĠT emp
ĠT ABLE
Ġ""" \
ĠA rt
ĠA zure
Ġh params
fo od
Ġan no
ty ping
sa mp
ph oto
act s
comp arison
inter section
Ġcomp utation
view er
trans l
email s
Ġmark ed
ĠCh ar
na ire
custom er
plan es
uplic ates
################################################################ ###############
Ġoptim ization
ĠAd min
åŃ Ĺ
fire wall
FRA ME
4 03
B IN
D im
G S
N ULL
S urface
d rive
e mit
g od
s udo
w msg
ro s
ro uting
Ġs ing
"" .
est er
)) ).
Ġe mp
od ata
data store
te in
01 0
pon ential
Ġlog ged
Ġclient s
Po inter
Ġso up
Ġbuild ing
Bo ok
fl ux
Ġsplit s
ĠEn able
ĠÐ ²
gorith ms
Snapshot Content
ĠCO MM
Pub lish
ä¿ ®
dimension al
Ġrelation ship
ĠGe o
AIL ABLE
Ġmaint ain
ĠSta irs
çĤ ¹
> ")
B gp
O D
S ent
f am
h df
i pt
k m
k v
s ong
u k
ct r
ad ir
ot er
ĠF ree
ĠB ea
ĠU sing
Ġmin imal
86158 4
like lihood
Ġsample d
Up load
mean s
Ġ201 3
ian s
wh itespace
Ġ'. /
Ġrep licas
ĠPo licy
ble Alert
cm ds
rot ate
ä½ ¿
Http Client
Float Tensor
ĠPri ority
åī į
effici ents
SnapshotContent Model
? ?
A mount
B ATCH
C Y
F it
G ateway
L C
Z Z
c x
d ma
n aming
s urface
Ġ è
Ġt mpl
al ways
Ġp w
as hed
Ġs i
Ġs he
Ġa vi
co uch
ch er
el low
ss aging
int s
up ported
ĠT otal
ke h
ab br
ig ure
Ġh uman
In verted
che m
Ġv ectors
ĠI F
if ar
ĠN UM
array s
Type d
fix tures
ME DI
Ġbu ff
Ġab c
Check s
Ġpol ynomial
NO WN
Ġ'_ '
åı £
Num eric
éĩ į
Ip V
Ġpercent age
ograph ic
gadget s
è¿Ķ åĽŀ
gdal const
' ")
L STM
f ps
g uess
Â ł
Ġ ]:
se h
at oms
co ur
ch ines
ĠT ree
Ġ""" )
type check
ĠS ec
Ġg rouped
ob served
our s
ĠL ink
ang ing
ĠB ASE
([ ^
SE D
Ġadd ition
Se e
Set up
post gres
Com m
Ġdif ference
Ġmask s
const s
Image s
Ġpi pe
Ġreplace ment
As sert
../ ../
wrap ped
ipy nb
capt cha
Ġscra per
ĠAb stract
mbo lic
Ġiss ubclass
G IN
L s
S ta
b les
j mp
k inds
Ġ à¦
or al
Ġf ar
Ġd ensity
Ġdef initions
ĠS ort
ĠS UB
pro mpt
Ġh o
add y
ĠM achine
init ializers
Ġob servations
run ing
Equal s
db api
gra ms
right s
ne eds
Ġext methods
Ch ain
are r
mode s
scope s
peri ods
Object Name
UM ENT
Per cent
Attribute Value
ely te
LL VM
simul ation
ĠAssert ionError
æĹ¶ éĹ´
ivers ity
è¾ ĵ
Prob lem
( {})
) ['
F ake
L B
M esh
_ ',
d os
k ely
s ix
at tack
Ġc lock
lo ok
() (
Ġg ene
der ivative
Ġor ient
sc roll
ren ces
ob ar
ĠL ia
test case
Ġtest case
Ġpro cesses
client s
Ġstart up
connect or
new line
Ġ| |
vert ex
34 6
peri ments
View Set
IG H
termin al
Ġsnapshot s
comb ine
how to
ĠIO Error
æĢ §
567 89
cred s
twe ets
ĠValidation Error
DataIdentifier Association
ãĥĩ ãĥ¼ãĤ¿
+ ",
D M
L exer
N EL
` ):
d ask
d ll
d ater
e ma
k o
t ions
ì ļ
Ġ ke
de mand
he m
Ġ" \\
Ġa ren
Ġa ux
co pg
int ent
int num
') ):
Ġu sually
ĠL obby
Ġfil led
Ġfloat ing
86159 3
Ġ". /
Ġweb page
Ġsecond ary
Ġwho se
Ġnamed tuple
glob als
Ġassume d
Over ride
mis c
) ':
2 50
C la
E astern
U C
g old
an a
he ld
Ġc txt
Ġa ws
Ġa ffili
Ġm ention
Ġd r
Ġd df
__ ['
ass is
Ġu hd
Ġ_ (
=" #
ust ic
Con verter
comp act
cor r
cs rf
14 2
Ġ[' --
split ter
Ġend s
Se q
Ġpass ing
limit ed
cre ts
DO C
Ġlo st
54 0
54 8
Ġ... ,
du ction
Ġproject s
Ġsort ing
ĠAl low
Ġdepend ing
Ġcalcul ation
Cal lable
align ment
contin uation
>` _
SY STEM
PY THON
ENG TH
veh icle
ĠLia oning
: [
= "")
R ect
b idden
m aries
q ml
s ound
u str
æ Ł
in ity
Ġt ell
Ġc df
Ġ( ?
ĠS im
ĠS ince
Ġg ateway
op ens
ag ate
format ted
min us
Ġen viron
ĠRe ference
ĠH O
for d
Ke ep
ĠJ ava
Ġbase name
Me an
open api
send Message
200 1
Ðµ ÑĢ
197 6
Ġcap acity
bf h
ĠVariable s
chan ism
ĠDes cription
æĽ ´
getnew address
7 10
D uration
D irection
F ull
S outh
V ars
h ar
n at
s f
æ ĥ
ç ¬
ç ±
Ġ ._
se qu
st ick
en ium
Ġre name
Ġn c
Ġm l
urn al
get value
ol l
set Text
'] },
Ġl hs
Re mote
text s
lic ations
ĠB ar
Ġlist a
Ġwe ek
map ped
gr ids
De coder
Ġcode cs
ĠSe cond
Ġsp end
Ġarg v
(_ ("
Al ter
ĠPro perty
Ġav ailability
RES OURCE
Ð° Ð½
Ð¾Ð »
è¿ ĩ
Be gin
ĠDef ine
ĠHow ever
" ;
D rop
L a
S an
h w
q ing
u ids
é Ŀ
ex change
Ġd ag
ch eng
and er
ĠA ut
ĠC enter
Ġg id
In sert
add on
]) ):
Ġme sonlib
Ġ3 3
ud f
ca ption
Ġcomp arison
()) [
do ctest
GE X
ĠJ o
als o
At tributes
ä¸ Ĭ
pub lished
Ġpol l
Access or
ç» ĵ
Train er
Sa mpler
white list
å¹ ³
Ġmass age
: ].
A E
B IT
W h
X ml
d id
h or
j ack
ç ©
re pos
Ġc and
Ġd ataloader
ad ow
and b
con j
am ent
vi le
Ġco okie
ĠL ib
Ġv t
text ure
ES ME
Ġun iform
15 2
Ġlist en
ĠR GB
OR E
comp ressed
Ġmock er
pri me
weight ed
33 33
cre ation
Un ique
rel ations
To ols
CON N
200 6
Ġhand les
ĠURL s
PRO TO
Ġap ps
display Name
cla imer
ĠMet hod
æĮ ģ
Sign ature
Av ailable
cir q
OPT IONS
Bot tom
Ġgran ted
Ġdeep copy
illi seconds
ãģ¾ ãģĻ
dial ect
, *
, [
B r
C ross
F wd
L AY
S ig
T U
c rs
f pn
r ink
re cover
at ched
Ġt un
Ġin p
il ers
ver ity
ĠS W
sc ii
Ġbe come
]) ]
Ġv tk
Ġma king
ang er
ĠR ule
Pro ducer
RE AM
db data
ializ es
Ġtry ing
11 6
Ġurl parse
script en
sent ences
90 9
EST AMP
He alth
Ġexec utor
Ġsw agger
Ġtick er
percent age
bi ases
Ġ------------------------------------------------------------------------ ------
orn ado
Ġlet ter
erm ine
Ġck pt
C ave
P ixel
b re
c and
w as
é ľ
de corator
al ty
Ġc atch
ct ed
ct ype
Ġm k
ort ex
and box
int ro
up loader
ĠT EXT
iz able
ĠA P
per c
Ġh orizontal
Ġde coding
ĠF oo
out file
ĠM AX
ang ular
mo vie
Ġdi ctionaries
ĠG it
Ġen g
ĠW ith
ĠW ill
ĠCon tainer
Ġcom ments
tra ffic
ome tric
Ġone ofs
man ent
ĠJ ob
atter y
go ing
Col lect
Config Args
Inter rupt
Sh en
extend able
åı ·
dif ference
Ġextract ed
Ġpad ded
Ent rances
tool chain
Protocol MessageType
æĺ İ
Ġsyn the
ä½ ĵ
Ġquant ity
Register Message
Ġpur poses
precation Warning
Pi peline
Generated ProtocolMessageType
Learn ed
ç± »
: ]:
V ari
[ @
[ ['
a uc
p ic
s lack
y ml
z ones
Ð ·
è Ģ
Ġ Ã
Ġt i
Ġp id
Ġre peated
(' "
of fi
read able
Ġwh om
content Type
rc nn
OL D
Pri mitive
ĠMo ve
Ġpop ulate
ç» ı
Min imum
ĠST ATE
Ġcy cle
simul ator
Ġdescri bed
Xi ap
GEN ER
ĠJson Response
Ġenco untered
Ġintern ally
> [
Z ONE
b io
c art
h p
q r
t ier
å Ŀ
Ġ ve
en et
ge ar
ĠC ar
ta i
ĠI tem
ĠE nsure
ĠM a
mo graph
line age
we et
65 536
Te X
Or ganization
Ġdebug ging
counter s
Ġtrace malloc
Ġclean ed
å¤ ±
Ġel apsed
!! !!
Ġbl ue
ĠhwRsvpTe Sender
NOR MAL
; "
A dapt
D AY
F ACE
] })
_ ('
l ite
x axis
y les
Ġ 96
in ode
re presentation
de claration
al one
it u
ro tt
Ġre ally
Ġo thers
ra ms
la x
th row
ap s
pro v
Ġres ume
sc p
ob ot
ĠP AR
ĠD ES
py pi
if ul
Ġma jor
ĠM IN
IN VALID
Ġal ter
################ ####
Test ing
ĠPar am
Ġproject ion
200 2
bit rary
TE MP
åı Ĥ
encoder s
utor ial
Ġprevious ly
Ġpop ulated
Sc ene
WE B
wit ness
Ġestim ate
CHECK ING
mob ile
ermin es
Ġatt n
æĬ ¥
Cond ition
Ġfrozen set
4 56
H ub
M enu
N aN
P eer
Z one
b ian
k ale
q x
Ð ¿
ç ¨
on line
or ical
Ġ' *.
Ġf actory
Ġp ay
Ġd ask
ad r
ser ializers
ri ca
and ra
'] ],
ĠC re
ĠC SV
Ġco ord
te ams
tri als
Ġhe llo
ĠG L
zh en
Ġsub dir
da o
cal lable
57 30
Ġdis card
Time s
Ġscal ed
Ġcount y
ĠCON NECTION
Ġbucket s
Ġev oked
dat as
umul ative
ev oked
åĮ ĸ
WIT H
Ġlab s
ç© º
éľ Ģ
" +
. ),
/ (?
8 00
A ds
B AD
B TC
D ec
W u
b alancer
c ube
k c
u hd
ĉ ĠĠĠ
Ġt ot
Ġf atal
Ġre call
ent ially
Ġd n
ad os
(' ')
Ġ1 50
ass andra
ĠS ize
ĠC ID
Ġde velopment
Ġor g
im read
Ġx max
ĠG NU
start s
Ġconfig urations
check sum
lat ten
RO P
stri des
US H
100 31
HO ME
Ġlib raries
ãĢ Ģ
Tag s
ĠEn vironment
Fe atures
ĠDo main
gp us
Ġfore cast
rat ios
Align ment
3 04
= ",
[ _
b k
b ri
s b
t bl
y outube
Ġ XXX
at ile
as c
Ġin stanti
ex its
int enance
(' {}
'] ].
ĠA gent
ĠC RE
Ġex clusive
ĠĠĠĠĠĠĠĠĠĠĠĠĠĠĠĠĠĠĠĠĠĠĠĠĠĠĠĠĠĠĠĠ ĠĠĠĠĠĠĠĠĠĠĠĠĠĠĠĠĠĠĠĠĠĠĠĠĠĠĠ
lock s
ac uum
ĠR ow
ĠR ange
Ġch i
Ġro c
ĠIn ternal
Ġsub stit
exp licit
plot ting
Ġag ree
gen et
ĠPro file
Ġtri m
Ġnetwork s
xx xx
ĠHe re
Ġ-------------------------------- ------------------------
stage s
pan el
listen ers
separ ator
Ġren dered
jpe g
FAI LED
. "),
2 04
A U
B B
B R
C redentials
L anguage
M ARK
R ATE
s keleton
w ant
Ġ í
re cent
de lt
me ter
ro llout
Ġre main
Ġre peat
Ġd ialect
Ġb ert
ad co
es p
Ġcon sistent
ĠC ategorical
cl f
Ġimport ant
Ġh old
pre pared
mo us
Ġnew line
ail y
DE TE
(( (
ĠCo unter
Met hods
Ġman age
Ġparent s
Ġgo ing
Ġprob ably
ĠCreate s
Dis able
Ġdisplay ed
assign ed
åĲ İ
Cur ve
cut s
expect ations
ony mous
resourceGroup s
BACK END
Ġcla use
uro pe
CHO ICES
3 64
C URE
L A
P e
P open
P sd
g id
l uminance
s il
s ight
æ ¨
in ception
Ġc n
Ġf ps
con sistent
Ġl arger
ĠD raw
bo mb
import s
ĠW h
Ġro bot
Ġro uting
inter mediate
RE GEX
Ġtrain able
the docs
Ġcontain ed
ĠSet up
At tach
Config ure
annot ate
sw ers
Ġchar s
Ġfix ture
Lo op
real path
Ġref lect
LIC Y
59 34
Trans late
Ġdetect ions
ans ion
Ġreplace d
åĲ į
Ġpk t
Ġbyte array
dl fcn
Constraint s
broadcast ed
friend ly
phab et
permitted Kwargs
FLO AT
* ,
B lob
D yn
L AN
S te
T rading
x ls
in fra
st ft
st mt
Ġf sm
Ġf aster
Ġs uggestions
Ġb id
ot ype
la pping
Ġcon tour
sp atial
ĠN A
ĠV er
we i
RE AL
play ers
stack s
sol ver
Ġfilter ing
DIR S
IO S
Storage Account
desc r
Ġfra gment
Attr s
0101 0101
Rights Model
ĠDocument ation
ĠTransform er
Quant ity
H igh
\ ']]
d up
f olds
g f
l inter
t ics
ç ¼
ç ¾
al ing
an o
Ġ" ".
Ġre gs
Ġre cipe
Ġin str
Ġs heet
Ġo sp
Ġm ol
Ġd ocker
set ObjectName
ĠS UPPORT
args ort
ran ger
Ġh ot
add le
ĠE qu
sp end
IN SERT
10 8
Ġpre ferred
RE Q
Ġcomp iled
Ġle af
Co st
-------------------------------- ----------------
let es
Ġpl ugins
fla vor
AP PS
fact ors
Resource Group
Cal led
Ġsav ing
ä½ ľ
lap se
vt k
appro x
tern ate
COMM IT
éĻ ¤
Phone Number
% .
4 20
C NN
M ER
N orth
S ph
S ync
S CALE
V IS
W ind
r idden
v eld
w ar
x min
ð Ł
st acle
de velopment
ro b
Ġf am
mp s
Ġs low
pe x
Ġm igration
ĠC ase
Ġl it
ĠF rom
Re set
Re lease
ĠD I
Ġan t
IN CLUDING
op codes
Ġ3 5
ID S
Ġ4 8
... "
mark ers
Ġvalid ator
Ġdist utils
Me mbers
Ġtrans formed
Ġgener ation
PO OL
Ġread y
Ġlimit s
ĠType s
66 6
ie ves
59 27
Fe e
Ġtick et
Ġcorrespon d
Ð¾Ð ´
Di ctionary
Ġmulti processing
Ġaccept s
Ġident ical
Ġpop ulation
OB J
Down load
Ġpartic ip
Ġalign ment
den om
assertNot In
ĠCONT RIBUT
icip ant
$ ",
G o
H op
T ry
T orch
\ _
b ank
m v
m mal
q i
re maining
ar x
Ġp res
ut xos
Ġg ray
te e
ps i
Ġse ctions
ĠM ultiple
ĠH int
** *
LE X
query set
Ġle ave
Res olution
Ġcheck sum
34 5
Ġmo vie
ĠOR DER
au li
web page
Ġfollow s
Ġpe ers
ĠRun Git
RA W
Mo ve
contact s
ĠEN D
produ ce
Ġcrypt o
ĠSec ret
2 64
< =
D R
D jango
D ummy
S ys
V pn
l ord
x es
Ġc wd
Ġc aves
Ġb p
pro be
Ġco co
ĠF lag
log ic
Ġr p
ĠD ec
Ġv endor
ĠB lob
fa ster
cept or
index er
Ġ4 5
cor outine
Pro vision
Ġpo se
cal endar
]] ]]
Ġ[' _
Co ords
new s
Ġcontin uous
Ac c
Ġlimit ed
next gen
fla ke
Ġfl ux
Ġpub lished
SS H
Ġnormal ization
=- =-
Ġfin ish
rf m
rece iver
ĠSpec ify
ĠMib Scalar
Row s
Ġ------------------------------------------------------------------------ --
MAN ENT
FUN CTION
ĠHand le
mor ph
stress ness
taint y
Learned Info
3 50
= ("
? )
A K
C N
D iff
L W
U sed
V T
h orizon
u er
Ġp ow
Ġ# :
am ode
qu ota
ĠA BC
ĠA ppro
Ġh ighest
Re q
Ġr d
ag ency
ĠB gp
Ġ3 4
vers ation
ĠĠĠĠĠĠĠĠĠĠĠĠĠĠĠĠĠĠĠĠĠĠĠĠ čĊ
Pro p
ĠCon trol
be red
DE P
=[ (
av atar
no va
Input Tag
Key Error
FI FF
Ġgener ating
Base Model
pu zzle
Ġlimit ation
200 8
ĠPro b
non ce
Ġbin ascii
bound ing
Ġstd in
Per iod
protocol s
æľ Ģ
ĠPo ol
Search Func
ĠTh read
åº ı
met ap
ĠPi Camera
modifi er
Allow ed
decor ators
couch base
ĠCONTRIBUT ORS
0 32
A IM
F etch
M object
N a
Q ing
Q ual
T ransport
d z
m ine
n l
t witter
v iz
en ef
de coding
Ġc art
"" ).
ĠT op
et veld
arg parse
ĠA ction
ĠC LI
sp ent
config ured
Ġwh itespace
Ġch rom
Ġdis claimer
token ize
Ġq c
Un icode
Ġpoint ers
Spec s
Ġ", ".
Per form
ä» ·
extract or
Ġ'{ "
Act ive
Change d
lev ation
ĠValue s
CLASS ES
Ġmodifi cation
Ġzer ver
Rights SnapshotMetadataModel
anno unce
occ up
TLS v
Dyn Class
" )))
/ \
3 02
M UL
O IN
R ad
S G
_ [
b an
f A
j ing
p le
z oom
Ġ qual
İ ·
re m
Ġi de
he ses
Ġc make
Ġc redential
Ġf ault
Ġre versed
Ġa ffect
Ġb io
ĠA TT
ub it
ĠD IS
fe es
Con tract
Ġpre view
Ġpre processing
Ġint ended
Ġro p
cor der
################ ########
Ġdis covery
vide s
98 7
ĠData Loader
conf lict
transform ers
AG ES
Ġplot s
Per mission
detect or
track ing
As sets
vari ant
ĠToken Kind
attach ments
istribut ions
Sup er
:`~ .
oh lcv
Ġdetermin ed
Private Endpoint
subtype Spec
ĠLa TeX
ä½¿ çĶ¨
æĥ ħ
! \
B T
D a
E stim
G reater
H H
I mplementation
L ang
O UR
P ayload
P ending
[ ::-
] ')
d ark
i el
l bl
v ectors
w hole
Ġt ar
al a
it k
Ġf riend
ex cel
() ],
Ġis o
Ġ+ '
Ġ+ (?
ĠL in
Ġ` (
ĠG PIO
Ġkey points
cs i
57 33
tra des
Ġ6 00
plot s
cre ator
over write
now ledge
String Field
member ship
86159 5
Ġar c
interval s
sk y
Ġzip f
Instance s
Reg istry
Command s
BO ARD
Ġoptim ize
Sup port
Ge ometry
å¼ Ģ
Generic Resource
Struct ure
Ġinc ident
similar ity
/ _
C ENT
O k
S UPPORT
d ensity
j ump
r ust
x ies
or bit
Ġi e
ro f
Ġp db
Ġp tf
Ġp ayment
Ġre load
Ġm ysql
Ġb ra
ul der
ri ch
up grade
ext ended
res id
vi a
Ġth ing
ĠĠĠĠĠ čĊ
ĠF ix
ment ion
sc ra
ĠP article
Ġpro d
AT ES
ĠG H
Ġen semble
ill ing
comp s
Ġ5 6
IC K
Co okie
Ch unk
sent iment
ĠIN CIDENT
FA CT
Ġmean ing
cu ss
ced ure
Attribute Checker
PER MANENT
ru it
ĠMulti Index
Red u
Exec utor
Qt Core
syn tax
}: {
cogn ition
INST ANCE
Dest ination
ATTRIBUT E
resting gadgets
Agg reg
delt as
) ``
. '),
3 84
B est
C ard
C ategorical
D RI
L ONG
U sing
V OC
W ave
b on
f ac
k per
m ile
m igrate
r ho
s ynchron
u ds
x FF
x fail
er k
ar ound
an jiang
le metry
Ġc uda
Ġp od
as cript
ut t
ut iful
di vide
con firmed
Ġof fer
ĠA ns
Ġh ack
sh o
Ġy olo
Ġ@ _
ac celer
Ġob served
ĠCon nect
Ġcomp ressed
Ġ5 1
Ġle ading
Ġj ump
Ġdict s
vis ibility
Ġq s
ĠSt atic
vid ing
conv s
Ġ7 0
Ġpost code
exist ent
AUT O
Sup ported
ĠDet ermines
Ġvert ices
Ġhyper parameters
Ġequ ation
ĠPass word
Ġflatten ed
('.') [
cum sum
arx iv
7 84
8 86
8 04
: /
A CH
L ENGTH
b el
f cs
r dm
v oc
ç Ń
in crement
er nel
Ġn i
Ġo mitted
el come
int r
con cept
et y
Ġu id
(" ./
to ms
ub ic
log out
sc r
Ġr tol
ĠL E
ĠR MT
ST REAM
with draw
mat plotlib
Ġent rance
Ġtorch vision
Ġopen api
MP olling
Ġtensor board
fore cast
EX A
200 5
sort ing
Ġhand led
side bar
Ġ", "")
Ġ'' ',
sig node
Ġaccount s
ĠÐ ¸
Iter ation
ĠValid ate
Ġretrie ved
ane ous
ĠPri vate
bra ce
ĠSup port
LOB AL
So up
Pan el
ĠEd ge
Ġwb ia
COMPLE TE
! '
, .
. '.
v stack
w armup
z c
Ġ Ñ
Ġ licenses
Ġ' ').
Ġp ing
ĠS MPP
Ġth ough
Ġg RPC
Ġde t
fo obar
Ġon to
10 6
Ġpre p
Ġ{} ).
SE QU
arch itecture
Ġcomp ress
Ġid adf
do i
ĠEx ploration
Ġinter preter
ne arest
16 7
env s
Ch art
GE MENT
ĠUn iversity
mod name
contain ers
Ġhere by
Ġlanguage s
zip f
Ġreport s
FO UND
}. {
Ġnote book
geo processing
Sign al
INST ALL
Ġaggreg ate
trunc ated
ĠâĶ Ĥ
æŃ £
Ġrecurs ive
éĢī é¢ĺ
å¿ ĥ
E l
G RE
L F
N I
T here
] ``
f lo
w an
Ġ ens
Ġ' $
Ġf x
ge bra
Ġre commended
Ġm ar
Ġb s
ck s
ĠT ower
pro fit
Ġl s
ĠF inal
Ġr nn
ĠE num
code gen
02 5
IN FR
Ġlist ed
min c
ari ma
Ġ[] :
gr u
Test Base
AS SET
97 52
AB C
To String
equal s
ĠTest Case
ĠDe ath
fail s
================================ ================================
ĠZ ero
Ġframe work
ĠAt tach
Ġaut ospec
MS G
redu ction
Ġbound aries
Ġ', '.
Ġdeser ializer
åĬ ¨
Ġlock ed
READ ME
ITE M
Wor ker
veloc ities
ĠRed istributions
Exchange ID
nost ics
ATTRIBUT ES
å®ŀ ä¾ĭ
ĠBin ary
* ')
@ @
F an
R x
S uggestion
S ESSION
Z ones
f ault
l strip
å İ
è ¶
st dio
de termin
Ġc au
Ġc trl
Ġf et
li ef
Ġm obj
ex th
ĠT R
qu it
vi p
Ġg ives
Ġl argest
us a
ĠĠĠĠĠĠĠĠĠĠĠĠĠĠĠĠĠĠĠĠĠĠĠĠĠĠĠĠĠĠĠĠ ĠĠĠĠĠĠĠĠĠĠĠĠĠĠĠĠĠĠĠĠĠĠĠĠĠ
ĠM ode
ĠM issing
Ġy min
IN GEMENT
Ġdi com
Ġ{} \
12 4
ME D
53 9
14 4
ne eded
UR ATION
Ġup grade
cat alysis
TI M
Al gorithm
AG ER
hex lify
skip ped
dist inct
Ġ". *
OP EN
Ġpers ons
Flow Classifier
Loc ator
namespace d
ĠFe ed
ĠAlert Size
cas cade
ĠPO ST
heat map
CUR RENT
ĠHy lia
Investor ID
WID TH
INFR INGEMENT
C AT
P ress
P RES
V isual
a ward
è µ
Ġn est
ame l
el astic
Ġ[ ['
arg o
In dices
ĠP R
ĠP layer
user id
ĠU TC
ĠRe p
ud onym
Ġdis ks
Ġclass ifiers
av ed
Ġcal endar
PO LICY
Ġ& ,
94 4
PRO PER
ĠNo Entry
("/ ")
ĠDef ines
éĹ ®
Ġrespect ively
cont iguous
Ġcontrib utors
FE AT
ĠQuantum Circuit
WA IT
Shen zhen
åıĤ æķ°
StorageAccount Preparer
) >
3 01
> /
D ICT
E QUAL
c us
h u
j it
p itch
v d
y r
y aw
ç ł
ì ŀ
Ġ 99
in di
st ation
ar ily
Ġc f
Ġp laces
Ġa way
Ġa mplitude
ul let
qu is
ve a
pro cs
per sist
Ġh olding
In line
app Id
sp ike
"] ):
config urations
read thedocs
ud get
Ġpre sence
ST OP
AR E
pi ct
ĠCon stant
ĠCon tact
AS M
En coding
Ġend ing
clo th
sy stems
auth ors
De code
Ġsp ider
Text Mapper
sche mas
Ġback bone
oper and
Al pha
Ġcluster ing
END ING
Ġlink ed
gl x
TEST S
coin base
################################################################ ########
ä½ į
Symbol s
VID EO
override s
CF G
è´ ¥
interpol ate
amb da
SPE CI
Main Window
mn ist
ĠCho ice
gran t
æİ¥ åı£
Ġregard ing
åĳ Ĭ
æ¬ ¡
sequ ent
Provision er
8 01
T X
T i
] ].
b gp
d ct
e per
k g
r level
ë ĭ
ì ł
Ġ joint
Ķ æī
Ġ' '))
Ġa udit
Ġd irs
Ġ( ('
ata ble
la ve
di es
od oc
ĠS ER
pro visioning
ĠF ake
Ġtest ed
Ġv lan
om er
tri m
und ant
pp c
ĠRe cord
EN AME
ml p
pa st
for k
ax on
start up
Ġsub stant
]] ),
Ġtrain ed
Ġver ified
Ġread able
200 3
Spec ify
ĠNot ification
Ġraw tx
ĠIS O
Ġvis ibility
ĠÐ º
Ġobtain ing
æľ Ł
inc ident
SA MPLE
UD A
Ġdistance s
subject s
Multi value
Exec ution
Sa ver
basic Config
ĠInt Fields
Ġneighb ors
Ġmeasure ment
Ġcontrib utor
unic ate
rogram ming
Uns upported
Ġpie ce
è¯· æ±Ĥ
BigQuery Hook
BAS IC
æ¨ ¡
utiful Soup
C AL
F o
F IN
F ROM
G IT
H Y
L ow
S parse
e os
f lex
r man
v gg
in vert
Ġt id
al lot
Ġc ipher
Ġ' ../
Ġa da
un stack
Ġto do
con struction
ĠS k
ĠS ET
Ġh it
Ġpro mpt
ĠM atch
url patterns
ir ing
Ġcl f
ĠB ut
rect angle
12 6
util ity
]] [
Ġdis connect
AS ES
vert ised
Model s
CO VER
cre ase
char ge
AC COUNT
ia o
au ge
Ġport ions
Ġhand lers
embed s
Pre diction
Qu arter
tick labels
blob s
Block s
Valid ate
Ġ"- "
writer ow
Cal culate
Ġfeed back
ĠApp lication
enum s
Float Field
Annot ate
HOST S
Eval uation
Ġslot s
(', ')
ĠBit coin
perform ance
ĠSto re
Ġbel ong
ĠSum mary
foli o
arante ed
å¤± è´¥
ĠNoEntry Alert
A pop
C ER
D N
E rr
M OT
Q A
c annot
f rica
g lyph
n ational
} %
½ æķ°
al ready
Ġre pos
Ġa io
ad vanced
Ġto pology
cl k
Re pository
ĠB usiness
). """
ĠRe f
Ġsh if
Ġ{} :
ys ics
Ex ternal
Pro gress
Ġsub license
Data Loader
da mper
53 7
Ġext ras
Ch assis
off ering
Ġformat ting
over laps
ĠIN TO
meta class
Ġar bitrary
PRO CESS
Ġdomain s
Ġconf lict
å¤ Ħ
Variable s
uni q
ipe dia
Act ivity
Ġut xo
nb sp
Ġschedule d
IF Y
ĠAlert Status
Ġvocab ulary
Ba oding
Ġans ible
apic lient
Ġdeg ree
Ķæī ĺ
Ġsubstant ial
/ $',
E B
G ame
S W
S pect
T P
T ARGET
y an
Ġc ave
Ġm iddleware
ad am
ed its
urn ished
ĠS TR
ĠA LL
Ġst ores
Ġex change
sc enes
ĠD el
ĠO B
ĠG ED
Ġ5 000
Id ent
CT IONS
Ġext ended
Ġpl us
cond itions
part ment
HE IGHT
ĠPy Qt
ater ial
EX EC
Ġwas m
(* [
gin es
MO VE
press ure
From String
Flow Monitor
Ġsystem Profile
quant ize
abc def
Ġinte rest
Ġfn ty
Enum Value
Normal ize
writ es
çī ĩ
Ġdig it
Ġck an
ENS IONS
ĠSw itch
orient ation
ĠCurrent ly
Fix ed
Anal y
ĠVisual Alert
UNK NOWN
ĠNON INFRINGEMENT
mograph y
C AP
M SE
P atch
b irth
d ungeon
m utation
s ch
t ran
x lim
è ĥ½
in y
re write
st a
al ter
ro ke
Ġa i
un ities
get text
(' ../
res idual
Ġe c
Ġe lect
ĠS A
ĠS ingle
Ġh older
ĠF etch
sh i
ĠM ore
Ġpar a
ir m
Ġ> ,
ind y
32 0
Ex periment
ĠCon d
exp iry
AL INGS
check out
Ġdis count
Ġper mitted
dis p
List ener
Ġmo ment
gn u
eval uator
Ġ201 2
ater n
prefix es
Sh ared
bot tleneck
skip Test
ãĥ ³
dist s
posit ories
Call ing
Ġreport ed
RA Y
leg ate
tax onomy
ĠMe an
Ġmon key
å¤ į
pad ded
Ġge om
Mo difi
bus iness
Rout ing
Ġmedi an
Ġrot ate
Ġinsert ed
Ġattemp ts
super user
boot strap
Ret ry
ĠDate time
ĠCOPY ING
Ġbel ongs
ĠAudi bleAlert
BUFF ER
æĽ´ æĸ°
ç¨ ĭ
exth op
" ^
+ (
D if
O DE
R S
U ri
d ilation
h m
Ð ¹
Ġ quality
re cording
al con
al bum
me ga
Ġin crement
pe ople
con da
00 7
Ġe fficient
ĠS U
ĠC Make
Ġth row
Ġde ad
ĠL et
ĠE RR
ĠE lastic
Ġx min
ĠB U
ĠB Z
loc ate
Ġk per
read write
ĠU UID
Ġos lo
======== =
Ġpre serve
Ġpre dicate
ok ing
ml ink
ump tion
Ġser ve
inter active
check points
Ġend points
mi rror
pl ug
Ġfloat s
field sets
Ġtext wrap
Ġad vanced
spec ies
spec ification
color bar
Ġcor pus
CL USTER
Ġoption ally
202 2
Service s
cd c
inv est
Cur sor
äº İ
æĺ ĵ
Ġinterval s
TA IN
USE D
UST OM
IZ ATION
san itize
DOWN LOAD
ĠCL AIM
........ ........
Enc ryption
) [-
E VAL
J NA
N Basis
P AGE
f ect
m iddle
s alt
Ġ jo
Ġ (),
en dian
an alyzer
Ġp v
ur is
Ġre wards
ul us
() -
Ġw iki
ss id
la int
), (
am ble
par sing
od b
ĠA ir
Ġex cluded
Ġy max
url lib
ag tail
Con cept
Ġdi gest
ĠW ait
ĠRe port
iter able
vel ength
block chain
=[ ])
LO Y
Ġtrans late
ãģ ª
ãģ ¯
Ġgener ates
DI M
ĠUn ique
graph s
gin x
apt ers
Ġprob abilities
velo pe
sin a
ĠCom mon
plan e
syn the
ĠLe g
Cre ating
NET WORK
Ġdid n
Rel ated
Ġaugment ation
lg q
Coordin ate
amazon aws
Pick le
FIEL D
ĠAUTH ORS
Ġstick y
/ .
5 90
: #
: <
> [\
@ _
F ilename
M ARY
S park
T rees
j wt
p U
p wd
q os
s imp
t ap
å ¦Ĥ
Ġ artifacts
re call
re cognized
er rit
st rength
de m
Ġi mplements
ro red
as sembly
Ġs uggest
Ġa cl
Ġd og
el ery
Ġ( /
Ġ{ !
ĠC lean
log txt
Ġor i
Ġbe acon
ĠB lue
ĠV olume
ĠR ot
ĠR el
ĠG ame
ard own
Ġcol l
Ġro llout
ĠIn dicates
Ġ\ '
cal ar
not ation
no x
sy copg
`` `
struct ured
:` _
Ġq iskit
send to
link ed
fn ty
Ġform ula
FF ECT
ĠNot Found
TH RES
decode d
ĠDE ALINGS
END ER
Ġgen ome
Ġplace d
Property Meta
ĠMo PropertyMeta
è¯ ģ
tile s
ĠQt Core
Eval uator
åĨ ħ
Ġ"# /
à§ į
________ ________
authentic ate
ĠSp lit
Capt ure
metap rogramming
' $
A ut
B ay
F requency
H uizhou
K OB
W rit
c w
c upy
l v
y lim
ì §
Ġ quick
Ġc le
Ġin tent
Ġa ck
Ġa ve
Ġd ungeon
ser ialization
is nan
ĠT ex
ĠS m
ĠA CL
ĠC C
Ġr s
bo ost
pon ent
sp in
rain ed
ĠB ro
scri bers
ĠG lobal
ep hole
Pro be
gr p
Ġcreate Node
Ġz ones
Se conds
XXXX XX
PE M
Po D
90 6
AC L
ins ide
Ġman agement
ĠType Var
Sh an
Lo ading
ï¼ Ī
Ġpe ople
Ġfla vor
Ġembed s
Ðµ ÑĤ
Policy Rule
ĠEn try
success ful
ĠCol or
Rule s
ĠMe mory
pr v
Ġ$ {
åħ ¨
Ġli kely
ĠPo ssible
Ġcomb inations
Ġvol tage
Ġder iv
ĠPer iod
CI I
Ġutil ity
ĠDi rectory
ĠMet adata
Ġoccur rences
Ġintegr ation
Ġsat is
pur ge
ENABLE D
pse udonym
JNA KOB
JNAKOB FD
' %(
. {
1 34
: .*
= \
F ER
M IS
N ull
P aged
P ipe
S ide
f ingerprint
æ ĭ
Ġ ht
at ively
Ġi i
it ution
Ġ' :'
Ġb and
po ssible
to uch
Ġg reen
Ġh al
Ġ2 9
sc enario
ĠM ed
Ġtype handlers
ĠB O
Ġk i
ĠH ist
Ġint s
we ets
inter action
Ġcomp uting
Ġ5 2
md p
led ger
dis covery
new lines
16 6
MA C
Ġvalid ated
scal es
Ġsp line
ĠQ uest
ĠK eras
ĠSt ory
PT ION
Ġim mediate
TR Y
User ID
åı ĳ
Ġscope s
Ġhead s
kw ds
ĠPre dict
Feature New
Sk y
ĠhwRsvpTe Resv
Ġresol ved
Ġvert ex
Mark et
pixel s
Ġnm sed
èĩ ª
opens ource
éľĢ è¦ģ
( .
F X
F Y
F amily
Q i
_ ()
c z
d w
f our
j av
v n
y b
å ĵ
Ġt ip
Ġt rees
ro utes
Ġf onts
Ġf irewall
id ity
ch ip
ap y
ath y
ĠS EC
pro t
Ġco efficients
=' \
Ġr bf
tri angle
lic er
Ġdi vide
ĠH D
Ġsh utdown
Ġ[] ),
Ġ} ),
Ġnew ly
Ġsub project
Ġsub tract
Test Framework
ts v
Ġ| =
ĠSe curity
so up
level name
Ġpri v
Ġstream lit
web hook
predict or
Content s
Ġobtain ed
Scal er
Pos itive
Di ag
cut off
Exec ute
Ġfo oter
Ġcoin base
Ġencrypt ed
Ġpress ure
ĠEqu ipment
enef it
+ ")
6 76
? '
C rop
H z
L iteral
P auli
T ON
T ok
c argo
s ns
t un
t if
v k
w heel
Ġ ĉ
Ġ lic
Ġ article
Ġt ail
en ed
Ġ' &
Ġp bar
ce eds
un signed
Ġb ond
Ġb ranches
ot os
') ;
di com
con sumer
Ġe moji
ĠS PE
list ener
ta iled
Ġde claration
In tegr
Ġor ganization
ren d
add Widget
Ġv pc
Ġpro portion
Ġy s
sp line
ĠN D
Ġlog ical
ign ored
10 4
zh ong
sub stit
cor ners
Ġsub topic
AS P
Input Type
Ġent ropy
Par allel
XXXX XXX
ĠJ OIN
go v
ãģ Ł
Ġtra ces
ĠUn it
Ġauth ors
200 9
contrib ution
Ġprob s
Ġreference d
As ia
Ġapply ing
è¿ Ľ
åĬ Ľ
Ġlook s
experiment al
Sa fe
åĩ ½æķ°
Long Tensor
TOP IC
spe ech
Example s
IZ ER
Ġaggreg ation
Trace back
CHAN NEL
æĮĩ æłĩ
Ori gin
tan h
DATAB ASE
ĠBytes IO
Temporary File
æŁ ¥
çł ģ
) },
A xis
B ind
I mp
M ASK
N at
k in
m ic
t ream
ë ¥
de limiter
Ġc i
Ġf t
as pect
as ctime
ur lopen
Ġre ly
Ġn dim
Ġin ferred
Ġa ug
Ġm utation
Ġd ashboard
ra cle
ss d
la cing
Ġcon secutive
ĠS olution
Ġst ation
Ġg ym
Ġl iteral
app liance
ag o
ac ific
10 7
AL LED
gener ation
pri est
Ġact s
22 5
Ġ... ]
Ġcor ners
String IO
ãĥ ©
27 9
åı ĺ
Ġloc ated
ĠNOT ICE
document ation
ĠSh ape
private key
ĠLo ss
As set
Ġcap abilities
INTER VAL
ĠCO MP
MAP P
Ġplan e
GR ESS
Ġcons ume
Ġ'{} '
Ġplay list
aggreg ation
instrument s
separ ated
Ġ===== ===
Sw itch
Ġfact ors
Ġtax onomy
Simul ator
RET URN
dig its
Ġauthentic ate
Guang zhou
EnumValue Descriptor
$ ")
- {
4 32
B ert
F lip
L at
T unnel
U V
X brl
Y our
e y
e ast
e lect
g ap
h c
m object
m db
n ib
s mo
s ir
it ivity
Ġc aching
ro d
Ġ" `
as y
ur on
Ġre ach
lo m
', },
is olation
is csi
res ample
Ġas pect
to Hex
Ġco me
ĠD T
=" {
sp am
ĠN umpy
ĠN MS
Ġout s
12 1
ded ent
we ather
Ġpo licies
Ġcheck out
rep lication
57 1
call er
dis card
pri se
{} \
ĠJ ilin
Ġ12 3
ĠDe precationWarning
board Interrupt
NO W
comple ted
Ġweb site
OP ER
Pri ority
Th ieves
Ġps ser
Ġremo ving
hint s
ĠFI FF
schedule d
relation ship
1234 56
Rest ri
ĠPO INTER
Summary Model
Ġed n
Ġaugment ed
sur f
front end
foot er
authentic ated
LANG U
é¡ µ
Ġvp logtxt
åŁ º
CONN ECT
C AN
D type
D istribution
E LE
E PS
T urtle
V ol
d ue
h ua
i python
s ib
w raps
x box
y o
re o
re served
er atures
ct or
Ġp en
Ġn av
id a
di ent
con an
th rough
(" .")
Ġcon trast
to s
ĠA CES
ĠC ell
Ġh i
ta ker
Ġres hape
mo x
IN ET
). ",
15 7
ĠU I
Ġch at
ĠH E
10 3
Ġsub classes
Ġj unk
Ġsup press
not ifications
av en
tra ces
Ġinter section
Ġext end
Ġq id
Ob servable
ï¼ ī
Ġgo al
Ġprob lems
Le arning
Ġbackend s
Ġcre ator
Ġsol utions
äº º
Back up
ĠNode Type
ĠSettingsCmd Add
Ġtr ust
Ġvert ical
Constant s
Ġsimilar ity
builtin s
Ġground truth
åı¯ ä»¥
ĠVER SION
ĠBea utifulSoup
atern ion
priest hood
' ',
6 95
A scii
C os
F igure
H i
I MP
J OB
R X
S yntax
T ES
T ong
c ms
c assandra
m ma
n th
q tt
Ġ angles
re load
re versed
Ġt tk
Ġi ou
Ġf ine
Ġp alette
Ġp sycopg
Ġre play
Ġs id
un set
Ġd ialog
Ġb iases
ad or
is ing
ĠT CP
et her
vi f
Ġst amp
Ġst mt
Ġg aussian
ran t
Ġh olds
ĠF ull
01 2
Re po
Re ason
ĠP latform
im m
im als
che str
ĠI mp
ĠE mpty
ĠM ac
mo lecule
oc ial
fa ith
ĠR ad
EN UM
Ġro i
comp iled
Ġadd y
64 0
exp iration
Ġpy torch
ĠEx periment
Ġac celer
sample d
ĠY our
ãģ ĭ
Time Set
iss on
EX CEPT
pk t
sup p
fail Unless
light ning
sl ash
Ð° ÑĤ
Man aged
ĠName d
MENT S
ĠInter face
/' +
Ġperform ing
optim ize
+' _
Ġowner ship
Ð°Ð »
ä¸Ń å¿ĥ
âķĲâķĲâķĲâķĲâķĲâķĲâķĲâķĲ âķĲ
Ġgran t
Ġdescri bing
Ġscra py
Ġsoft max
Ġtrunc ated
æĸĩ ä»¶
å§ Ķæīĺ
ALLOW ED
attemp ts
Pop ulation
Alter Field
( .*
) ._
: ]))
A ffine
F uture
F ULL
M ON
S i
S qu
T ab
c ategor
l ens
n lp
p m
w ifi
y ellow
ç ķ
ĠĠ ččĊ
se verity
re y
en ing
Ġf d
Ġm igrate
id u
'] ])
po ols
Ġth us
Ġr asa
ĠP ick
os ite
fa ilo
OR D
string ify
St age
ĠEx ternal
53 4
Ġinter action
16 3
Ġent rances
ĠSe quential
pop ulation
Ġexp anded
Log ging
Code s
PRO FILE
em scripten
Ġfig size
fetch one
Ġcfg x
ĠComp onent
Ġdec rypt
NOT E
Ġlate x
ä¿ Ŀ
Ab ort
çĽ ¸
ìĿ ´
rie ves
Skip ping
Bid M
fic ulty
Rece ived
å½ ĵ
Ġincre ase
Ġmime type
priv key
encrypt ed
Ġair flow
æĬ¥ åĳĬ
ĠACES tream
+ '.
? ",
B M
B lack
G AN
M ag
N ested
O ther
T a
W ER
h olding
j ars
j upyter
k i
r n
u ary
u lip
Ġ= ============
de e
an ford
he mer
Ġc ard
Ġf lex
Ġre use
Ġre stricted
co okies
Ġd rive
ot or
um ing
str ptime
ver bosity
00 02
Ġh a
sh aring
ĠĠĠĠĠĠĠĠĠĠĠĠĠĠĠĠĠĠĠĠĠĠĠĠĠĠĠĠĠĠĠĠ ĠĠĠĠĠĠĠĠĠĠĠĠĠĠĠĠĠĠĠĠĠĠĠĠĠĠĠĠĠĠĠ
Ġme chanism
Ġdata classes
pre ad
pre sents
ĠG aussian
pp rint
St ub
io xia
][ -
Ġne arest
Un ary
Ġad joint
Ġexp iration
Not ify
TR ACK
Message s
Ġsign ificant
Ġchar set
Lo okup
sup press
rypt o
ĠHe ader
VAL UES
Ġ"_ "
requ ent
ĠCom mit
poly gon
Start ing
Ġarch itecture
ĠInit ial
Select or
ĠAss ign
fund ing
measure ment
XY Z
deriv s
PRI V
å§ ĭ
ĠPack age
DETE CTION
1 96
3 94
B alance
C ut
H ar
T k
T imer
W hat
] ;
b la
b sc
g w
g te
n ullable
p fn
p atches
s us
v p
{ \
£ Ģ
de ad
ar win
le y
Ġre prec
Ġre cording
Ġm mal
Ġd ic
ch rom
ul ing
ul ename
ol ated
ĠT rack
all ing
Re ceptor
Ġr df
test ation
ĠI gnore
pre ferred
url encode
reate d
Ġk ubernetes
ĠR FC
ĠU til
ĠRe mote
zh uang
SE Q
Ġnew s
arch ives
Ġcomp any
np z
local e
face book
tin el
Ġdist inct
Ġcontext lib
Al chemy
Vi Char
Ġfind ing
hex digest
author ized
Sub scription
Ġpick up
åħ ĥ
197 2
BO X
Ġoc curs
ĠSQL ite
éĢ ļ
Ġ14 125
Ġassume s
ĠDet ermine
Av g
MAN AGER
åĮ º
episode s
ä¼ ļ
ĠPl ugin
ERV ED
compos ition
REQUI RED
Zip f
İ· åıĸ
pict ure
failUnless Equal
! ",
) ["
/ %(
B IOS
C AR
D Y
M s
P lan
R aster
S oft
b rid
f ort
r ating
t iming
{ },
} ;
æ ¸
ing re
Ġm n
Ġm iddle
Ġb colors
el apsed
is digit
ma gnitude
Ġto ggle
Ġl p
Ġde ts
In d
]) /(
Ġme mpool
ĠM ask
ĠB utton
ac fg
Ġob server
AT FORM
Ġch ip
lib raries
Ġdo ors
Ġac company
Ar n
ome ga
Ġmin ute
Ġreg istration
Un its
98 3
temp file
Ġiter items
bot o
istr ator
TH READ
pn l
sup ports
Ġtmp dir
([' --
Max imum
Th umbnail
FILE PATH
Function s
parameter ized
Order s
Ro les
dat adir
SH A
havi or
ĠHttpResponse Redirect
ĠInvalid Order
Dep endency
Ġsen se
############ ##
Ġcm ds
Ġestim ator
Cap acity
Ġlat ent
Ġcc xt
COMM AND
Ġroom JID
SN MP
Ġdig its
RUN TIME
ENG INE
Med ia
Ġcoeff s
(", ")
TIM ESTAMP
7 573
H AND
M Fn
Z ha
] |
e ac
g c
g inal
m otion
s col
t al
t id
u z
} },
æ ¡
è ·
é ĥ
in chi
ar b
Ġc nn
Ġin fl
Ġin voke
Ġd pi
Ġb rom
get balance
la red
__ '
Ġ1 01
ab o
ĠS imul
Ġex ported
Ġde velopers
out bound
Ġr x
fo cus
import ed
ho ck
oc us
Ġcl ust
ĠG rid
info hash
Ġwh y
ĠU TF
IT ES
ĠIn stall
=[ ]):
av ail
Se cond
sy mp
ENT IAL
spec ifier
fore ign
Ġ201 0
ĠPro duct
66 2
head ing
Ġtri g
Ġtransform ers
Le ss
Ġph oto
Ġmod name
Ġ"% (
Rule Context
Process or
Ġxml ns
Ġacc umul
mix ed
Ġwatch dog
Del ay
Sec ret
ãģĻ ãĤĭ
Ġbuiltin s
analy ze
0003 91
EMP TY
Ġdecor ated
çİ ĩ
Polling Method
ê° Ģ
Ġorient ation
quis ition
ĠEquipment Chassis
! ',
* ",
+ "\
2 54
2 048
A g
A ns
B lue
C s
C lick
D X
D ump
F lags
H IGH
M ULT
P erson
Q ry
T tl
] ")
h z
k l
l sp
n ick
t ml
x ticks
å »
de precation
Ġ" ."
Ġp u
Ġs df
Ġb i
ch ing
Ġw armup
and on
il ton
(' @
ĠT TL
ĠS DK
ĠA verage
pro portion
Ġst ops
Ġco er
Ġco mes
sc at
ĠĠĠĠĠĠĠĠĠĠĠĠĠĠĠĠĠĠĠĠĠĠĠĠĠĠĠĠĠĠĠĠ ĠĠĠĠĠĠĠĠĠĠĠĠĠĠĠĠĠĠĠĠĠĠĠĠĠĠĠĠĠ
ĠL ong
ĠI mplement
pre t
mo v
ĠN W
ĠW AMP
77 7
10 5
index ed
14 5
wait able
ld ap
De velopment
PO P
build ing
Ġover all
The ta
[:, :,
SI B
Ġpub key
bl ender
Ġembed ded
Do ors
TER N
FOR E
EXT ENSIONS
Ġtimestamp s
Di rect
åĬ Ł
ĠBo x
cel ery
mar shal
1234 5
Ġ------------------------------------------------------------------------ -----
æĸ° å¢ŀ
Ġtyp ically
å¾ Ĺ
Ġdiag onal
Ġpersist ent
ĠProtocol Error
pie ce
ancest or
cour ses
ìļ Ķ
vile ge
ĠATT R
ĠAns ible
failo ver
" %(
? "
A ML
L ER
M id
P G
e i
l al
q type
r df
s uc
re cur
Ġt ransp
Ġt iming
an zhou
ro sa
Ġn ice
Ġs pike
', )
Ġm qtt
Ġb ulk
ch apter
Ġ# --------------------------------
qu ot
(" @
par a
to c
ĠS ent
In struction
ĠF ail
ĠF ace
=' #
ĠP AT
Ġv max
om inal
ip ay
Ġprint ed
Ġk k
scri ber
ĠR ET
read ing
ign er
act ers
Ex cel
Ġser vers
core data
RE PORT
'' ')
not s
Ġop code
ĠĠĠĠĠĠĠĠĠĠĠĠ ččĊ
Ġindex ed
tra iling
ide s
MA KE
UR ITY
post s
Ġdistribut ions
CON TAIN
Ġiter ate
Py ramid
aw transaction
commit ter
ãĥ «
ãĥ Ī
LIC ATION
Ġimp act
Date Field
åĪ Ļ
cap ital
distri bute
Ġaut og
Ġli fe
Ġfit ted
Mo vie
Ġ64 702
hwRsvpTe If
optim izers
hot o
ji ra
Ġlower case
Ġdrop ped
Ġgap ic
aris ons
ĠNe ed
Ġ"{} "
Async Result
Ġhapp ens
ĠYANG DynClass
ima genet
æĮĩ æķ°
Vert ex
hard ware
Sta mp
Ads pec
Attach ment
laint ext
1 86
4 02
B undle
Q Q
R ank
b attles
j unk
m ind
m ongo
n mb
p mf
v otes
w ell
Ī ĺ
or k
Ġt reated
de grees
Ġf its
fi p
ĠT LS
et ag
th en
ab b
ĠA fter
list ing
out side
01 234
Re quire
Ġpro visioning
Ġpro posals
ir al
num ba
read Memory
Ġuser id
Ġno se
Ġ/ >
Ġ5 5
Ġj inja
flow s
Ch ang
Met er
Met rics
MO UNT
ĠDe precated
contrib utors
Class ification
addr s
Ġdown loaded
API Exception
year s
åĲ ¦
lt k
ĠPer form
9999 9999
sha res
roid b
ĠMeta Data
contin uous
Ġ---------------------------------------------------------------- ------
è½ ½
ĠVAL ID
Ġ37 64
Instrument ID
glx ext
å¤Ħ çĲĨ
E lt
F ast
H ours
M erge
R EST
Z i
b ids
g rouped
i co
t ell
w ildcard
Ġ vers
ĠĠĠĠĠĠĠ čĊ
st al
st ale
Ġt urtle
al es
le gram
Ġi am
Ġf i
Ġp atches
Ġs lices
Ġs phinx
co g
co ins
un defined
Ġ# ####
ol ded
ĠT itle
et er
Ġnot es
vi sed
Ġth ickness
from string
Ġ* ',
Re play
ĠL im
tr ading
Ġv oice
ĠM E
Ġthis Doc
ĠH ost
ST A
ST EP
Ġare as
ca ching
12 9
Ġ} ]
bu ilt
ĠIn stead
Ġindex ing
Ar ch
row d
ateg ies
De corator
Model View
Ġ`` (
:` \
ĠX brl
cond itional
Ac curacy
sw arming
Ġinfo hash
VER S
ãĤ ¹
QU ERY
sql alchemy
seed s
timestamp s
ba a
cp us
Ġstop ping
Attribute Error
Ġexpect s
FL AG
æł ·
âĸ ĳ
wik ipedia
Dep loy
Ġcy clic
Ġglob als
tl v
ìĿ Ħ
assertNot Equal
Lin ks
ĠOver ride
ENS OR
ĠCONT ENT
WH ITE
ĠNum Py
^^^^ ^^^^
renew al
#------------------------------------------------------------------------ -----
Ġeff s
La unch
ĠXbrl Const
) ].
, <
9 57
D T
G LOBAL
H A
K ioxia
P W
b less
g v
g cc
g ons
h ang
t ight
me son
Ġ" @
Ġf urnished
ur ons
Ġre servation
Ġs il
fi sh
ck le
Ġ[ _
ass oci
ĠS an
ĠS AS
ĠS ci
ĠA B
pro vision
Ġl int
Ġh op
Ġde serialize
Ġde letion
Ġde cafJavierParser
Re place
Ġpro v
ir rored
ST ER
SE ARCH
ĠIn fo
ib atch
Ġ** {
Ġle x
da e
Ġbu y
Ġ. /
14 3
lat ent
List Widget
raw ler
Ġbase s
cri be
spec ify
Ġmo ved
DO UT
Ġpart icle
Ġ7 5
66 66
ian yang
Sh ang
Ġpack ed
Comp utes
=_ ('
Ġ'- '
normal ization
imul us
ĠKey boardInterrupt
"} ),
CA ST
ĠLo op
åħ ³
Sp in
squ ares
Ġdraw n
Ġappro ximate
Ġeffect ive
+' /
Ġjoin ed
pot ential
ĠId entifier
resol ver
ĠDef inition
Track ing
ĠSup ported
CONT RO
Ġmix ed
Ġpur pose
Private Key
è§ £
Ġsuit ability
ĠUP DATE
Push Button
rott le
Wu han
ĠCRE ATE
ç¾ İ
Ġaccompany ing
1 64
; '
> .
H OT
J obs
P F
T EN
Y ich
c ue
h it
p db
s ible
s rv
in stantiate
in ventory
re index
Ġ' ..
Ġs ns
Ġa mb
Ġb all
ĠT hat
ver ification
am Slot
ĠA RE
ĠA WS
Ġst reet
Ġg c
time series
ĠI ssue
if ang
ĠE M
Ġma j
mo ment
Ġy y
load ers
ag raph
Ġcl k
ĠR R
ĠG an
ĠG OO
Ġro utes
cur rencies
base s
Ġser ialization
LE ASE
Ġcomp act
99 6
99 8
ĠAn imal
Ġsp ot
Ġup loaded
86158 3
Ġmo lecule
sign als
rad io
Ġover ridden
prob a
prob abilities
\\ \
Ġqu otes
Pre c
ATION S
fit ted
any of
=_ ("
Ġsc enario
Ð¾ ÑĤ
Ð¾ ÑĢ
Ġrep lic
ĠCheck s
Event Id
fb b
IG N
alle st
SA CTION
Interface Address
click ed
Ġel t
Sc enario
Ġcrop ped
segment ation
Ret rieve
BY TES
stand ing
interpol ation
CThostFtdc Qry
produ ction
Ġtw ice
Ġdispatch er
Ġconcat en
íķ ĺ
äº¤ æĺĵ
Sm all
Cla use
MUL TI
Ġens ures
Kioxia Provisioner
4 06
M ul
M ATCH
W rong
Y ear
c ifar
g is
i B
o sp
v pn
Ġi b
Ġ' ))
Ġp lain
as n
Ġre tries
Ġin cremental
Ġs pi
li min
Ġm atter
ch rome
ri ef
(' **
ab lish
Ġcon current
ĠS P
ĠS ame
ĠC OL
Ġde mand
Ġco lour
Ġco efficient
ĠF low
ĠP RI
ĠL iteral
test data
ĠE ither
Ġtype d
ty les
ĠRe set
** (
8615 73
IT IES
Ġsub parsers
53 0
Ġapp ended
Ġac cessed
Input Spec
dis count
ĠX i
Ġpa use
req s
pol ar
pass phrase
ä¸ ļ
part icles
ster ior
Base d
IS O
gen ome
Ġrandom ly
err Handler
Ġqu bits
fact s
pk gs
Class Type
inte restinggadgets
Ġtimeout s
ĠTime out
Table s
ced ence
Command Line
åĲ Į
correct ed
è¿ Ļ
Opt im
è® ¾
ĠST AT
Ġcounter s
Ġblack smith
Ġoverride s
commend ations
æĿ ĥ
Ġtrunc ate
crit ical
COM PI
PUB LIC
Ġlit tle
sendto address
> ::
B reed
C lock
C ASE
E MPL
J ing
P ut
S ID
^ \
p ct
p aging
s se
t orrent
y p
} |
Ġc red
Ġp ivot
Ġs ynchron
Ġb old
(' |
ĠS qu
ĠA xis
cl usion
Ġst ar
Ġst im
Ġl d
Ġl m
ub y
Ġde mo
que t
sh all
=' '):
ĠP andas
app a
ĠD AT
Ġme meber
Ġpro viding
Error s
ir it
num bered
15 8
Ġch anging
cor ing
ĠIn clude
inter sect
IC ODE
ef fekseer
tra ded
Ġz oom
wait ing
Ġtext s
OT AL
so lid
Ġad res
Ġcal ibration
Value Constraint
UN IT
Ġauth ority
Ġmode s
ĠPro vide
ĠPro gress
ĠIN DEX
Ġselect or
MO V
Comp ose
dec rypt
Ġsplit ter
Ġthere fore
We ifang
40 96
this log
control s
final ize
vol tage
termin ate
poly morph
ble u
([" --
compat ibility
Ġmedi um
Train ed
ĠRE AD
PRE C
æķ°æį® ä¸Ńå¿ĥ
Mon omer
ĠDO MAIN
INST ALLED
interpol ator
Ġmultip lier
å· ®
trunc ate
ĠBack end
0000000000000000 0000000000000000
æµ İ
Poly gon
Ġrout ine
sco red
< <
D en
F add
F ill
H ome
L ISH
M G
M aker
S NA
S UM
S OL
T MP
V e
W in
b ib
b reed
c pe
f ruit
h its
i ator
k athy
s uggest
z o
Ã ¤
â ł
å ģ
ç «
è ¨
Ġ ê
Ġ mpl
se mantic
er ts
Ġt aking
ro ut
Ġf an
ge red
Ġre ached
Ġn ick
Ġn br
pe l
Ġthe mes
get Elements
__ ).
'] *
ĠC ache
Ġst oring
Ġg ithub
Ġ: ],
out dir
Re gress
sc ape
ĠP OS
app le
ps ser
ĠL ake
Ġpro ducer
ĠO Auth
dir n
iv ities
sub tract
cal ibration
box list
Ġact or
50 6
Ġ{" $
Ġconnect ivity
DO M
Ġexp rs
AC C
Ġscal es
ĠPro gram
cro s
Ġfollow ed
ĠAPI s
Ġsa ver
public Keys
hy d
Ġemail s
Sp ider
tab lename
ĠApp end
Ġfolder s
uplic ated
Ġmember ship
Ġindic ator
è® ¢
month s
ĠAd am
ĠLe arning
ffff ffff
ĠServer Error
Ġdetermin es
ĠStatus Set
Ġsym metric
ĠPh one
METR Y
aco ustic
Ġgr ids
Publish er
ç¬ ¬
ĠAut omatic
PROTO COL
xls x
- "
2 20
E TH
F un
J inan
M IC
U DE
a mplitude
i en
k ub
o i
o py
w ild
Ñ Ĩ
è °
é ª
é Ľ
st ers
Ġc are
Ġf loor
co ol
Ġw ire
th s
to u
to ggle
ĠS tack
ist o
Ġco variance
fe red
lic ing
ag ain
ĠR out
ĠH ash
Ġbo keh
AR RAY
Ġla g
block Height
Ġcontain ers
Ġsp in
sv c
down sample
Ġover lapping
(_ ('
au ss
94 7
\\ \\
now ait
cho ol
web site
pen ded
Ġret val
fail ures
Comp liance
fs fs
Ġimp licit
Ġrel ations
best blockhash
æľ º
Ġet ree
Ġsm art
199 0
ĠCal cul
Ġfit ting
Network Interface
aa aa
198 0
comb inations
SH ORT
Ġsegment ation
æĪ ·
tz info
Ne ighb
Ġattach ments
SP ACE
OPT ION
dispatch er
Ġadj ac
Fra ction
Ã§ Ã£o
âĺ Ĩ
ç»ı æµİ
\']] '
hock up
getElements By
( "",
6 64
: (
G iven
H ire
P lay
P air
Q N
R ender
V EN
a ign
b iz
b ject
b ird
l vl
n w
u li
} ))
Ð ³
Ñ Ī
Ġ ray
in dicator
an other
he t
ro ps
Ġ" ))
Ġp asses
Ġp layers
Ġin stantiate
Ġin coming
Ġm ne
ate ver
ra ct
ul in
and o
ol ve
Ġto k
ĠT wo
et ime
Ġ1 25
Ġas sets
to po
pro tein
Ġh ouse
Ġde leting
ment ions
Ġ2 50
=' <
add Handler
ers ize
Ġname spaces
Ġv at
label ing
sp acing
min i
ĠW ord
count y
sen ger
Pro tect
Ġcomp ose
Ġle ad
av ro
Ġne ar
uc lide
Ġquery string
script ors
Ġblock chain
Ġup on
Po licies
qa ids
UN et
Ġim gs
Path s
ĠPy Torch
Ġstat uses
multi part
END C
We ights
short ids
199 3
imp licit
Ġplace ment
mac C
åħ ¶
Ġshort est
Cal cul
à¦ °
CI AL
Ġperson al
database s
Process Error
Ġsubject s
ĠAsync AR
QUEST ION
Ġprodu ced
Inv itation
ĠMan ager
Ġregular ization
Ġappe ars
ĠHel lo
ĠHel per
SB ATCH
ĠVAL UES
Rot ation
Ġpag ination
expi res
ĠFrame work
Spe ech
Ġsel enium
æı Ĳ
RU LE
Cent ral
éĿ ¢
åĵ ģ
6 11
8 142
A MS
C ANCE
G N
H IR
I I
L iao
S n
W hether
b ag
e lems
f k
g ates
h k
i mag
n gram
s lider
v acuum
æ ²
Ġ 94
Ġ ranks
in ge
re search
re Usage
re stricted
Ġre cover
Ġs lope
Ġs parsity
Ġo auth
li e
el s
Ġw msg
is k
is in
__ ",
et ree
ĠS a
ĠS cope
") ):
log ged
ĠP ower
ĠD er
ĠRe place
max len
state ments
we ep
ĠCon cat
RE DIS
]] ]]):
Ġcom ing
be g
Ġbu ilds
Ġinter act
mon otonic
ED IT
context manager
50 7
UR ES
Group Invitation
ä¸ »
color scale
oper ands
User Profile
Ġmark down
pool ing
Comp iler
ux i
Run s
Ġ'' ')
åĪ ¶
cluster ing
Flow Probe
depend s
PS HOT
SA ME
Ġtrack ing
Template s
some thing
geo code
Ph ysical
ĠRo ot
GI STR
Ġproto buf
æĪĲ åĬŁ
AAAA AAAA
Cor outine
fic ial
++++++++ ++++++++
Clean up
åĽ¾ çīĩ
Ġalter native
Ġptf adapter
Ġlic ensed
LANGU AGE
categor ized
" ')
+ ')
/ *.
3 86
A ug
B GR
C atalog
F P
P ers
R ID
S id
S UP
W atch
g pio
m ant
n os
n ginx
p as
p rom
r hs
s nap
t pl
é ģ
Ġ lif
in cluded
re w
er gy
al arm
le ader
le aky
Ġc um
Ġ' |
Ġin herit
Ġs amp
pe ephole
Ġo dm
un link
is co
ĠT IME
Ġe igen
(" {}
Ġcon j
Ġcon cept
to k
Ġh pc
Ġde viation
In tended
file Name
add Function
Ġr id
ĠL eft
tr on
IN CIDENT
Ġun categorized
ph y
ĠV ideo
Ġsub command
ĠEx pected
Ġne utron
16 00
mon ic
Ser ializable
ĠCo mple
55 55
pass wd
At trib
"]) .
Bo osted
Ġman ip
AP IC
Ġtitle s
Ġexec uting
By Ticket
uff led
RES ERVED
book s
cap ability
ĠÐ ´
hy p
199 8
Det ect
WS GI
åĬ ¡
percent ile
optim ization
duc ing
Ġyear s
ĠAss ume
Ġsec ure
å½ ķ
crit ic
Ġspect ral
Place holder
WINDO W
PACK AGE
Ġaffili ates
ResourceGroup Preparer
Ġckan ext
éĥ ¨
Regress or
Coroutine Mock
3 65
5 16
9 04
; &
A pa
C USTOM
F LOW
G adget
P et
P rom
T CP
e ig
h ol
h ire
i ra
r ss
ç Ļ
ë ¡
re lay
me l
Ġi vc
he ater
as an
ur ic
Ġs alt
Ġa mp
co w
ex posure
Ġw f
", )
es ource
__ [
00 10
ĠS PD
ĠC F
Ġst able
ĠF ra
ob server
ob servations
Ġme ters
mb d
ĠL ast
ĠO ct
pre dicate
if eng
ĠE mbed
ĠM ix
Ġun set
:// {
sub scribed
SE ED
Ġser v
ĠCon verts
Ġsub sequent
Ġdis c
RO UT
cf d
Ġshould n
De letion
Ġq os
Ġ[" -
96 3
AC KET
part ner
cache dir
dde v
AP H
Check point
lem ma
IP V
IP Address
gre y
Ġ'% (
folder s
author ity
Ġstruct ures
Auth entic
Ġdepend ent
Policy Args
Trans fer
Tag Name
Ġmy py
Ð¸ ÑĤ
ĠFile NotFoundError
å¤ ī
va e
ircu its
mal e
197 5
ÑĢ Ð°Ð
Iter able
pick up
spect ive
æį ¢
cr ud
comb ined
çĶ Ł
ĠOutput s
ĠId ent
ĠIter ator
ĠMet hods
collect or
seg wit
pat ched
ìĿ ¸
ĠReg ister
san ity
ĠVi Status
ARCH IVE
Ġtol erance
DIRECT ORY
ĠBad Request
Ġwater mark
Ġdenom inator
iline ar
Ġimpro ve
Ġimmediate ly
Ġclk domain
éª Į
getElementsBy TagName
1 94
: {}
A mb
B LOB
P USH
T ai
Y ulin
] ==
a ma
b m
b colors
d temp
t lement
u uids
w l
ç Ĭ
é ħ
Ġ ------------------------
re ctions
or se
en ience
de leting
me the
Ġre cur
Ġb ag
ch no
Ġw ish
Ġw alk
ĠT ake
set uptools
'] })
ĠC NN
Ġnot ation
Ġg allery
Ġtest net
url parse
Ġ` ~
). \
AT IVE
Ġen hance
wa ves
Ġint SrvFlow
Ġro is
([ ('
ca ster
work s
point ers
AR I
ĠIn formation
64 7
]] ]]:
ĠEx port
ron s
ts k
ref erred
Ġms gs
ĠX ml
cket s
Ġpa inter
Ġ{" _
Ġtra iling
Ġso lid
queue s
Vi Session
Ġqu ota
az y
Qu ote
Ġshow s
Ġsc atter
cert ificates
author ization
fra g
Sub mit
ĠCh art
Ġloc ally
container registry
Ġstop ped
Ġincl usive
PER F
Ġhow ever
requ encies
Ġauthor ization
Sc atter
diag onal
ä¸Ń åĽ½
æĺ¯ åĲ¦
iso format
å· ŀ
ĠEnd point
VAR I
Ġalloc ated
âĢĶâĢĶ âĢĶâĢĶ
ĠAppro ved
Ġni Digital
ĠSEC URITY
ĠAsyncAR MPolling
methe us
B reak
C lear
D ynamic
L EN
M X
N B
P AD
Q P
S CRIPT
V ec
] **
` ).
a ur
d atal
f z
f abric
v api
v cs
x n
{ %
å ¥
è ª
in cremental
on ion
st ash
or ot
Ġt reat
de liver
an swers
Ġc mp
Ġ' ,'
as p
ur st
lo red
un a
Ġd aemon
() ``
il a
arg inal
iz z
Ġof ten
ve cs
": [
ĠS peed
Ġst ddev
Ġg d
01 7
fo x
tr n
tr unk
ĠO SI
pre sence
=" _
op acity
Ġon line
ph er
Con tains
ĠR aw
Ġby pass
ĠRe ce
by e
ari os
SE CTION
cs r
ste er
Ġop codes
Ġhas hes
Ġdis crete
dis criminator
content types
tin y
ĠJ reUsage
Un icast
86158 5
Ġpart itions
UN ICODE
static files
fn match
EX IT
dic ation
76 8
tmp py
86159 32
Ġgo es
pk h
Create Model
seq s
Ġprefix es
Ġerr put
Ġsk u
short cuts
åĲ ĳ
Cal Access
äº Ĩ
ĠText Element
aut ob
Ġcap ability
Ġcontact s
Ne gative
Ġspeed ify
gu ard
Generic TestBase
Ġcapt ured
ĠChange s
Simul ation
Ġsuit able
Ġur wid
Ġ============================================================================= =
INIT IAL
147 48
IGNOR E
ĠLin ux
mile stone
sho ulder
Ġfet ched
nib bles
hemer al
uclide an
Boosted Trees
' (?
/ ]+
7 26
C ALL
C trl
E lem
E tw
G A
L p
O s
R INV
S l
U Int
f ar
g h
h um
h du
k b
m sh
m ib
m icrosoft
n esting
s ider
s lope
t utorial
u o
è Ĥ
in file
de termine
Ġc umulative
ur able
mp ath
Ġ( \
es pan
ver b
ig ns
Ġcon sist
Ġcon vergence
od er
ĠC ir
Ġst udent
In clude
=' ./
Ġpro posal
import ance
Ġ` {
sp irit
Ġk ill
ask s
Ġat trib
Ġen dif
ĠU ns
ĠH all
sen tropy
Ġadd res
df s
cal ib
check box
11 01
Ġcheck points
ref lect
Ġ| \
trans formed
Ġinstance B
order id
select able
28 2
ĠAr range
33 9
pop ulate
PE CT
stack overflow
Col s
char set
Ġver bosity
UN DS
eval u
200 4
Al location
Te am
Ġbreak point
"," \
ãĥ ĥ
fra merate
SER V
Ġdetect or
ret ch
Ġgen es
ĠString ify
inc ar
ĠDo es
Sp atial
Start Layout
={} ".
Change s
APP LICATION
Pub Key
Ġwidget s
cas lib
ĠNE G
Ġequ ations
atom ic
ĠMark up
112 31
Ġpot entially
RESULT S
LIB R
eth ys
GRA M
çº ¿
ĠAudi ence
Shell Common
Ġmaterial s
Ġcrit ical
âķĲâķĲâķĲâķĲâķĲâķĲâķĲâķĲâķĲâķĲâķĲâķĲâķĲâķĲâķĲâķĲ âķĲâķĲâķĲâķĲâķĲâķĲâķĲâķĲâķĲ
ĠOpt imizer
Ġocc up
IDD LE
MEDI A
Ġpu zzle
çĬ ¶
StartLayout Population
7 20
A MOUNT
F latten
L ES
R P
R NN
S GD
W ords
b am
i ated
k as
l ds
m z
n def
p lex
t im
w arded
x fm
se udo
st udent
le gs
Ġp an
Ġp pc
Ġre cognized
Ġn at
Ġo ci
co pies
ch astic
Ġw ildcard
Ġ( *
Ġ( ['
", "")
__ :
ab y
ĠA waitable
Ġg ce
Ġh ide
Ġde cl
Ġde veloper
Ġde livery
ĠF ast
ĠL ab
bo osted
ĠO ri
=" \
Ġfile system
ĠB ridge
Ġk m
Ġun i
Ġlist ing
ĠG EN
ĠW String
ud ge
Ġ{} '
St d
Ex pect
ec c
ME TA
ix map
Ġop acity
57 5
En tropy
Ġper f
the re
Co ord
Ġinter rupt
emp t
`` :
Ch eng
ĠSe gment
Ġtrans itions
Un iform
ĠSt at
22 2
22 9
pert ise
To Many
84 0
Inter faces
Ġcount ries
ĠIN TE
Sh ift
MO D
86159 33
CK ER
gg ers
Ġca ption
ĠMe mber
199 2
Pol ynomial
ĠHttp Request
)/ (
adapt ers
198 8
ĠST ART
Ġlow est
ili es
chat bot
AV AILABLE
activ ated
Rel ation
æŀ Ħ
Ġpublish er
Ġmodifi er
Trace Source
sat ur
å° ı
Uns igned
Ġeas y
æĶ ¹
ĠExec ute
ìĦ ¸
ĠAv ailable
Percent age
TU AL
ASSET S
ĠSER VICE
ITES PACE
ĠSPD X
éħ į
7 00
B D
B its
C ast
G PIO
I gnore
K un
S lice
S olver
V A
h aving
i w
k afka
q c
t urb
z i
å ķ
se crets
re ferences
Ġt ape
de conv
le ave
Ġre write
mp i
mp ol
Ġo t
Ġm illiseconds
ate x
(' (
di e
Ġto Hex
ĠT T
__ ')
th ickness
per iodic
Ġ2 048
Ġor acles
ĠP L
im ate
mb s
Ġdata store
Ġv min
ĠE l
ĠB GP
ry stal
ph ysical
Con sole
ff inity
ĠR NN
ĠRe ferences
ud nn
12 2
SE CON
Ġno isy
RE COR
'' ',
Ġsub network
Res ize
Ġcur ses
lob ber
11 4
Ġfil t
Ġ`` [
hand ling
18 7
Ġq type
cre asing
50 5
sign ificant
13 0
Ġver ification
Ġover laps
He at
mt p
66 06
Ġport al
Ġsign atures
Or deredDict
Ġsee ms
23 7
PRO GRESS
Ġzip file
Ġconf usion
199 4
197 8
STAT S
Ġenable s
Ġside bar
Ass istant
STR U
ĠCO CO
Ġeffect s
Ġacc um
Ġinterpol ate
Ġquant um
Zh anjiang
chart s
æİ Ĵ
Single ValueConstraint
WIT CH
ARK interpolator
gain s
ND Array
DEV ICES
Audit Log
Ġol der
hwRsvpTeResv Fwd
ĠCOMM AND
Ġke pt
Ġagree ments
PROPER TY
ĠERR OR
dae mon
! )
) {
4 85
5 91
6 26
C redential
D ROP
F req
T Z
W en
f all
f ine
i mplementation
k k
m ang
p mul
s andbox
t urtle
y um
Ñ ħ
Ġ lot
in bound
al ax
al formed
Ġi gn
he rence
it ness
ct uary
Ġp du
Ġre produce
Ġn esting
Ġs z
): ]
Ġm se
Ġm ul
Ġw ind
(' //
up stream
Ġ[ %
'] [-
(" *
ĠC allback
Ġnot ifications
Ġco ins
te acher
sc m
=' _
ĠP eer
ĠD og
ps df
tr g
ds l
Ġma gnitude
ĠM agicMock
02 6
ĠB eta
ff n
sub unit
St ates
for ced
Ġcomp ared
]] ],
ef low
ne utron
Ġinstance A
Ġgroup ing
De precated
hand les
oth ing
bin der
FI ED
Ġoper ating
âķ ĳ
pol ys
Ġback wards
30 8
Ġtag ged
iss ize
Ġ& &
ĉĉĉ čĊ
EX PORT
now flake
Ġtop k
Ġtri als
medi um
long itude
API View
37 4
ene ss
dt i
Storage TestCase
Ġdt i
Flow Spec
Update d
197 1
è¿ Ĳ
Ġpk gs
review ers
ĠSQL Alchemy
Ġestim ated
ĠCustom er
Ġbro ken
coordin ate
Ġdescri bes
Ġtw isted
follow ing
ĠOperation Class
Yan tai
ĠBig Query
Runtime Error
æīĢ æľī
æĮģ ä»ĵ
ç¼ ĸ
Qing dao
Ġfriend ly
Modifi er
ĠUtil s
ìĦ¸ ìļĶ
/ {}/
8 39
8 346
B and
D ungeon
L ost
M is
S lices
S uzhou
V lan
W lan
a ero
d it
d um
g rowth
h h
r fc
s un
x max
x avier
Ñ İ
Ġ â
Ġ ----
Ġ âĸĪâĸĪ
Ĭ Ĥ
re ps
er c
or row
an et
Ġs col
ma chines
up loads
Ġ1 20
th umb
(" '
Ġh g
Ġde que
us hes
01 4
Ġr ho
Ġpro filer
sp ider
86 4
max size
sub s
Type id
Ġ5 7
check ed
block ing
Ġinter active
Ġne ural
De ep
uc io
ĠCo uld
ched uling
ĠX Y
root s
50 8
FI RM
PE G
sv d
Ġload s
ĠUn known
err ing
An gle
ie ve
Ġbox list
skip if
xx x
sk i
PAT TERN
Ġweb hook
Ġrender ing
Module s
PL S
att end
drop down
bro ken
air seq
Layer Norm
197 4
quant ile
Ġel astic
Ġcontrol s
Ġdimension al
expand user
ĠFI EL
expression s
rm se
TA PE
SUB LANG
Ġsen ds
Ġcy an
regular ization
Ġfore st
ĠAct ive
Async StorageTestCase
health y
health check
Byte code
Ġcut off
unic ation
Bid U
alloc ate
Rece iver
subnet s
Choice Field
Named Values
Ġcr ash
consume d
accumul ator
recurs ive
ðĿ Ļ
Cy cle
ĠQU ERY
è¾ĵ åĩº
ĠDI RECT
ĠDatetime Index
è¿Ľ è¡Į
ç¾İ åĽ½
amSlot Wind
) """
- '
8 000
= >
B EN
C our
D ong
F B
F N
H IST
K W
M Q
S tri
W AY
Z a
b ullet
e ks
s low
v ect
z illa
æ ®
ì Ĺ
re corder
Ġp c
Ġp ve
Ġre m
Ġre tri
Ġn gram
lo s
Ġs ites
Ġo h
un expected
ed er
() )))
Ġw ild
Ġw av
Ġw arm
get bestblockhash
int SrvFlow
Ġto po
Ġu art
Ġas cii
(" (
par ation
ĠS ensor
cl ust
per spective
Ġg ra
In st
Ġ* [
Ġor gan
sc f
ĠP unctuation
ĠL LC
ĠE SP
ise n
Ġy c
ag ers
ĠW hat
Ġal gorithms
ĠH ide
rect s
Ġ[] ):
comp ound
Ex tra
lib ref
inter rupt
Ġsub j
rep lic
57 6
Ġax s
tra jectory
Ġopt imal
Add Field
Ġab sl
22 3
over all
âĶ Ĥ
Ġover lay
height s
ze ug
cro le
Des ign
INT E
Ġnon ce
chain s
Ġtransform ations
ĠName space
Tag List
ĠRun ning
hy pothesis
Ġmon it
"> </
Ġshort cut
estim ate
Ġhelper s
Ġequal s
Range s
dat atype
cost s
TA IL
ĠArgument Parser
Match er
sn ippet
Build Environment
åįķ éĢīé¢ĺ
Ġevalu ator
ĠMO DE
ĠAct ivation
Ġrelation ships
Ðº Ð°
ivers al
çī ¹
amb ient
Ġseparate ly
Global StorageAccountPreparer
æł¼ å¼ı
SIG N
contour s
WINDO WS
Ġbio metric
Decode Error
ĠFace book
GISTR Y
ĠStringify Transform
Kun ming
" `
. :
2 11
: **
E OF
F actor
F OLDER
G C
H it
M ay
R ing
R IC
_ {}_
a ffected
a jax
b ands
c ations
d v
d py
f usion
h g
h id
m ute
n lu
p ulse
p addle
s st
s ilent
t end
w Interpolators
} "}
Ġt ran
en gines
de ed
ar ches
Ġc q
Ġc atal
Ġf abric
id b
Ġb alancing
Ġ( {"
is ation
is close
es sel
et o
Ġe ml
Ġth er
Ġco ol
ance led
Ġr t
art ist
ĠĠĠĠĠĠĠĠĠĠĠĠĠĠĠĠĠĠĠĠĠĠĠĠĠĠĠĠĠĠĠĠ ĠĠĠĠĠĠĠĠĠĠĠĠĠĠĠĠĠĠĠĠĠĠĠĠĠĠ
mb ic
ĠI mplements
oc s
Ġun safe
15 9
ĠW H
ĠW arp
ĠU sage
Ġal g
ĠH igh
Ġro idb
by ref
Ġ4 4
comp ilers
Res Net
clo uds
trans formation
trans posed
mon key
97 8
Ġvalid ators
De cl
off er
Ġact ing
Ġgener ally
sign atures
down loader
debug ger
84 2
google ads
Check ing
cv t
ĠUser s
Ġsplit ting
Resource Policy
KEY S
Pri mary
Ġpredict or
Update s
ĠImage s
Ġdeser ialization
Ġsav es
à¦ ¨
Ġutil ities
Ġinv oking
86157 66
ĠDet ail
Ġbehavi our
Ġcollect ed
åº Ķ
è´ §
Custom er
yto CC
æĢ »
Contact s
Lin ux
Vert ical
band width
compos ite
Ġactiv ate
reach able
buff ers
occup ancy
ĠParticle Data
Wave form
EXA MPL
Zones Times
å» º
* '
. "))
1 00000
> /<
D W
D on
H a
N ing
S HE
S PAR
T V
b ash
b attery
d T
e vt
g lish
g zip
k de
y cle
in correct
re levant
an h
me ters
Ġc elery
Ġf av
Ġp ants
Ġn g
Ġm irror
Ġd word
Ġb r
Ġ# ################################################################
est yle
Ġ1 34
Ġcon vention
ĠS chema
pro posals
ject ion
Ġde conv
log it
01 3
Ġr at
Ġr dm
ĠP ot
im ic
Ġv a
ĠI o
Ġpro vision
pre f
om it
om ing
ĠE DIT
ĠM SG
Ġx label
col lision
ind ustr
ĠR ight
ĠG rad
Ġch apter
sub j
sen tinel
we apon
lat itude
Co verage
pl ural
sing leton
=( -
rt d
raw tx
Ġtext ure
Ġq r
Un available
go ods
AD ATA
Ġlin eno
Ġte ams
Ġmodule criteria
over lay
su fficient
Ġdest roy
94 96
Ġplot ting
ĠDe velopment
hist orical
Ġpol ar
Ġar row
comple tion
Ġwrit es
Ad just
Ġfail ures
att le
ĠCol lect
bb c
199 5
Format Version
learn er
---------------------------------------- -
Sp iral
Ġsv c
æĺ ¾
Ð½ Ð¾
SO CK
SO FT
ç» Ħ
Ġoptim ized
effect s
Ġinv ocation
Collection Replica
clar ator
ĠMO DEL
ACT IV
PH ID
Ġum a
ĠPi peline
VIR ON
VIR TUAL
Sw ap
æµ ĭ
Geo DataFrame
WH ITESPACE
ĠHome Assistant
Ġalloc ate
}- {
IDD EN
Ġsynthe s
Vari ant
SUPPORT ED
SEQU ENTIAL
gebra ic
ĠQuest ion
Har bin
arb age
èĤ ¡
industr y
- '+
= .
A ctions
C at
C riteria
E AR
E urope
H u
J unk
P ad
P ED
R a
S he
S ENT
S ITE
a ware
k le
m time
o y
o ser
q id
r ts
t or
t ethys
w rist
z ing
z oo
Ġ Keep
er n
ar ith
an imation
Ġc hem
Ġn pt
Ġin vert
ing leton
Ġo dd
Ġm f
Ġm ob
Ġm ouse
co ind
() ["
Ġw andb
il enet
ol ar
str ong
ig and
(" ;
(" >
par quet
Ġg ates
Ġg zip
sh if
Ġx i
assert Items
15 3
min der
min imize
ill ar
10 9
Ġ4 9
comp uted
Ex Record
cor ded
start ing
Ġcomp osed
Ġsub s
Ġpo ssibly
tra p
RO W
Get Issue
ĠJ S
ost ream
Ġsp acing
Text Actor
bin ned
34 4
86158 04
UN I
90 7
To Tensor
tt m
################################ ################
du ce
ord an
Al t
Ġhand shake
Pre v
fl ated
Ġ---------- -
89 3
86159 04
contrib utor
serv ing
Ġtx s
sk top
XXXXXXXX XXX
install ation
ĠLO SS
WAR N
bb re
FILE TYPE
extract ed
Ġtrack er
Ġident ifiers
Num bers
198 1
comb ination
Validator Tests
æĪ ĸ
crop ped
Ġprop agate
ĠMock Datetime
Ġpair wise
Ġbl k
Ġ================================= ================
Password Validator
mob an
Ġkw arg
TEMPL ATES
æĿ ¥
âĶĢâĶĢâĶĢ âĶ
Ġ'* '
Ġsever ity
Pres ExRecord
CLO UD
æ¯ ı
dri vers
gear box
NORMAL IZE
èµ Ħ
ĠPAT H
assertItems Equal
) ][
2 0000
C SV
F old
F uzhou
R T
S macC
T urn
c xx
e ht
k p
o ise
p fns
r k
w ds
} ],
Ã ¶
æ £Ģ
ç ³
Ġ 95
Ġ åĪ
Ġt def
de partment
le cular
it ized
li fied
Ġd uplicates
Ġb ash
ul s
Ġw r
di ce
di ents
Ġto mography
con trast
ver ified
th ick
ig ation
Ġcon sumer
ĠS K
ĠS cal
ĠC li
Ġg ather
Ġex ceed
Ġh ierarchy
Ġco ef
file system
Ġr nd
ĠP atch
ĠD if
Ġv otes
Ġpro xies
ĠE C
tri g
02 3
ifi able
ĠB ook
Ġout come
Ġk ube
sa ver
ph otos
Ġwe ather
sen se
for cing
LE AN
mat ive
exp val
exp anded
reg isters
Ġtf x
Co untry
Co mbo
sy mpy
Ġstate ments
Ġfe conf
20 6
34 0
Ġab andon
13 5
Config s
part icipant
match er
Ġ... )
stream ing
Up grade
"]) .__
err no
Inter p
ĉĉĉ ĠĠĠ
User name
peri ence
full name
mod s
ãĤ Ĭ
ERR U
ĠCreate d
author ize
Ġheight s
Sub ject
insert ed
31 000
display ed
ĠLo D
Ð¾Ð ¼
åį ģ
Ġsol n
Def ine
73 89
Ġhy pothesis
198 2
mesh grid
voice over
WE IGHT
Ġfra g
Ġprodu ces
Ġast ropy
Ġleg al
sn mp
resol ved
placeholder s
Bro adcast
Ġclose st
ĠFunction s
met ic
Ġintegr al
ĠVM s
Ġmm cv
CallbackImpl Base
ĠSign al
Feed back
Branch ID
Effect s
ĠAli gn
ĠPol y
Adapt er
orbit als
GRE EN
ToMany Field
/ {}'.
2 33
9 00
A ppro
D TYPE
F inal
H int
N IST
S aving
T ower
c inder
e gg
g ender
g oto
l h
l ps
n v
p lat
u ffix
w r
x link
Ä ±
é »
Ġ virt
Ġ Keys
ĭ ľ
re servation
st yles
le ading
as semble
Ġre strict
Ġin s
Ġin dependent
Ġs ch
Ġs ho
li ers
Ġm ine
ex periments
Ġb anner
ĠT ransaction
Ġ1 000000
), '
'] ",
Ġe mb
(" \\
ĠS chedule
cl ang
per ms
Ġg lyph
Ġres id
log ies
Re ading
sh ui
app service
ĠD NS
ure r
ĠE poch
Ġy t
Ġy um
ener ated
AT ER
ĠW arning
ST ORY
ST DOUT
sub d
Ex its
Ġsub mission
Ġspec ies
ther mo
be cause
Ġclass name
En ergy
Co ver
Ar m
List Thumbnail
connect ivity
Ġsize of
Text ure
86158 97
96 8
Ġoper and
char acters
24 8
mt ls
Ġlocal ctx
Ġscal er
ĠIN PUT
Ġmark ets
ĠDe ep
pen alty
Comp are
91 02
Ġdown sample
Oper ating
xi con
ĠEn ter
00000000 0
Attribute Vi
Ð¸ Ðµ
gl ance
199 1
199 7
bind ings
SA VE
Ġsimul ate
ĠAc curacy
æī ĭ
MPLE MENT
ĠAS F
Ġlinear ity
Ġfore ign
tex info
BL UE
POS ITION
Ġ===== ==
ĠNormal ize
Ġeas ier
(': ')
calcul ated
ĠAli as
Ġexploit str
ĠChar acter
ĠGL X
Ġant lr
Perform ance
14748 364
åķ Ĩ
ĠFIEL DS
cvt Color
ç³ »
# ================================================================
2 10
2 13
F ICATION
G r
J ining
L ab
P adding
Q ubit
S cheduler
T erm
W hen
[ %
_ ):
b ond
g ive
i qn
l ands
m oney
o vs
q node
v an
| ,
} '}
° ¨
ë ı
in ks
in cluding
le et
me g
Ġc ron
Ġf w
Ġp as
Ġre action
Ġin voice
ame s
Ġb alancer
fi f
Ġfor k
(' __
name spaces
ĠT ick
ĠT race
ass ociation
ab cd
(" **
Ġcon firmed
ĠA udit
ĠC W
ĠC ategory
Ġg pd
Ġex posure
Ġl sp
Ġde precation
ĠF uture
Ġr f
Ġr r
ĠD one
ĠD est
ĠD irection
ĠI g
import Symbols
ĠM IME
ang ent
Ġy aw
02 004
sp rite
sp lom
ac f
Ġun defined
Ġun supported
Ġra ck
ĠV PC
ĠU rl
Ġby groups
mit ives
Pro filer
Ġcomp ut
Ġsub scriptions
Ġ5 9
99 0
iter rows
write file
unc er
AS F
En semble
Ġz order
Ġgroup by
Ġfe ats
Ġversion changed
De ath
28 1
mock time
Ġsy stems
Ġad vertise
Ġconnect ing
DI ST
HO LD
bit coin
SI M
has il
Ġdif ferences
Ġlib rosa
ĠAt tention
SER IAL
desc end
Ġsig moid
drop na
Ð¸ Ñı
Th reshold
ynam odb
:% (
cer tainty
Op code
vari ants
COL UM
delay ed
ĠRequest s
Ġ------------------------------------------------------------------------ -
ado x
Ġdat atype
runc ated
åĢ ¤
erm ion
å¹ ¶
Ġsn ippet
Sim ilar
PK G
ĠPlot ting
è½ ¬
Ġrespon d
Ġheat map
Pres Format
Fra gment
Ġregard less
aver aging
éĩĳ åįģ
Ġstand ardi
Health Check
indi vidual
Fo shan
capital ize
cros sentropy
mant ics
2 57
4 35
: {}'.
; ')
A ge
C ATE
D b
D uplicate
D rive
E OS
F ITS
F ONT
K B
b out
b ench
c rowd
g am
h q
j p
j id
m w
m il
n es
p format
p ins
q name
Ġ questions
in ate
re mo
st ime
de compress
Ġp runing
as cending
Ġre lay
Ġre cogn
Ġn ltk
Ġd ct
Ġd aily
el b
Ġw d
Ġw all
di mage
est s
th r
Ġe e
Ġe g
to wn
ĠS ch
ĠA DD
pro ducer
Ġl ut
Ġh c
Ġde x
ĠF it
add Child
ĠP lace
mb re
ĠL ength
ĠL STM
Ġdata class
ise ct
Ġnp c
02 0
sp here
Ġk s
Con n
Con tin
min imal
ĠG PT
ĠU DP
jo y
pos ite
Ġ} ;
RE MOVE
Data File
11 7
14 1
14 8
lat er
off line
top k
Str Opt
Ġany way
UL K
ĠSt udio
Value Op
Ġte acher
IL INE
Bo ard
19 77
Ġpack ets
Ġqu it
Ġsign ing
keep dims
TO OL
ãĤ ī
ãĤ Į
medi ation
fs m
bl k
Ġskip na
37 9
dif ficulty
Item Paged
respon d
Ġclo sing
Ġstack s
Flow Stats
Ġwant s
Ġca ught
ni i
âĢ Ŀ
TER NAL
199 6
pr incipal
IM AL
accept GroupInvitation
Ð¾Ð ±
rb f
vm ware
197 3
äº ĭ
Ġperform s
198 5
ĠJSON RPC
mk dtemp
roll ment
Ġì ŀ
Ġfra merate
Ġtermin ate
MAN AGE
Ġtz info
Ġmodifi cations
Ġpoly gon
å° ±
peak s
ĠRet ry
Ġren derer
ĠâĶ ľ
ole on
çº ¦
Ġprom ote
ĠFore st
nor mpath
trust ed
cmpct block
Ġfront end
augment ation
Serialize ToString
offi ce
Constraints Union
Called ProcessError
Restri cted
inchi key
Scenario Test
è®¢ åįķ
Ġcatal ysis
+ -
, :,
7 97
7 279
> %
> [^
? ,
B OLD
D aemon
G F
G ate
H oh
K it
M ail
M IDDLE
N umpy
R ich
S ur
T OTAL
V m
V AILABLE
d il
e lection
f onts
h l
h app
k ins
p rune
s ink
x A
z n
Ð ¶
æ Ļ
Ġ videos
in herit
st ill
st aging
de ck
Ġc x
Ġp f
Ġin vol
Ġo ct
ex cluded
() })
pt une
Ġ( {})
get RA
la ves
ma intenance
di co
str s
== "
am i
am ilton
ab it
)) (
)) ])
ĠS N
ĠS Y
ĠA dapt
end og
vi ct
list ed
Ġl ane
Ġh er
Ġh is
log dir
Ġ2 04
=' .
ĠP e
ĠN orth
IN K
"] },
Ġk o
dir ty
node id
Ġdi e
Ġal i
ud ents
Ġkey ed
SE CURE
cor p
cor ner
mat rices
reg istr
Ġj wt
Ġj upyter
Ġ{' $
11 8
ĠEx pect
AS SI
Ġne ither
Ġversion ed
Ġopen ing
Ġopen ed
Ġcor ner
Inter preter
Ġtop ics
By Name
Ġnon zero
86159 2
44 3
Ġerr no
acc um
PL Y
Ð¸ Ñģ
Ġdec ide
ĠDo uble
home assistant
adapt ive
={} '.
ĠEX IST
byte code
Process ing
hot copy
Multi Index
bt c
Pl us
Ġri sk
Be arer
Detail View
Hy per
dy link
Ġmacro s
perm ute
FUN C
FUN CTIONS
ĠRet rieves
Bad Request
ĠBatch Normalization
utter ance
Ġspe ech
Ġtt Font
è¡¨ ç¤º
è®¡ ç®Ĺ
announce ment
Greater Equal
Pending Deletion
erk zeug
MOT E
ĠSTR ICT
Shan tou
ĠHist ory
abo ve
ë¡ ľ
VIRON MENT
bbre viation
getRA data
PendingDeletion Request
$ {
+ )/
3 75
= ')
B at
B io
G LE
G MENT
G reen
J i
O ffer
R i
R ST
] `,
b x
b al
g ca
j d
m ies
u fact
in et
in ches
Ġ= =========
Ġt ls
de posit
le ad
Ġi ps
he artbeat
ut ral
is on
up ling
th ings
'] ]]]
qu er
)) ):
po le
ĠS pot
Ġg lu
Ġ: =
ĠF ailed
file paths
=' +
py file
Ġv ox
pre ads
ĠE mail
02 7
ĠB T
Ġk ick
Ġob stacle
Ġun ix
ay s
ber g
ĠW idget
count ries
Ġal ive
mit ian
Ġwe ak
bu ilds
Ex pi
Pro mpt
Res pon
exp ansion
Data Sequence
Ġspec s
AL SE
ĠEx cel
ast ropy
Ġdis p
Ġdis cret
ne ver
20 8
open ed
90 5
Ġenum s
To o
Ġcor relation
Not Implemented
LI GEN
Ġsign als
36 8
Ġsome times
Ġshow ing
CL UDE
ose Version
can onical
Trans ition
Ġexpect ations
Ġapplic ations
Ġhead ing
Ġcre a
å® ¹
Cl one
aut og
aut ospec
Ġident ification
ĠWor ks
Ġcert ificates
--- \
redirect s
Ġleg acy
Ph i
Ġattemp ted
IF ICATION
SY M
ĠDet ect
ĠRed u
Sto pping
cha int
Ð» Ñı
Ġcir cle
ij ia
ĠBu y
Cell s
POS IT
Ġam ong
twe et
So lid
Ġhard ware
Leg acy
ç´ ł
è¾ĵ åħ¥
ĠJo in
iel ded
Press ure
Ġaio http
ĠDel ta
ĠSPE CIAL
ãĥ© ãĥ
åıĺ éĩı
ç»ıæµİ æĮĩæłĩ
9496 72
éĩĳåįģ æķ°æį®ä¸Ńå¿ĥ
Hoh hot
" [
' (\
. ]
2 12
6 06
F rozen
F onts
Q I
T OR
T Spec
U NA
] `.
c ers
d D
d ent
f unctools
f uel
i mplemented
i ris
p ve
r split
r ates
s parsity
t n
t atus
x mp
y ond
Ð ±
æ °
é ĸ
or i
Ġt ap
al phabet
al ipay
sel ves
Ġi x
Ġc Pickle
Ġp m
as hes
as gi
Ġin direct
Ġs us
un initialized
un spent
Ġb d
Ġb rightness
ot hed
pt ype
ma ble
ĠT r
et String
qu otes
Ġcon sistency
ĠS ql
Ġth umbnail
per p
ist ries
ĠF S
out path
form ula
ĠP RE
ĠP attern
ĠD AG
red uc
Ġtest vol
Ġv id
Ġv ary
Ġpro cedure
om i
ĠM SE
ĠM erge
ho ods
code d
ĠB id
ĠB ody
ph ysics
ĠW rit
iv o
og rams
32 1
32 3
Ġbo osted
Ġcomp uter
Ġpy td
AL PH
ĠEx tra
lat t
no op
Ġend og
16 9
GE O
Ġreg isters
ict ure
Ġenum eration
Bu iltin
He ze
mt u
Al loc
ĠFor ward
Sh ijia
Node Container
ĠDe velopers
Ġdown loader
press Route
Sub net
Block Header
Ġdirect ive
na ive
Per manent
tom ic
Output s
Ġdebug ger
PL ACE
Ġvi m
DIT ION
freq s
Ġinstall ation
äº §
Ġtrack s
ĠTe chno
ĠAc cept
Tri al
writ able
svn test
car lo
Ġ? ,
ĠRo le
BY IST
organ izations
ĠCL USTER
SPE ED
xb rl
Ġvisual ize
OFF SET
ĠStruct ure
Ġpeak s
ãģĹ ãģ¦
inh ib
Leg end
week day
ç½ĳ æł¼
Vis itor
DATAB ASES
lips oid
DOC UMENT
ĠDIS CL
Estim ator
DRI VE
ĠND Array
PREC ATED
è° ĥ
Shijia zhuang
2 17
6 29
C SI
E mp
G aussian
M oney
O V
W T
\ ':
] '},
b rightness
e u
e es
e ml
e lec
h ierarchy
p laces
r h
{ :
| |
} [
Ã Ń
é ķ
se quential
at an
sel ess
Ġi bs
it ter
Ġp ure
Ġs ound
pe ction
Ġm b
co don
fi ve
Ġw raps
", '
__ '):
ver ged
Ġe ma
(" __
ĠS ite
ĠS ans
vi al
Ġth ink
Ġst udy
sc oring
Ġr h
ĠP AGE
ĠĠĠĠĠĠĠĠĠĠĠĠĠĠĠĠĠĠĠĠĠĠĠĠĠĠĠĠĠĠĠĠ ĠĠĠĠĠĠĠĠĠĠĠĠĠĠĠĠĠĠĠĠĠĠĠĠĠĠĠĠĠĠ
om l
Ġma chines
model ing
ĠN AT
IN P
ĠB ert
ĠB US
). ',
Ġun specified
AT L
ĠG R
ĠW rap
ĠW ater
Ġch allenge
Ġal erts
77 6
mit s
Ġtime frame
Ġ4 1
LE METRY
RE GISTRY
Res hape
64 8
]] ))
module criteria
Input s
dis position
Ġpass phrase
RO UP
Set ter
Model Serializer
raw l
RI ES
Me asure
pack ets
ãģ ĵ
Ġag ency
rel path
ins pection
Bo ot
bit wise
82 1
Or Op
sk etch
af fe
ĠTime Series
ĠCh ild
builder s
EXT EN
è¯ ´
83 02
UD P
Ġassoci ation
Ġident ified
Ġseed s
BO UND
198 4
198 7
cr m
Ġconstruct ed
Ġplan es
Ġappro ach
Red is
Ġedit or
Ġinv oked
IST ER
1234 56789
ĠPri ce
integr ations
tern atively
ARG IN
ĠWork flow
Ġrect s
suit Track
ierarch ical
Ġmis match
Ma oming
Many ToManyField
âĶĢâĶĢâĶĢâĶĢâĶĢâĶĢâĶĢâĶĢ âĶĢâĶĢâĶĢâĶĢâĶĢâĶĢâĶĢâĶĢ
Nan ch
Ratio By
Ġtk inter
Ġemul ator
ĠINT ERRU
ĠGit Hub
èĢ ħ
ì§ Ģ
symp ify
ROUT ER
mpol ine
) (\
3 99
B ao
B usiness
F irewall
H ot
H uang
L ambda
O VER
T IC
[ ::
b alancing
h ack
h ind
j e
k off
l ut
l ng
Ã ¼
Ð ŀ
en co
sel y
Ġ" :"
Ġf ingerprint
ce an
Ġb ib
Ġfor get
int ensity
ma v
con sistency
ĠT el
ke w
qu ad
ext ent
od o
ĠS oft
ĠS can
ĠS cale
ĠA gg
ĠA mazon
ĠC ent
ĠC annot
pro vided
per sistent
Ġg q
Ġl uminance
Ġh ole
ject ories
Ġco vered
Ġco okies
ĠF SM
log level
ren dered
Ġbe v
ĠL ock
ens us
ĠE ner
ĠM IS
ĠN ext
ĠB cl
Ġmodel Xbrl
:: ::
ĠG o
read Lines
ĠW N
ĠU sually
pect ive
ll vm
comp uter
RE E
Ġ5 29
64 9
11 9
be low
Id x
UT ION
(( -
dis c
List s
sum s
tin koff
cy cles
ĠAn notation
18 8
amp aign
ĠK w
temp orary
temp eratures
22 1
shot s
Ġval or
pub lication
HO W
ĠPro vider
Ġvar name
Ġ12 34
loy er
loy ee
75 18
Ġpol ler
36 3
commit ted
UP LOAD
Man agement
]+ "
Trans formation
67 28
mag net
197 9
Cl asses
aut omatic
rece ipt
Ġremo val
inst itution
Ġchain er
Ġinv ite
Fore st
flatten ed
ĠDi rect
Ġprop ag
FIL ENAME
ĠPRO FITS
ĠIter ate
ĠNO QA
Ġrad ial
ĠDO WN
tw isted
Ġll vm
AX IS
spe ll
mis match
Ġmultip ly
Ġpur ge
ISE D
sat is
Ġturn ed
xim ation
ĠMin imum
equ iv
Serial Number
Ġpie ces
calcul ator
aver ager
â£¿â£¿ â£¿â£¿
uge ctr
ĠDist ance
ĠTemp orary
Ġho pe
adr atic
Trading Day
Ġparticip ant
Nested Name
ĠNEG LIGEN
ĬĤ çĤ¹
ĠNEGLIGEN CE
) [:,
5 04
A W
B l
C UDA
E qu
F i
J in
J ava
L ower
P acific
Q TR
U MP
V als
] ._
] ","\
_ /
b as
d rag
e in
p M
t j
t abs
x sd
} ])
Ġ XXXXXXXXXXXXXXXX
Ġ éĩĳåįģæķ°æį®ä¸Ńå¿ĥ
en arios
de scriptions
al di
ar a
Ġi ma
Ġi os
Ġ" &
Ġp al
Ġp and
Ġn v
Ġn tc
Ġs af
Ġa ffected
un s
Ġb nd
ra pping
get attribute
str y
ĠT D
__ ):
__ ',
am t
ab i
Ġe gg
ĠC HE
ĠC ross
") ])
Ġ* /
ren derer
ĠL ight
time line
om an
Ġpar s
init iate
size of
lic ity
code review
Ġ3 02
Ġun available
qual ified
ĠR ate
ĠG ROUP
stat istic
======== ===
Ġpre cedence
Ġtime line
gs napshot
for get
Ġsub mitted
Ġj np
11 3
57 8
14 0
AS C
56 8
Ġnumber Of
dis assembly
16 5
Ġurl encode
De serialize
LO T
Ch ao
CH ED
CO PY
find ings
pol ynomial
Ġpri ces
number Of
At temp
Request Id
admin s
ĠIN DIRECT
Pre Trained
Address Value
Ġstream ing
ĠRes Net
86159 64
86159 17
ĠAdd ing
commit s
EL R
PRO C
PRO XY
59 2
Ġpost fix
37 0
Ġph ysical
uda h
cd n
ä» »
Label ing
bb f
Ġet h
extract ors
Ġcalcul ating
âĢ ¢
ĠInter pol
product s
FOR CE
comm unicate
poly axon
vari ed
sens us
Settings Model
Ġ{}) '.
Stream Handler
æī ¾
Ġalign ed
Ġinject ion
Av ailability
BER T
Ġll db
NAMES PACE
REQUEST S
Ġdetermin istic
scatter geo
Connect or
Connect ions
ä¹ ĺ
Lin yi
ĠHel p
Ġbind ing
Ġboot strap
trip le
Ġeas ily
ĠQuantum Register
ĠResult s
åĲĪ çº¦
Div ision
Anal ysis
ĠDep endency
Currency ID
ĠFin ite
district s
Fl ux
Ġinstrument s
transl ations
Ġbecome s
ç±» åŀĭ
ĠDES CRIPT
esp ans
Ġsuggest ed
ĠFail ure
Ġautog enerated
01234 56789
Prec ision
PendingDeletionRequest Model
' /
+ --------
- ',
2 65
B F
B us
B SD
F lex
G OO
K ak
L and
M i
P M
S fx
T HE
b ob
d path
f names
f atal
g ro
g os
h ive
t une
u y
u ing
v od
y ester
Ġ ul
er ator
Ġt c
en hance
de cess
Ġc w
Ġc he
Ġ" ../
Ġf a
Ġp lat
Ġre generated
pe ar
Ġa ver
Ġm z
Ġm ot
ex us
Ġb an
Ġ( .
et ing
Ġ""" [
Ġ0 9
to gether
ĠS parse
ĠS ERV
ĠA A
ĠC V
ĠC lear
Ġg rowth
Ġex pl
Ġex periments
Ġl ro
us b
Ġco o
Ġres ized
ĠF ill
01 6
ren ch
add option
ĠP ush
]) ',
ĠD ocker
Ġme ssaging
ĠI MAGE
pre processor
Ġse crets
ĠE very
ĠM LP
=" -
pon sor
ĠN ing
IN ESS
Ġcl oned
ty ler
"] /
Ġout dir
vers ity
15 6
ff set
ĠV ol
ĠR obot
und les
iv ari
ĠH ole
Ġpre ference
ST IT
Ġ{} .
32 6
ĠIn tegr
Pro fit
inter cept
RE P
99 7
Data Array
ME AS
DE C
ron ic
Ġindex er
ne ar
CT RL
mi um
... ]
let cher
97 56
pl ate
28 0
Ġ6 3
oth ers
18 2
Un defined
Ġblock ing
86158 99
send rawtransaction
13 6
Ġpart ially
copy file
ĠPar ams
30 7
54 3
iss calar
24 6
du ced
TR UE
ĠCON SEQUENTIAL
Sh a
Ġqu ot
Object Base
Check ed
full match
86159 54
Ġtri p
35 8
access or
commit tee
Ġar m
ĠDE P
hidden layer
('/ ',
her ited
ĠAt temp
Ġcmd line
ĠÐ ¼
Ġstack level
Ġwant ed
gl m
distribut ions
Clo sed
è¯ ¯
ĠConfig ure
Template FormatVersion
Ġnorm als
198 9
ç» ĥ
ç» Ł
Volume Backend
align ed
hd r
pot heses
relation ships
ĠAd ds
############ #
mix ture
named tuple
ĠMet ric
Rep licas
Mark er
ĠTrain er
åľ º
å¹ ´
typ ename
Invest Unit
ĠAD V
_" +
Ġfund ing
METR ICS
Ġretain ed
Ġresidual s
Ġsan itize
mot or
ĠOff set
Fin ished
ĠArt icle
BIN ARY
Dim ension
Comm unity
ĠLib rary
ãĢĢ ãĢĢ
Ġinstanti ated
GenericResource Type
jav ascript
Squ ared
âł Ģ
ĠDISCL AI
ivari ate
VolumeBackend APIException
+ )\
A p
A ir
G ING
I MAGES
M ib
P ing
R G
U X
_ {}'.
_ '+
b ust
h ut
m B
m usic
n ment
p asses
s ac
v ault
y min
y max
æ º
ç µ
ì Ĭ
ł éĻ¤
ar ct
ar ms
sel ines
an im
he ssian
it a
Ġc inder
Ġ" ").
Ġf f
Ġf m
Ġf lo
Ġf ire
Ġre construct
Ġre actor
Ġin complete
Ġin sensitive
Ġa w
Ġa pache
Ġb gp
ch in
um able
Ġw erkzeug
(' >
di vergence
con current
str ategies
00 8
'] /
Ġ- (
ĠA le
Ġst ress
Ġg ui
Ġg rab
Ġh du
Ġh mac
Ġres net
ĠF UN
Re c
=' {}
==== ==
ob er
ĠP rep
ĠI ts
if ace
ĠM AC
ĠM AV
Ġx b
=" $(
Ġhe artbeat
ĠN B
ĠB LOB
"] }
15 4
ph ases
86 8
ĠR ank
ĠW AY
ĠRe presents
77 8
pa ired
query string
mat ics
Ġj mp
Ġcheck er
the se
sum maries
De zhou
Model Admin
ĠJ ust
17 3
17 4
ãģ Ĩ
rap pe
24 0
08 08
umber jack
ĠIN ST
Ġ12 7
Ġhost apd
82 9
ãĤ ¤
report ed
lip se
Ġweb driver
Ġskip ping
Ðµ Ð¼
ĠÐ ·
AA A
âĢ ĵ
Ġrece iver
accept ed
depth wise
Ġshort er
HTTP Response
colors rc
comb o
AND ARD
ĠMib Identifier
firm ware
note book
ĠId entity
workflow s
ĠRed irect
861576 7
pkg dir
ĠPO OL
SK ILL
stub s
Ġmix ture
å· ²
Security PolicyRule
Find ings
ĠDA MAGE
ĠRet rieve
ãģĹ ãģ¾ãģĻ
Ġplaceholder s
Detection Config
STK VER
STK PKG
å¢ŀ åĬł
ĠJava Script
datas ource
Ġcipher text
ĠTex info
:.* ",
ä¿Ŀ åŃĺ
Soft max
STA FF
ĠXi ap
COMPI LED
ĠPOS SIB
Protect ion
Ġgd al
Relation ship
ĠSERV ICES
ĠNing xia
STKPKG ID
( "").
* ="
E K
E mul
F ollow
H ong
M ut
M ore
M irror
M ARGIN
P in
R SA
S CO
\ /
c ortex
d uplicates
e le
f de
l ings
s xp
t pu
t gz
u zz
} &
ë ĵ
on nx
re covery
or ations
Ġt en
it ches
Ġ" |
Ġf ly
Ġre cv
lo ver
Ġin i
Ġs nap
pe ats
Ġb attles
Ġw w
il s
(' .',
up on
__ }
et ches
Ġ1 00000
Ġst eer
Ġg ender
Ġres ample
01 5
py c
ĠE VEN
ĠM A
ĠM ar
Ġ` _
sp l
ac ion
ĠV OC
Ġat oms
ĠU t
Ġch apters
ll c
own ed
shape d
mat ic
99 3
feren cing
Ġle ase
AN K
word list
Ġmax len
Ġconfig parser
ther net
be havior
local ctx
batch size
List Members
". /
{} ]
Ġmin us
Ġmin imize
token ized
CO LL
ci an
find ing
86158 07
13 1
13 8
Ġpart ner
Base Handler
24 5
stream lit
Ġqu er
Comp ound
fra structure
stop ped
åĪ «
install er
Sequence List
ĠVersion Meta
convert ed
Ð¸ Ð¼
ĠCal led
ĠLo ader
åħ ¬
Pos args
ee e
SD K
Ġremo ves
'^ (?
Ġfree ze
font size
Ġvirtual env
Packet Metadata
è® ¤
ĠAd ded
ĠInit ializer
ĠLe vel
Ġ40 96
åŃ ¦
integr al
backup s
------------------------ ----
ĠReg ion
Ġgu aranteed
åľ °
Ġship ping
ĠDocument Cloud
Could n
Ġstrip ped
Connect ed
ĠOUT PUT
Ġrecurs ively
heap base
ĠDummy Request
Su ite
ADDR ESS
Ġemul ate
ĠStop Iteration
caps ulation
Ġanno unce
Ġreflect ed
éĹ® é¢ĺ
ĠSU CH
FeatureNew Kwargs
ELE MENT
EXCEPT ION
sus pend
ĠPRI MARY
Prom o
Ġcq dma
ĠGrad ient
ĠBUS INESS
STIT UTE
InvestUnit ID
ĠADV ISED
" $
* "
+ ="
C PE
C ytoCC
F ive
H UB
K IT
M ux
P at
S aved
X C
X iang
Y es
b ay
b be
g love
k n
l z
o a
r rest
v env
w est
æ »
ì ķ
re main
re aded
Ġt ex
Ġt ts
Ġt weets
ar ly
Ġ" ..
Ġin file
Ġm i
ate lemetry
Ġb ump
ad der
ul b
ri ft
ma j
set Label
ect l
ter ance
iz ard
th ough
ap se
)) /
Ġu gettext
ĠS te
ĠS pike
ĠC rystal
ime s
Ġth rown
Ġh its
In flated
Ġco uple
Ġ_ ):
Re ward
=' --
Ġr ing
im write
]) /
]) ;
ĠĠĠĠĠĠĠĠĠĠĠĠĠĠĠĠĠĠĠĠĠĠĠĠĠĠĠĠĠĠĠĠ ĠĠĠĠĠĠĠĠĠĠĠĠĠĠĠĠĠĠĠĠĠĠĠĠĠĠĠĠĠĠĠĠĠĠĠ
test X
Ġv x
Ġ) (
pre ference
Ġse j
ĠM L
date d
mo s
Ġy es
Ġy label
assert Less
ĠN orm
dd f
Ġ3 60
Ġdi vided
fa ir
ww n
ĠH ARKinterpolator
by pass
zh i
vent ions
ari a
ari ko
we ak
base dir
ĠIn struction
ĠIn verted
Ġnew d
'' .
Ġid le
api Key
Ġle d
reg istered
Ġj ax
ix network
14 9
Ġtf d
tra it
Ġurl patterns
Ch ifeng
play ing
ĠSe lection
Add Path
33 3
cre ater
Ġpa ired
86158 2
rad ians
54 2
54 6
AC ES
Ob server
graph ql
Up per
ATE LEMETRY
position al
bot s
Object Identity
Ġnext line
AG ENT
pk ts
({ },
dec ision
Ġnetwork x
95 21
medi ator
ĠDE VICE
æķ° éĩı
Ġaccess ible
Attribute Accessor
ni atelemetry
alle ts
"> <
Ġblob s
å® Į
198 3
ĠEX EMPL
Ġgoogle clouds
Ġut c
EC ASE
lap sed
pair wise
WE VER
ĠGroup ing
Temp erature
pat ience
hyper visor
Hist ogram
ĠBe cause
Find ing
Bid T
Ġnumer ator
ah n
ĠCluster Op
ANNOT ATE
ĠStream lit
ĠLayer Helper
Ġwa velength
fh ir
Ġdri ll
Ġ65 535
sto search
ancest ors
IGNOR ECASE
ĠCA USED
Assert ionError
ĠSUB STITUTE
ĠCID R
CURE MENT
denom inator
=-=- =-=-
DEP LOY
PrivateEndpoint Connection
NI ATELEMETRY
ĠRep lica
Routing Protocol
ĠElastic search
ĠHE AD
MULT ILINE
VERS IONS
ĠSTAT US
è¯´ æĺİ
ĠINTERRU PTION
Kak ariko
ĠPOSSIB ILITY
ĠEXEMPL ARY
Ġgoogleclouds dk
E FFECT
F airy
M ount
R PN
S WITCH
U U
_ ]['
a mpling
c ial
c ds
d amode
d arwin
f light
f wd
p C
p f
p value
p du
p ressed
s po
s lave
v x
v min
w p
w ap
å Ļ
Ġ 86
Ġ XX
Ġ ())
in ical
in complete
re raise
or a
Ġt abs
Ġt tl
me meber
me ssaging
he art
Ġ' '),
Ġf ft
Ġre ferred
Ġre servations
mp eg
Ġo mit
Ġa ds
Ġd amode
': "
get Attribute
up bit
ĠT RAN
__ `
)) ;
Ġcon form
ĠA sc
ĠC op
vi es
ĠF ields
Ġ_ )
Ġ* (
ow ski
app lications
]) *
Ġwith draw
Ġv c
param set
ĠM B
ĠM es
ĠM utable
ĠM ESSAGE
ĠM irror
ĠM PLS
assert List
Ġhe ssian
Ġthis instr
Ġ3 600
Con verts
AT URE
:// %
ger rit
ann y
EN VIRONMENT
ard ware
ress or
** (-
sub Header
ĠIn sert
ib bs
ĠCon trib
ĠCon tains
RE VIEW
Res p
ĠEx pression
53 05
14 6
lat in
var name
no Posargs
Ġinter sect
-------------------------------- --------------------------------
batch norm
order ids
Ġfe el
28 8
Get Text
18 1
}) "
33 39
55 5
34 7
34 8
34 9
Ġad vertised
Ġobj List
ĠK ernel
98 9
90 3
part icle
fore ver
EX TRA
66 7
cc xt
Ġnon linearity
web socket
Ġpol ls
virtual ization
ha ust
RAN GE
Ð° ÑĢ
App liance
Ġkeep dim
Ġ16 0
From File
ĠTHE ORY
00000000 0000000
fin ity
Ġcomple t
Ð¸ Ð½
Ġcommit s
Ġdec ision
sage maker
final ized
ĠOn ce
CM eta
åħ ·
Ġpatch set
NE G
MT P
ANT S
bert ura
ĠPRO CUREMENT
DEF IN
ĠhwRsvpTe If
appro ve
appro ved
Ġplay ing
Document ation
Ġlet ters
ĠPub lish
ica Py
ja co
ĠSup er
stand alone
ĠMy SQL
foot note
Named TemporaryFile
ĠContent Type
GRA Y
expi re
Stat istic
Owner Id
éĶ Ļ
Ġtransl ations
launch er
ĠHO WEVER
ĠINCIDENT AL
elastic search
persist ence
ĠSummary Writer
Ġshif ted
Analy zer
Ġmonkey patch
pseudonym izable
Pauli Z
Tok ens
Vol tage
PRIV ATE
Ġchip config
ĠGOO DS
uby te
Den ied
Fun cs
ĠRout e
ĠMIS SING
gos pel
assertList Equal
( ')
) ']
) `.
/ >
= <
? :
A nt
F IND
G ran
H ow
H angzhou
L igand
M otor
N T
S ong
T IT
T ransactions
W allet
Y ES
a head
c name
d uring
e quivalent
f info
g ang
m nt
n est
s oftware
t tf
v y
v rf
w ire
y t
} ):
st ories
Ġt ornado
de vel
de serializer
al ia
ar o
ar ser
Ġi l
Ġc g
Ġc ss
ut ype
Ġin tr
Ġs coring
li k
li ary
', ),
un supported
ot ou
get Token
is olated
(' ^
di visions
ab ling
)) )).
(" ../
ĠS ig
Ġg cpu
Ġh r
Ġde tailed
In et
In to
us able
ĠF ont
Re fs
sh arded
sh adow
==== =
Ġr ating
im ension
ĠD ump
ĠD istribution
pre processed
Ġse mantic
Ġx c
ER T
Ġfile Name
ĠR ED
ĠG lyph
ĠU S
iv y
Ġch r
ĠRe fer
ĠH ub
OR IZ
group id
Ġ{} ':
Ġ4 3
Ġ4 6
sub topic
sub parsers
Ġ[] ))
ark net
99 5
Data Source
AL I
ail gun
DE TAIL
AS Y
wait Key
row se
Se ed
List Item
stri ctions
De leted
20 5
Ġ] ),
CO UN
Ġq f
Ġq t
ĠĠĠĠĠĠĠĠĠĠ čĊ
sv o
Ġpri me
Ġte chn
ĠPar pU
Ġ8 00
ĠUn able
54 4
Log s
color axis
su ario
gen otype
std dev
EX PI
conf usion
66 25
Ġcolor scale
Ġsession s
Ġlib s
gre at
report er
Ġar cs
Tra jectory
Sub command
ĠGener ates
ĠName Error
Reg istration
39 2
ä» £
PL ATFORM
Ġps i
ĠFile s
vol atile
.* ',
Init ialized
Ġassign ments
Ġident ifies
Ġdraw ing
BO SE
BO DY
Account s
ĠBo mb
hwRsvpTe Nbr
Ġ"{ {
writ ing
Part icle
Mon th
HOST NAME
Linear Regression
Rep ly
cons ider
Ġresol ver
Common Token
Zh ong
Ġes p
Ġda code
SN I
Mac Address
assertAll Equal
equ ation
irection al
Ġadjust ed
Ġvisual ization
ĠNormal Permanent
Ġce il
ĠSign ature
Ġpr incipal
BBox Coords
Ġexpi red
recurs ion
REQUI RE
Construct or
Ġshe ar
oll ar
LAY ERS
ĠDES C
Redu ce
vea BBoxCoords
Dif ferent
æł· æľ¬
è®¾ ç½®
Ġoh lcv
ĠAle mbic
åĻ ¨
ĠNormalPermanent Alert
' -
' ;
) }')
2 16
> ``
A re
A pache
B A
C Z
C ORS
D er
D id
F a
H F
L T
P AY
Q Rect
T W
T RI
T ls
\ -
b ip
d ust
f ledge
i able
m illiseconds
n u
n op
p ap
p ci
w agtail
x er
y er
y ticks
ç ľ
ì Īĺ
re peated
de sired
an onym
Ġi be
Ġf out
Ġf irm
Ġf ocus
ct m
Ġp et
Ġn partitions
lo re
Ġs itk
Ġa data
id p
id ade
Ġ# '
Ġ# ###
ot ong
ul ong
Ġ( ...)
la de
ma e
arg Info
00 9
), )
ab et
Ġe ager
from hex
pro ced
Ġ: ].
Re ferences
Ġr b
ĠP UB
ĠP erson
ĠD ropout
ĠL ROPoller
test net
pre ted
ĠM PI
ER E
init ialization
url join
sp i
ĠB ATCH
os ome
Ġk mer
ĠV ert
ĠG ra
stat uses
Ġal phabet
Ġro bust
AR esource
join ed
]] ])
default dict
block txn
ak ed
Co in
fil ing
rc Params
List Proxy
Ch i
Ġdate util
20 3
20 9
func form
98 0
13 7
Ġexp iry
ache s
ä¸ ¤
Ġcor r
fore st
LI GHT
ĠIN FO
19 86
cho red
Index ed
rank ing
real ized
Qu jing
Qu anzhou
CE L
Ġref s
QU OT
URL CONF
Ġconvert ing
]+ ',
Ġdirect ives
ĠCh rome
ĠAt tr
Reg ular
Ġaut om
æľ ª
Ġextract or
Ġet ag
ĠComp utes
ground truth
88 8
Invalid Argument
assign ee
rb ac
tool bar
vector ize
Mo dified
tab ular
ametri c
Ġcontrol led
Ref resh
spect rum
Ġnorm ally
ĠCO M
ĠCO DE
Http Request
Ip Address
Socket Address
Ġå ¦Ĥ
Ġquant ile
ado op
/" +
ĠMan aged
eb p
BY TE
Rest art
[^ >
[^ \
Ġaccording ly
thresh olds
Ba otou
Dest roy
RUN NING
Ñĭ Ð¹
Ġ"* "
Ġred undant
Ġear lier
Ġcent ers
anc ial
priv acy
ĠMon itor
Ġconfirm ation
éĶ ģ
Ġthresh olds
ĠPos ition
cipher text
ä¿® æĶ¹
Typed Equals
ç»ĵ æŀľ
Cross Entropy
Collect or
Ste ps
bon ds
ĠLE FT
Ġmar shal
ĠSk etch
IMP ORT
polymorph ic
SNA PSHOT
ĠFra ction
STRU CT
preads heet
ĠDISCLAI MED
Ġquer ied
/ {}".
B S
G OR
G PT
G ene
I o
I AM
J ust
L int
P CA
U int
U AL
V ers
` -
b at
c ron
f List
f rm
l ator
m obj
p z
r ings
v hd
y td
Ø §
Ġ ancestor
Ġt ro
Ġt rading
en force
an om
an za
as ource
Ġre pet
Ġo mega
ex clusive
Ġd ur
Ġb m
Ġb q
Ġw sp
ss p
la cian
up loaded
th in
ass oc
am mal
(" !
Ġst rain
Ġex pose
Ġde m
ist ance
Re presentation
==== ===
ĠP M
ĠD ie
ĠL RO
class ifiers
Ġv rf
ĠI BM
Ġpro posed
import lib
lab les
assert TypedEquals
load txt
ĠB undle
ac s
15 1
Con trast
Ġresult Type
ud p
Ġsh ards
ST ACK
mpl ug
RE PO
Ġpy geoprocessing
AL CHE
11 00
Ġla m
block ed
Ġapp le
56 5
tra verse
ne cessary
Se gments
connect ome
Ġdf s
Ġq tr
86158 94
Ġpri mitive
Ġlocal e
ĠPy gments
ĠFor ce
Sh ader
Sh are
Ġtemp oral
fl x
mod ulus
35 9
serv ables
Ġdown stream
dest abs
Ġcustom ize
ĠZ one
Ġrep lacing
Hand an
Ġloc ate
Tag Buffer
Ġcomple tion
short est
Ġev t
End Of
Ġcommit ter
Ġsm allest
player config
track s
Ð¾Ð º
tool box
PAR AMS
Ġder ivation
à¦ ¾
={} )
CI E
ĠSpec ial
Ġdump s
READ Y
ĠNaN s
ident ifiers
Qt Gui
syn th
ĠClo se
sn ake
Ġway s
named Values
ĠNe ither
diag nostic
aff inity
Ġcons ists
Jo int
hyper params
hyper parameters
Ġestim ation
Lib virt
Ð» Ð¸
WORK ER
cont ig
å· ¥
Ġpoly gons
Cart esian
ĠBu cket
equ ipment
adj ac
alloc ated
Bound ing
Ġcent ral
ĠBatch Norm
Ġhint s
Ġrespon sible
Ġspe ll
water mark
Ġmaint enance
Ġanaly ze
COMPLE TED
hal o
Ġexpi re
Ġcas lib
ä¿® å¤į
ĠMa ze
Disable Alert
Configure TimeSet
Ġcau sed
ëĭ ¤
ĠNotFound Error
Ġhal o
éĽ Ĩ
Amb ient
ĠGEN ER
ĠINTE GER
Ġfav or
Restricted ClassType
MIDDLE WARE
949672 95
ĠKw argInfo
satis fied
Ġntc HW
Ġaver aging
creater awtransaction
damode s
ĠAsc ension
GetText Property
ALCHE MY
) }")
0 84
3 000
4 99
5 02
5 50
> {
? [
A ugment
A zure
B LE
B BC
C NOT
F IC
F ALSE
K ernel
O G
R y
T ang
V oice
` ]
f ro
f path
o ol
o of
o led
p alette
s ms
u ence
u hai
æ Ħ
ĺ ¤
re voke
en kins
al Code
Ġi ce
ro te
ro oms
Ġf y
Ġp ic
as df
lo ut
Ġs x
Ġs oc
pe g
co d
co efficient
Ġd h
Ġb ird
fi len
ul p
() ._
Ġw t
Ġw ar
Ġw ide
get data
get Quest
int ain
po ssibly
Ġcon test
to Pri
ĠS udah
ĠA F
ĠA pop
ĠA RM
ĠA frica
ĠC apt
ĠC PP
Ġimport ance
Ġex tern
able Error
Ġh ence
Re v
fig ures
ĠI sl
pre serve
Ġse quential
ĠM ET
ag gs
ag ree
Ġprint s
Ġ3 8
Ġnum ba
Con cat
min inode
ff f
ĠV e
ĠV Group
own ers
SE PAR
cor rection
Ġser ved
RE MOTE
Ġpy g
do ub
ix Vector
Ġdis cuss
53 16
AS CII
ome tries
Ġmin val
Ġmin ibatch
Ġvalid ations
Ġfe es
Par adox
ĠJ oh
20 7
Ġunder stand
pack ed
device Id
34 2
Ġad v
86158 84
96 1
DI FF
sign rawtransaction
DO CKER
down loaded
rel x
UL C
UL ES
rad iation
ä¸ ī
30 3
AC CEPT
Ġ-------- -
close st
24 2
graph ics
CON TEXT
sol utions
ĠPro perties
istr ative
MO DI
'} ],
Out With
contrib s
gre ed
fit ting
Comp iled
eng lish
fra gments
UB LE
Pri ces
Count s
38 7
Ġdec lared
88 7
Det ector
Det ermin
è¯ ķ
sens ors
ĠSub scription
ĠAs set
ĠIndex Ops
ĠLog in
bi ased
Tri ckle
ĠsetUp Class
ĠCur ve
Build ing
Select ed
ĠClass ifier
Ġ'{} .
cancel led
Ġcar ry
Ġlat itude
Ġrespect ive
stand ardi
coordin ator
Authentication Middleware
Rights SnapshotContentModel
Ġsimp lify
æĢ ģ
Ġsn ake
Xi An
Ġrand int
ĠApi TypeError
Ġcrypt ographic
LABEL S
ĠMn Command
2222 2222
ĠTag s
æĶ ¯
Fix ture
confirm ations
hwRsvpTeSender Adspec
central widget
Effekseer Renderer
æ¯ Ķ
Ġdiv mod
ĠRES ULT
letter paper
numer ator
.+ ?
hdf s
ĠSim ilar
######################################################################## ##
Affine Expression
Ta izhou
Stub OutWith
Zha otong
æ¡ £
Liao cheng
alax y
COLUM N
ĠEXIST S
ĠTr uth
enco dings
ĠCHE CK
StubOutWith Mock
) %
) =
? ')
B ulk
D istributed
H tml
J am
M obile
N M
P en
P IC
S rc
S creen
W ASM
X in
] ')]
` """
b un
b are
e rer
f ang
h ss
h om
i ocb
j j
j query
k now
l te
m int
m ann
r ub
r ps
r sa
r ses
s ay
s info
t ransp
t unnel
v h
v df
w ang
w arm
w pkh
y ing
} .')
Ã ³
Ġ 9999
Ġ ortho
on to
re defined
at o
de re
al ph
al ks
it ations
ro ve
Ġp list
Ġp ane
Ġn u
Ġs ir
ing Fan
Ġb ids
ch mod
Ġ# .
Ġw ent
Ġ( ((
am big
qu iz
Ġe ig
ĠS F
ĠS pect
ĠC I
ic ious
Ġst em
data path
Ġh ar
Ġ: "
In str
ist d
Ġco res
path name
01 1
01 8
Re view
Ġr m
ĠP hoto
ĠĠĠĠĠĠĠĠĠĠĠĠĠĠĠĠĠĠĠĠĠĠĠĠĠĠĠĠĠĠĠĠ ĠĠĠĠĠĠĠĠĠĠĠĠĠĠĠĠĠĠĠĠĠĠĠĠĠĠĠĠ
ĠL n
Ġv el
if rame
col lapse
02 8
ĠN a
Ġget text
"] }')
Ġk c
Con s
ĠR T
ĠG ive
ĠG ateway
Ġint f
Ġsh arded
Ġsh rink
sen try
run ed
32 7
Ġ} ],
pa ren
ump rod
ib ot
Ġsub scribe
99 2
Ġmax val
Ġla p
Ġcan onical
Ġend orse
Ġinter cept
Input Set
clo sing
trans itions
cy an
De v
inal ity
CO D
so li
so lete
34 3
86158 08
Ġtra des
Ġlin ux
13 9
UN E
30 6
Ġass uming
Ġqu ad
cc up
has is
enc er
direct ed
'} ]
lr u
RAN DOM
Size Constraint
PRO P
For bidden
Dis patch
85 8
-% (
Ġcalcul ations
ĠInter national
Box List
NOT IFICATION
Di gest
Mo zilla
aut odoc
ĠPer missions
ĠEX EC
ĠOb servation
Ġlock s
ATT ACH
CONFIG URATION
ili ary
Part s
ĠClo sed
Cre ator
861590 7
Ġcost s
Ġoccur rence
ĠRed is
Ġptr x
âķłâŀ© â
TRAN SACTION
Ġcut out
XXXXXXXXXXXXXXXX XXX
Ġmonth s
ĠMark ov
Component s
æĸĩ æ¡£
ĠPage Control
Ġspect rum
808 3
ĠPY THON
Ġescape d
COMP R
Note book
CHANGE D
ĠSpark Session
Capability Statement
Predict ed
Spe ll
^{ -
Ġbt n
ĠâĢ ĺ
="" ):
Ġmention ed
toolchain s
Ġve get
WEB APP
bel ongs
è¶ ³
PRES ENT
HY PERF
å½ĵ åīį
toPri mative
greed y
HYPERF LEX
5 11
5 23
= \"
> }
? ://
A Interface
A udio
G ood
H R
I val
I mg
L ed
L if
L kas
M AT
N ixVector
R W
R ational
R obot
T AB
T ermin
V C
X K
X L
\ )
_ ['
` "
b ur
d ce
d antic
g df
g hi
o pe
p ca
r nd
s np
x F
½ Ķ
ĉ ĠĠĠĠ
Ġ unt
Ġ energies
in planes
or chestr
Ġt or
al gorithms
ar cs
ar crole
le e
ro ad
Ġ" ;
Ġf q
Ġp rune
ut ilization
ur ity
Ġre positories
Ġn lp
lo ud
Ġm otion
un ig
un available
Ġd up
id om
ad m
ul ates
get transaction
int c
(' "',
con gru
ĠT er
__ =
set Geometry
Ġcon versation
ĠS R
ĠS cript
ĠS pace
ĠA rea
#### #
Ġst ake
Ġh ive
Ġ: ])
ĠF ilename
Ġr g
ĠP ut
ĠD L
Ġme s
ĠL N
ĠL and
time steps
Ġv y
ĠI mplementation
import ances
Ġse mi
ĠM od
ĠM ail
text Buffer
ms p
sp ans
ĠB L
ĠB oth
ĠB TC
"] +
Ġob js
Ġun changed
Ġun iversal
Con firm
ĠR outer
Ġwh atever
ĠW IN
ĠU int
ĠRe cipe
index ing
([ \
sub projects
bu mp
pa que
lit tle
LE AR
Pro cesses
Ġ5 4
Ġj av
ak a
UT DOWN
lat ency
Ġtf ds
local ized
Ġz oo
ert urb
97 9
Ġcode c
ĠJ an
cent ers
18 5
Add ing
}) ".
open ssl
55 9
Ġad am
Ġgener ators
Po se
ĠK ubernetes
âķ ļ
)] ),
Ġread only
Ġover flow
gen cy
Ġport folio
Object Factory
Pre sent
mer cial
Return ing
sup ply
RAN CH
sm art
Ġview er
em u
"} },
Ġweb socket
Ġbot tleneck
Char acter
Ġkeep ing
MENT ION
æľ Ī
bb bb
Ġtick ers
Ġlong itude
Scal ing
Sp line
Ġgt m
FL ASH
ai lover
Ġbyte order
cr ash
MI ME
simple filter
Ġ') '
wik ibot
GR APH
Pl ug
ĠInput s
86157 97
ao a
Eval uate
fast a
monitor ing
Zh uhai
Ġcapt cha
mob ilenet
ĠAuto Rest
person al
micro second
Segment ation
ĠGe ometry
Cor rect
ĠFeature New
ĠSw agger
']]] ]:
']]] ]):
pur pose
å¸ Ĥ
mime types
ĠFore ignKey
ĠÐ½ Ðµ
dut host
éĩį æĸ°
LAY ER
synthe tic
simp lify
THRES HOLD
ĠhwRsvpTeResv Fwd
MAPP ING
123456 78
Authentic ated
Ġrecur se
fz l
INTE GER
ĠLoD Tensor
autog rad
UNA VAILABLE
Hong he
Ġcomplet ely
TIT LE
Ġibe is
, _
= $
A xes
B eta
C inder
F air
F ade
G lyph
K G
L H
M gr
P ART
T s
T er
a way
g as
g ens
i ef
m ort
r ms
s ale
t arg
t norm
v v
w ich
w igner
z w
£ ¼
æ Ĵ
è ī
ê ³
at ur
at ypes
st rain
Ġ= "
Ġt pl
Ġt cp
de velopers
al ker
al location
al ities
al ternate
ar ial
Ġ' ).
Ġ" ("
as ser
Ġre distribute
Ġn aming
lo ops
Ġin compatible
Ġin ventory
Ġin finite
Ġs d
Ġs f
Ġs xp
Ġa f
un quote
Ġd j
Ġb are
int ers
__ "
Ġ[ ["
ap k
), ))
Ġ""" <
ab ber
ab lished
res ized
od m
from timestamp
Ġst roke
Ġex ceeds
Ġh m
us u
add Print
ĠP ER
ĠD id
Ġv cs
ĠO racle
ĠM i
lab s
unt u
ip ping
col late
sp c
ĠN AME
ir p
Ġ3 9
Ġun ary
86 7
ĠV is
ĠR ender
ĠG en
ĠG amma
ĠG auge
Ġlog o
ĠRe gex
ĠH ook
Ġtime step
sub scribers
ca ves
pi a
comp utation
Ġcomp utes
Ġsub scribed
Data Generator
Ġj ava
Ġcur rencies
iter tools
ak s
56 2
56 9
Ġac cur
... '
{} "
select ions
Get TypeId
norm als
CO IN
pop en
cre ating
86158 30
ãģ į
Ġconnect or
ĠConstraint s
Ġexp lain
Ġexp ensive
22 7
scope Id
nap oleon
Ġover written
Ġlocal host
Inter Pro
Ġscal ars
Message Types
25 8
Ġmark ers
edit able
Or dos
'} }
'} ))
86159 34
86159 30
IP R
Ġtri ed
dev s
ĠWe ight
ĠAl ways
ĠCheck ing
37 3
Ġreport ing
Output Spec
We apon
ĠBase Exception
correct ness
Device Ptr
LL C
uni Mpls
Ġ202 2
Ġ") "
balance d
Ġbit coin
INTER NAL
Ġbyte code
PR INT
}} ",
Ġoptim izers
Ġsens itivity
Ġì ł
æī ĵ
alan cers
mar ize
Ġexclude s
dp id
Ð°Ð ¹
clar ative
ĠService s
Zh ang
activ ations
ĠLabel s
ĠNetwork s
:{ },
Ġmultip lication
"]] '
BL ACK
å° Ĩ
Ġdelay ed
æ³ ¨
Deployment Extended
Ġspa wn
Ġxy z
Ġlearn er
METR IC
ĠSV G
aler ts
memo ize
lig ible
Ġtransl ated
QUE UE
Tr ader
Ġprotect ed
Ġln ser
DAY S
ìŀ Ĳ
æ¨¡ åŀĭ
åŁº éĩĳ
ĠRad io
Ġtrig gered
Yich ang
ĠGan su
Ġadjac ent
CANCE L
Ġgenes is
satur ated
Heat TemplateFormatVersion
ALPH A
MEAS URE
Jam File
) [:
+ [
3 54
5 94
6 86
A frica
C pu
C ategories
D og
E F
F W
G MT
I ma
M ID
M AR
M ultip
M aterial
N ow
N ER
O E
O m
R N
S che
S RC
T ftp
V K
\ ":
_ ]
b nd
c url
c min
d j
f ather
g age
g ml
g ts
g pg
i id
l ro
l cs
n br
o logy
q f
r src
t st
v able
w m
w andb
z fill
æ ·
ç ¿
è İ·åıĸ
è ĬĤçĤ¹
ë ¦
Ġ orm
Ġ Ñĥ
Ġ Ã©
Ġ quiet
re hash
re tention
re Polynomial
at tached
at least
er ry
Ġ= []
Ġt run
Ġt orrent
Ġt lv
en velope
al go
al bert
an on
Ġc rs
ro l
Ġ" "),
Ġre lat
Ġre search
Ġn ip
Ġa a
Ġm iss
co uld
co ustic
un ix
Ġd rag
Ġb on
Ġb le
ad y
ra ses
Ġw et
Ġ( _,
es ome
ol f
up sample
up dater
ĠT ho
ĠT MP
__ )))
set Formatter
ab la
(" '",
Ġcon struction
ĠA mb
pro filer
Ġg race
Ġl al
Ġh ub
Ġde liver
In dicator
In sight
ĠF latten
Re served
=' +',
ĠP op
Ġme ant
Ġdata model
pre vent
param type
assert Regex
02 9
Ġ` "
---------------- ---
Ġthis line
com ma
Ġprint ing
user content
ask et
Ġun ified
fa re
AT ORS
ĠW here
======== ==
Ġal tered
77 5
Ġint ensity
Ġcol lapse
Ġsh adow
SE CUR
Ġcomp aring
tx s
Ġend for
dis ks
Ġent ered
MA V
Ġmin c
Ġmin ds
Ġmin inode
Par cel
Ġ6 8
Ġ`` <
hand shake
18 4
ĠCo ord
50 3
UR CES
55 10
Ġ[" --
ĠK IT
98 76
Ġmo ves
Ġlin estyle
rel s
nt c
âķ Ķ
ĠPar ser
width s
lower case
To Int
84 4
Inter active
HE L
LI KE
ĠType d
19 1
Sh i
Ġtotal s
Ġtemp or
ãĤ ģ
Ġref lection
skip If
ĠUser Message
No ise
No Of
Tra des
For ce
ĠDE LETE
Lay ers
Ġdirect ed
CA PT
include s
Ġconv enience
Module List
WAR D
Ġcomple tions
Ġdec imals
ynam ics
Ġ[[ [
prop agate
alle li
IM G
estim ated
Ġthrough out
Ġloop back
LL V
Ġassoci ate
INTER FACE
Back ground
ĠCO UNT
Ġindic ated
lia o
SC V
ĠRE G
Normal ized
Annot ations
Ext ensions
Ġretrie ving
>` __
ĠRed istribution
Ġrad ians
MET ADATA
FIX ED
HEAD ERS
è´ ¢
break point
Ġcs r
Ġhyper parameter
Ġshot s
deployment Name
Exp licit
Ġtile s
åĮ ħ
Ġstub s
ARG S
ĠUN I
Ġconcat enate
Vert icaPy
ĠMn Pointer
Ori ginal
life cycle
Ma intenance
Success fully
Place ment
Datetime Index
IB LE
ĠDisplay String
accumul ate
FAIL URE
Ġidentify ing
Ġshe ets
ĠBar rier
Ġmk dir
Ġaffect s
ĠCond ition
EVAL U
Ġconsume d
sib ling
ĠRET URN
Ġreplic ates
ĠCalcul ates
Pet ID
PECT ED
Expect ing
uncer tainty
éķ ¿
ĠFinite Set
Ġå¦Ĥ æŀľ
SEPAR ATOR
SECUR ITY
) <
1 90
4 14
> '.
A mazon
D at
F acts
G ain
H D
K ER
P wd
S yn
T B
T ERR
W F
W AN
b illing
c args
c Name
c rf
c ands
g uan
h ort
l cd
m ad
n h
p and
q req
u func
x FFFF
y l
¸ °
Ã º
ç ¡
é ĥ½
Ġ íķ
Ġ htm
re ve
al ong
an tom
Ġc d
Ġc tr
ro pping
Ġ" ):
Ġre corded
Ġn net
Ġn stime
Ġin active
Ġa yb
un ified
id ents
Ġb ridge
def ines
el bow
() /
() ').
and roid
is null
ol a
la cer
(' *
ma de
am in
am en
Ġ0 1
)) *
to y
ĠS SD
ĠA da
ĠC ategories
vi ction
Ġst ale
per ly
data classes
Ġh p
key stone
ĠF abric
log gers
Re vision
Re verse
Re cv
sc all
=' .',
Ġr ates
Ġr ucio
ĠP open
ĠD ynamic
ĠĠĠĠĠĠĠĠĠĠĠĠĠĠĠĠĠĠĠĠĠĠĠĠĠĠĠĠĠĠĠĠ ĠĠĠĠĠĠĠĠĠĠĠĠĠĠĠĠĠĠĠĠĠĠĠĠĠĠĠĠĠĠĠĠĠ
Ġv oc
ĠO ld
ĠE MP
ĠE urope
ho re
oc cur
Ġan imation
ĠB ound
Ġk r
Ġk size
15 5
ĠG u
Ġlog out
ĠW in
ĠW est
ĠW ell
Ġal arm
77 0
OR ATION
json rpc
group ing
group Id
32 4
ml sp
ml flow
AR TI
Ex c
Ġser ving
ib ia
RE DIRECT
Ġcomp ound
Ġsub scribers
()) ]
map hore
df g
Data Table
return ed
57 2
=[ [
Ġper iodic
04 9
Ġne urons
trans mit
mon o
97 4
97 6
Ġmin s
filter warnings
cy clic
File Handler
17 0
go als
tf Digis
ĠQ ubit
AD I
Ġtra jectory
sign ing
PT H
network ing
pv c
Ġ& =
ĠTest ing
ĠTest Result
bar rier
ins ics
94 0
web sites
Out er
36 2
Ġpadd ings
ĠAdd ListMembers
Ġtx n
ĠAl pha
non linearity
Ġpub lication
seq id
DES C
ĉĉĉĉ ĉĉĉĉ
Ġloc s
ĠHTTP Status
Max Pool
Source s
acc ine
topic Page
Attribute Setter
ans ible
rs i
mag ics
PER CENT
Ġstats models
upper case
Ð¾Ð ·
cer ts
åĲ Ħ
_, _,
Ġsol ved
Ġ'{ :
Ġaccept able
å® ī
rece ivers
Ġvol atile
ĠQu ick
button s
Ġmove ment
69 86
EC ore
Ġprotocol s
ĠRE AL
68 85
DIS K
ipeout Service
Ġpartic les
é¢ ĳ
Ġown ed
watch er
Ġfore ground
ĠDO C
ĠAST NestedName
Ġexperiment al
wrapper s
Items Count
Ġlon gest
ĠElement Tree
Struct ured
WORK FLOW
Bit coin
Ġbus iness
MEM BER
bet ter
Multiple Choice
ç§ ¯
ç§ °
Real m
CHO ICE
expi red
å± ŀ
Ġexpi res
Public Key
Comple te
~~~~~~~~~~~~~~~~ ~~~~~~~~~~~~~~~~
explo it
ortho g
Ġsing leton
ç¬ ¦
Ġtun ing
!!!! !!!!
ĠCre ator
bri cks
COMMIT TER
FUNCTION APP
ĠGED A
å¦Ĥ æŀľ
associ ated
íķĺ ìĦ¸ìļĶ
ĠScope Id
ĠOct etString
Ġenhance d
interrupt able
ĠDetail s
Ġprovision ed
ufact urer
Tang shan
getQuest ItemsCount
uniMpls Agent
Ġminds pore
$ $
) ":
4 18
4 80
6 07
: </
> ".
A bbreviation
B AR
B enchmark
C r
C ir
H IDDEN
I g
K s
L G
L et
L umberjack
M ention
P andas
Q PushButton
S ew
T Re
T ier
V S
Y OUR
] |[
` ."""
d rain
d ual
e o
e ca
f v
g file
g ins
h ms
j inja
k ms
p runing
q ty
s ap
t re
v type
x html
¶ Ī
é ļ
Ġ veh
Ġ å®ŀä¾ĭ
Ľ å»º
se x
Ġt line
ar ched
Ġi ll
Ġ' )[
ut xo
lo oper
ing ress
ent ions
Ġa ch
Ġm ongo
co o
Ġd uplicated
Ġb rief
ch k
() '
il ry
ĠT IM
ter ior
ult aneous
ab orn
to wer
ĠS M
ĠS uccess
ĠC our
ĠC FLAGS
ĠC MD
cl ones
args pec
Ġde s
us hed
Ġco lored
out come
form set
ĠP at
ĠP ORT
ĠD ashboard
ĠL ay
Ġstr ftime
ds opts
bo dies
pre proc
ĠM Q
ĠM ED
Ġx r
Ġpar ses
assert Con
ĠB LOCK
Ġthis mod
ac ert
ĠW AN
Ġal ternate
77 2
OR ITY
Ġpre pend
rans form
ĠĠĠĠĠĠĠĠĠ čĊ
sub system
ca ve
ca ches
jo urnal
ari an
ded uped
train s
ump tions
cor o
cor s
cor relation
Ġser ializable
LE CTION
Pro ps
99 4
Data Parallel
ou ch
53 1
En code
Ġ[' .
04 4
float s
... \
`` )
pl ans
ĠAn aly
ĠAn alysis
hand s
Key board
Frame s
33 7
func name
Ġsuper class
98 4
98 8
Ġmo vet
Ġ8 8
30 9
pc d
make pyfile
HE AP
au xi
ĠPro xy
rid ing
ML P
Ġtri ple
27 0
Ġsc id
Ġsc ary
23 9
bl ur
07 8
Tra ced
em ulate
ision Tree
PAT CH
åı ª
Ġpost ing
44 0
37 8
åĪ ¸
IND Y
Ġclo sure
38 3
DB G
ĠCol umns
With out
Connection Error
); \
Session ID
45 1
Ġsv g
ĠMo dified
è¯ ¥
CRE ATED
ÑĢ Ðµ
Def ines
Ġsyn th
Ġut ilization
Ġsens ors
Down loading
GR ID
Tri ed
ĠDi ag
car ded
0101 01
Sk ill
Ġaverage d
ev il
Jo urnal
Project s
Ġll c
æŀ Ĳ
ĠDes ign
)? ',
METHO DS
ĠConnection Error
Ġsupp ly
ĠAb ort
Bad Replicas
suit able
wind ing
æŃ ¢
808 0
Ġart ist
horizontal Layout
ĠDown load
Ġrout ers
Trigger Primitive
Nan jing
evoked s
Ġ-------------------------------------------------------- ----
Ġide a
Ġbra ckets
zc ash
FEAT URE
Spect acle
ĠGED AS
ĠMed ia
Managed Cluster
Unary Op
ĠSimul ation
Cs rf
kub ectl
Ġaddres ser
ĠHide out
SERIAL IZER
Similar ity
Ġexpl orations
Ġnip ype
TRe Emul
auxi liary
TriggerPrimitive Digis
( $
) |
) +'
* /
2 86
6 27
7 54
: \\
A VE
A FT
B I
B c
G H
G ra
K A
K ick
K AC
M IP
N ON
P r
P CT
P ENDING
S tyles
T ake
T rap
_ {}".
_ {}.
a ffect
d ps
d contour
f be
g ri
h icle
j w
k top
m uted
m nc
n arrow
n rof
p ho
t g
v f
v it
x r
y c
¡ æľī
é ĵ
Ġ 91
in active
in ferred
st roke
Ġt aker
en di
de legate
al api
an i
an ks
le in
Ġf unds
Ġre ls
Ġn w
Ġs st
Ġs al
Ġs rv
Ġm usic
ate st
Ġd m
Ġ# ################
ser ializable
() [-
Ġw inner
get Typed
is ions
con om
Ġ1 92
ath on
ĠS napshot
ĠC R
ĠC amera
ĠC rypto
cl tv
Ġg reat
Ġex its
Ġl un
Ġh s
Ġh om
In voke
ĠF E
ĠF ollow
add ons
ĠĠĠĠĠĠĠĠĠĠĠĠĠĠĠĠĠĠĠĠĠĠĠĠĠĠĠĠĠĠĠĠ ĠĠĠĠĠĠĠĠĠĠĠĠĠĠĠĠĠĠĠĠĠĠĠĠĠĠĠĠĠĠĠĠĠĠĠĠĠ
py qt
ĠL ABEL
test dir
test platform
pre dicates
ĠE stim
ĠM enu
ĠM obile
mo ments
Ġy ml
ER O
ĠN ested
IN HW
cess arily
). ")
ind x
vers arial
Con struction
ĠR DF
ĠG UI
ĠU T
ĠU ses
ud b
ok u
Ġsh lex
Ġsh uffled
sub command
Ġbo dies
Ex ceeded
Ġno inspection
ĠCon sole
Ġ5 8
lin ker
Ġpy lab
np ack
Test Obj
AS N
Ġstart Time
tra versal
-------------------------------- ------
Ġne uron
List Assets
cy thon
Ġopt parse
28 3
Ch at
Ch rome
Ġdf dx
Get C
mock ed
resource Name
amp er
ĠCo mb
CO OK
File System
98 5
stamp s
90 8
Ġte ardown
Group Manager
54 5
part icip
',' ')
To One
Ġsupport ing
Ġtoken ize
EX IST
Ġextra ction
19 5
Object ive
dot env
Ġplot ted
Ġdocument ed
ĠRes hape
75 8
35 2
=[' -
BU Y
Gener ates
80 7
RAN K
ĠAl ternatively
inte rest
Ġwrit able
Ġrep Map
github usercontent
202 00
Dis abled
ĠDis able
Ġph rase
Tag Iterator
Ġunique ly
29 2
Ġaut odoc
initial iser
Ġlike lihood
att ice
Ġsk y
ship ping
ĠComp any
hy ps
Ġpick ed
----- +
Default s
Ġdesc ending
ĠBy te
Ġcontrol set
aa a
Ġcap log
Ġexc utils
################################################################ ################
MIN OR
sym metric
SC AN
ĠEvent s
Ġrequire ment
ĠST OR
LOW ER
vocab ulary
Sup ply
ĠAS CII
Sa mpling
ĠLe arn
ev en
hyper flex
protect ion
Ġtermin ated
Cap abilities
OPT S
ĠSystem Exit
Ġ---------------------------------------------------------------- -----
tyle Parameter
sect or
getblock count
à§ ĩ
infl ate
eg gs
Mpls Vpn
Ġpat ience
Ġart icles
Gu ide
Ġsuc ceeded
PUB LISH
ĠPack et
glX Get
Ġgain s
Some thing
FIEL DS
('/') [-
ITER AL
Ġsynthe tic
offi cer
synchron ize
scr atch
ĠÑ į
ĠFeed back
FEAT URES
SPECI FIED
uris diction
Ġacceler ator
æ¸ ¬
ingre dient
Ġtransp arent
Zi bo
ĠSqu are
ĠPhone Number
Apa fA
TraceSource Accessor
EXPORT ED
Chao zhou
ĠGlyph Renderer
CrossEntropy Loss
usu ario
ĠGEDAS tyleParameter
getTyped RuleContext
% ,
, **
. ':
3 95
A sk
A ffected
B ea
C G
D ot
D az
E igen
F und
F HIR
G ift
G uest
H P
H edge
I PE
N Y
P ixmap
P erturb
S ame
U K
V O
V R
W ater
X ia
X ianyang
\ (
b ic
b norm
b udget
b rowse
c max
c rc
k mer
l hs
l just
m ion
m AP
m arginal
t up
v nd
w el
x ref
z able
~ _
Ñ Ħ
Ñ ī
Ġ vehicle
Ī æ¸¬
se ason
re h
re minder
Ġt as
ĠĠĠĠĠĠĠĠĠĠĠ čĊ
an onymous
me mp
Ġc xx
Ġf k
Ġf ight
Ġf resh
Ġf requent
Ġp name
ge odata
Ġn exthop
mp ot
Ġa e
Ġa vo
Ġm ammal
un istd
ex empt
Ġd v
Ġd ll
Ġd cfg
Ġb atched
ul ations
get pid
is abs
(' '.
Ġis olation
con test
con secutive
ĠT EMP
00 04
Ġ""" """
ke eper
Ġas m
to string
Ġst k
Ġg ens
") ],
Ġl v
Ġl vl
Ġh ss
Ġ: -
], ),
Ġde dent
In te
te ach
Re cords
Ġr data
Ġr mt
Ġr qs
ĠD av
Ġme l
ĠL ambda
test im
Ġ% {
pre fs
pre ferences
pre amble
ĠE OF
ĠM X
col name
Ġget Short
ĠB ulk
). ')
Ġk nots
ac cs
Con tour
ĠV ARI
version ing
Ġch ance
ĠH AS
Ġpre fer
Ġpre pared
Ġ{} "
pos ix
Ġ[] }
base validators
pa ste
ax s
gr d
56 0
no se
Ġfil ing
Se par
16 2
Ġ6 6
sing les
LO bject
Ch allenge
Ġ(" {
cent roid
Ġreg ressed
Me izhou
File Type
33 0
Ġinit ializing
17 2
17 9
55 2
55 4
Ġad vance
ãģ £
96 0
96 7
patch set
PO WER
DO UBLE
replace ments
22 6
Group Name
ä¸ İ
24 7
24 12
Ġ7 8
fer mion
Spec ial
ML M
CE LL
chain er
sup pression
gre dient
gt m
BU IL
Ð¾ Ñģ
cert name
sm il
Ġ200 1
Man ifest
Sub set
Ġaccess ing
Dis count
ĠDis k
Trans pose
ea a
38 8
troll ers
Ġauto method
ĠSh ort
ĠString Property
assign ments
ru ption
Session Middleware
Ð¾Ð ³
ĠCom m
äº Īæ¸¬
Ġverify ing
STAT ES
feed s
Ñģ Ñı
Batch Normalization
spect ra
Account ID
sg d
ĠSub test
ĠBo ol
ĠLog ging
Min or
Ed itor
ĠGroup s
ĠPre pare
Exec utes
Exec utable
Part icipant
neighb our
Ġigno res
Cluster ing
regular izers
SY S
åŃ Ĳ
)+ "
å¼ ķ
VALID ATION
Backend Service
Ġsqu ared
Ġkw ds
Ġsn mp
Ġcos ine
çī Ī
Ġsym metry
ĠIMP ORT
lb ls
fic ult
Ġboto core
Ġimplement ations
Ġincre asing
Ġmis c
Ġmime types
é¡ ¹
confirm ation
Ġsuc c
ĠOption ally
Ġcid r
Ġrout ines
517 4
åĪĹ è¡¨
ĠWS GI
genes is
lips is
oct ave
ĠPAR AMETER
rob ust
ĠBgp Ls
çŃ ī
åİ Ĩ
ĠCond itional
THRES H
èĩª åĬ¨
ĠExternal Program
bla h
è· ¯
Ans wer
ĠSent ence
CONTRO L
Ġspi kes
pas cal
çĶŁ æĪĲ
ĠXml Util
autob ahn
bam m
Dong guan
Ning bo
ĠCli Runner
DETAIL S
# '
# %%
* )
+ )',
2 14
3 90
4 97
6 77
; ',
> &
? ")
A w
C W
G ithub
I Message
L ITERAL
N py
O wn
P late
P ACKET
R pc
S ingleton
T u
W here
b sd
c udnn
d in
d yn
e ither
g ree
i ot
j abber
k points
n bytes
p ids
r ated
s ion
s lide
t ur
t qdm
t Returning
v est
y thon
} "]
re me
re use
re action
st acles
or ph
Ġt dk
de leter
ion g
Ġ' `
Ġf r
Ġf type
Ġf aces
Ġn ic
Ġs light
Ġs lack
pe e
Ġm t
co ut
Ġb az
Ġ# *
ot ers
ck o
Ġw heel
': [
Ġ( ~
get raw
il led
(' </
est Gadget
Ġto mo
ĠT X
ĠT akes
Ġu v
Ġe ver
Ġcon verts
to f
to ut
ĠS he
ĠC redential
Ġst ra
Ġex plan
In correct
Ġ2 40
sc anner
ob stacle
ĠP an
ĠP ayment
ĠD IST
Ġme ter
ĠL L
ĠL ower
ĠL NP
ĠI R
Ġ) ),
ity Types
ĠE ager
ĠM SI
assert Dict
code cs
Ġan swers
Ġget Args
ĠB C
Ġ3 50
Ġk v
Ġob servables
port folio
Con trib
Ġra ce
Ġlog Return
Ġal location
Ġal bum
ĠRe lease
ĠRe commendation
og gle
ĠH er
ST EPS
sub class
Ġser vo
ib in
net app
result tbl
Ġ/ *
64 4
not null
57 9
53 8
=[ ('
the y
the tas
CT YPE
... ",
pri mitive
let ters
mark up
Ġdist s
sing ular
Ġdf dy
Get Typeid
Ġjson utils
CO CO
FI ER
FI RST
55 46
tf m
86158 76
Ġab sent
replace ment
Group By
Inter action
HE LP
Bo unds
ĠIN VALID
Ġcolor bar
Spec ification
An imal
Ġtemp o
mer ged
View Middleware
ãĤ «
36 00
Ġref ers
NO DES
tick ers
80 9
27 84
cell aneous
ĠHe aders
Le aky
stop words
Ġ200 9
Ġtmp py
37 2
Sy m
CA MER
Ġfin ds
ä» İ
oid c
gl orot
CP P
Init ializer
Action Args
Ġli ver
Sp acing
ĠMo dify
Ġadmin istrator
Ġsim ultaneous
Ġdownload ing
Method Field
til de
Opt s
optim ized
fd c
BUT TON
Ġcy cles
One Off
62 10
ĠConstruct or
aff ine
ĠDB G
çĽ ĺ
vlan s
Common Middleware
ĠMO CK
ĠEN T
Print er
Load B
tern atives
Ġhyper params
perm utation
Exp and
getblock txn
ĠJson ableError
ĠNum eric
she ar
Rot ate
visual ization
dig ital
ĠFin ally
Owner Account
REF ER
Ġdeploy ed
CONTENT S
ĠRest ore
ç´ ¢
rg ba
ĠNUM BER
MEDI ATE
ç»ĵ æŀĦ
Wh ite
ĠProb lem
Qual ity
Redu ction
flo p
Ġcau ses
CAT AL
ĠBU ILD
DOWNLOAD S
Ġcle ared
ĠHD PrivateKey
Syntax Error
Pers ist
Cheng du
æ® µ
rts node
Ġglu on
Ġdiscret ised
xmp p
Ġbib tex
ein sum
PreTrained Model
Zhong shan
Indexed Slices
Vers ions
MEASURE MENT
Sche me
ntc HW
Csrf ViewMiddleware
ĠgetShort estGadget
getraw mempool
CAMER A
" <
5 87
B ra
B et
D aily
H old
H era
H ORIZ
L arge
N R
P ur
Q R
S HOW
W W
W rap
W uxi
Y R
_ (*
c ensus
c SerialNumber
c umprod
d ob
e uler
h unter
s itk
u lo
u ent
v ity
x Interpolators
x prv
y ling
ë Ł
ì ĭľ
ì °¨
ĺ è®¤
in omial
re strict
re commendation
re lax
at test
er ver
st s
ar ity
Ġi info
Ġc ats
Ġ' //
Ġf rappe
ct a
Ġre lax
Ġs lim
li x
Ġm obile
co ok
co variance
Ġd ise
Ġd yn
el t
() *
ss n
Ġ( ``
", ),
Ġfor ces
ĠT ermin
th y
ass ume
qu oted
Ġu reg
Ġu uids
po sterior
Ġcon currency
ĠS GD
ĠC ALL
ĠC UDA
Ġg b
Ġg iving
Ġg arbage
Ġex cel
ub eflow
Ġde signed
key name
Ġres cale
ĠF IL
out going
ob ox
ĠP in
ĠP ref
ĠP lan
ĠP CA
ĠĠĠĠĠĠĠĠĠĠĠĠĠĠĠĠĠĠĠĠĠĠĠĠĠĠĠĠĠĠĠĠ ĠĠĠĠĠĠĠĠĠĠĠĠĠĠĠĠĠĠĠĠĠĠĠĠĠĠĠĠĠĠĠĠĠĠĠĠ
ĠL ike
class name
Ġdata Type
ĠI pv
ĠO FF
ĠE ast
ĠM ath
Ġy a
Ġy ields
assert Status
Ġan im
Ġ> '])
ĠB ing
Ġk n
Ġk p
Ġun serialized
Ġmodel ing
fa vor
min poly
86 9
ber ry
we eks
point cloud
join s
ib s
net loc
ĠCon sider
Ġle ader
ste in
ste al
iter ate
0000 24
Name Format
rep l
Ġop posite
En tries
04 6
'. "
Ġinter preted
mon it
MA CH
mark ov
Ġvalid ity
:` [
Me m
Me ans
Ġsy mp
Ġsy mbs
}) \
Un recognized
55 8
Ġblock ed
Ġtra vel
Po ols
Ġcopy ing
Ġpart y
ĠSt arknet
)] ))
Ġ8 5
30 5
std lib
Up dater
84 6
Ġpoint ing
Ġ7 2
Message Middleware
ĠPy re
94 8
wh it
Ġav Id
Ġav atar
Des cent
82 6
Or dered
ĠDe bug
89 5
86159 86
75 9
Ġsu fficient
bucket ized
ux iong
95 9
long double
Ġcond Perturb
record id
ĠZ ip
Ġrel height
Ġrep lication
Ġ200 7
Event Impl
proto s
Ġfig ures
auto complete
åĪ łéĻ¤
Ġcmd class
Dig i
reed om
PL AN
detect ed
Ġps util
('- ',
.* ?
42 94967295
ĠModel s
("/ ?
release s
è¯ ¢
tab la
PAR ENT
HTTP Error
If Attrib
Ġcli pping
Ġreason s
Ġinte resting
Ġcap ital
Ġhy p
Search CV
Ġchunk size
sym metry
alt ura
ĠTrans ition
reference d
regex p
Ð°Ð ²
999 123
collect ors
ras a
å¼ Ĥ
Ġfo od
Endpoint Policy
éĹ ¨
Over hang
eno ise
DOMAIN S
SING LE
ĠForm ula
SK U
Ġë ³
ĠBe am
åĪĨ æŀĲ
den ite
ĠProcess ing
ĠThere fore
åĨ µ
Srv IfAttrib
ĠPublic Key
modifi ers
Ġlab eled
ĠVAL UE
reat ment
Ġsur f
Install ID
ĠAuthentication Error
ĠExec ution
å± Ĥ
REG ISTER
******************************** ********************************
ĠNet BIOS
San ctuary
prov ince
scra py
determin istic
Aut omatic
Ġsatis fy
åħĥ ç´ł
Ġcoer ce
suc ceeded
ĠDif ferent
é» ĺè®¤
ermion Operator
Legend rePolynomial
ĠEner gy
ìĬ ¤
+=" âķłâŀ©â
éĶĻ è¯¯
èī ²
testim ony
" ?
' _
' --
' ".
) #
) ``.
- {}".
2 76
3 56
4 16
4 000
6 000
7 000
9 547
= (),
> :
B RANCH
C og
C ytoCM
D scp
E CH
F irm
G O
K UB
L aw
L AST
L amSlotWind
M ar
S ENSOR
T ex
U g
^ -
b attle
c ubic
d g
e gs
g pt
h sv
j ub
l w
m di
p al
s ocial
t ard
w at
w elcome
} $
} (
} </
Ġ ran
Ŀ å§ĭ
re member
re construct
re present
re positories
en umber
de scriptors
an imal
Ġc gsnapshot
Ġf ive
Ġp ract
Ġp ushed
Ġre commend
Ġre visions
Ġs licing
ing tai
pe ts
Ġm object
un ced
ex press
Ġd um
Ġb log
fi b
pt itle
ol in
ap dev
Ġe limin
(" :
ĠS pe
ĠS pat
ĠC ancel
Ġth in
Ġg rep
Ġg rp
Ġex ponential
In dicates
us al
ĠF add
ĠF igure
01 00
Ġor phan
sc ik
ob e
ĠP a
ĠD at
ĠD ungeon
ĠL i
ĠL td
class ify
Ġpro tein
import er
om en
om as
ĠM plex
Ġx path
unt rack
text box
col con
sp d
ĠN S
Ġan alyzer
Ġfile str
op h
ag ination
ĠB ACK
"] ])
Ġout going
os x
ĉĉ ĠĠĠĠĠĠĠ
dir path
Ġun able
sa f
Ġdi rections
ĠV PN
ĠR a
ĠG B
ĠG errit
EN COD
ST Y
sub mitted
32 5
pi lot
comp arisons
for ces
Pro vides
db name
AN DS
ste am
not ab
DE PTH
stra va
ific ial
Ġclass ic
56 3
56 6
16 1
97 3
Set Name
ĠĠĠĠĠĠĠĠĠĠĠĠĠ čĊ
Par pU
Par ametric
Ġ6 2
Ch uxiong
cent re
ĠAr ch
33 8
Ġarg parser
Un ited
86158 06
my py
Col ors
54 1
54 9
Log Config
CON NECTION
tag ged
strip ped
first name
mer kle
FF CC
Ġselect ing
Ġmark s
fact ories
Result Status
82 7
Or g
'} },
mod ulename
ful filled
Ġsearch ing
Ġdown grade
son ic
mount s
EL LOW
Ġsee m
Ġdel tas
ves sel
ĠDataFrame s
azure websites
ĠEn tries
cd k
Ad ded
fin ance
Invalid Request
With URL
å¤ ĸ
PS IS
Ġhist orical
Box Layout
estim ators
eff s
Ġequal ity
exclude s
Ġsepar ators
SO FTWARE
åĽ ł
cla im
Ġut terance
Serializer MethodField
lang s
And Return
ili o
86157 64
indent ation
Ġri j
Ġdiff ers
çĶ¨ æĪ·
AUTH ENT
Track er
DateTime Property
Tick er
BE GIN
Ġadapt ive
Ġmc scf
XXXXXXXXXXXXXXXX X
861594 7
Dest Addr
Parse Tree
Ġmonitor ing
ĠMn Log
Geo Spatial
wave form
quick start
Ġlearn ed
analy tics
+) $')
Day s
TRANS PORT
Virtual Machine
Ġatom ic
Stat istics
Vis it
ĠRO OT
Ġpermit s
çİ °
ĠRest art
ĠAuthor ization
ĠâĢ ľ
ĠÐ¿ ÑĢ
CONST ANT
Ġsing ular
éĿ ŀ
itu ent
01010101 01010101
Django Templates
Chart View
Models Tests
ĠOB J
pseudonym ized
ë¥ ¼
ĠMetaData Container
ĠSci ence
ĠAutomatic ally
/]+ )/
çĬ¶ æĢģ
Ġhg vs
Ġther mo
åķĨ åĵģ
ĠDest ination
Expi red
ĠTechno logies
ĠDESCRIPT OR
remain der
ĠCop ied
æĦ ı
belongs To
Fair child
ARTI FACT
OneOff Job
' |
4 71
< %
> """
A toms
C a
F ire
G an
H idden
H uman
H orizontal
L ake
O ccup
P u
P red
S ol
S olution
V N
X ingtai
Y ang
b df
b link
d F
d q
d nn
d xx
f use
i mplement
m ip
m objects
p isode
s Operations
t ars
w ipeout
w arp
x ticklabels
y x
å ĭ
æ ´
Ġ quest
Ġ ÑĤ
ĸ ´
se m
er ce
or ry
or ange
or phan
Ġt rend
de veloper
ar izer
me mb
Ġc upy
Ġ' .')
Ġ" ),
Ġf alcon
as numpy
Ġre covery
Ġn l
Ġn db
Ġs sid
Ġa uc
Ġa ware
Ġa ward
Ġthe tas
Ġd bo
Ġb urn
Ġb isect
ch r
el ines
int p
con currency
ĠT urn
set Window
iz za
Ġ+ --------
'] [:,
Ġ""" .
qu ila
res umable
par agraph
Ġcon duct
to ml
ĠS yn
ĠS elf
ĠA xes
pro cal
pro xies
Ġimport ing
Ġg ated
Ġex perience
Ġh ps
Ġde tach
ĠF unc
ren a
Ġbe yond
Ġr src
ĠP ress
ĠL B
ial s
Ġv o
Ġv df
Ġv oting
ĠI ECore
ĠM ult
lic able
Ġfile type
Ġassert ion
os api
Ġlist ify
sa w
Con version
Con sumer
AT ING
ĠV ec
version ed
ĠR IGHT
und ay
Ġen force
ĠRe play
ĠRe cognition
og an
ĠH ut
10 35
Ġpre load
Ġpre served
Ġpre dicates
ition ally
Ġtime steps
Ġwe apon
ca mp
net s
Ġadd on
RE AK
Ġcomp ly
Ġsub sets
Ġobject Type
64 6
AN GE
create Base
Ġpy plot
Ġpy tz
np c
do ctype
Ġfunction al
check list
unc ased
ron ame
no me
Ġz lib
ne utral
dis cuss
Ġext ent
ome ter
cf s
Set tlement
old own
Par sing
ĠAn gle
Get ting
Ġsp rite
ci ency
ci procal
Ġarg Types
Ġarg Names
MP D
86158 77
96 6
ĠK nown
Str ings
Ġexp ansion
22 33
IL ENT
ell uric
ĠData frame
annot ated
post fix
Not Available
score r
bar s
Inter section
Message Box
ĠPro duction
Ġport ion
19 3
Ġqu iz
Ġwork dir
keep alive
ĠGet Hire
Ġsum maries
Ġgraph ql
No Polling
21 000024
Ġstruct ured
multi class
Ġtmp file
sig wrap
itch en
Per Node
67 9
fin ally
Ġdisplay Name
Ġsent iment
tax a
Th ree
thread safe
ĠImage Draw
.* ')
Ġfinal ize
ĠMo vie
progress file
bus y
question naire
è¿ ŀ
ĠPer forms
ĠOpen SSL
cla mp
Sc Volume
ĠSub mit
255 19
Ġut xos
SC AL
SC ORE
Ġappro x
ĠUpdate s
ĠAsync PollingMethod
ĠAsync NoPolling
FORM ATION
Ġtr g
push er
Ġmp arser
éĢ ģ
ga e
DIS PLAY
Ð°Ð ·
Ġbl end
ĠNe ural
Ġcast ing
Inv ite
integr ate
hyper parameter
çĽ ´
cn f
Cho ose
atalo aders
861598 7
rea ched
Ġdx cc
eer Addr
ĠInt el
Ġaggreg ated
ĠCommand s
Ġloading Context
çī ©
MB OL
ä¹ ī
âĸĪâĸĪ âĸĪâĸĪ
arest Neighb
ĠMin or
Email Field
Ġ===== =
Ġbind ings
friend s
Ġprevent s
ĠEval u
hover format
ĠSession Indices
å¸ ¸
Ġsan ity
ĠFloat ing
Ġauthentic ated
Ġabstract method
Comple ted
Tr uth
Ġsmooth ing
Ġdut host
Ġprotect ion
Help Formatter
Ġhighlight ing
Ġsay s
jack ing
åĿ Ĺ
Lang fang
Annotate Images
FX S
smo othed
Ġpen alty
Require ments
ĠLim it
Cour se
Hu ai
Ġvox el
latt ice
âłĢ âłĢ
[^> ]+
asser tout
ĠMQ TT
tard is
ĠSpat ial
createBase Function
assertout come
# :
' \\
( "".
+ ".
- ')
/ **
3 98
4 50
= ")
C atch
C andidate
F act
H M
H eng
H ba
J iang
M ink
P s
P uer
R ENDER
S CRE
S mooth
T ape
U INT
X OR
X Frame
Y S
Y ANG
Y AML
Y ibin
] >
_ \
a max
b j
b q
b ch
b rain
c ant
d B
d pi
f ur
f ly
h ib
n f
p illar
t py
t ical
t pg
v max
y w
y z
z min
z ulip
} ).
Ġ Â
Ġ 77
Ġ Ke
Ġ eta
Ġ esc
Ġ XXXXX
in dependent
st ones
st ars
Ġt conf
Ġt une
en ous
de activate
le aves
Ġ' ?
Ġ' ('
Ġ' ='
Ġf airseq
Ġp ts
Ġre boot
Ġin gest
Ġs as
): #
Ġm imic
id o
Ġb rain
Ġ# @
ri a
ri val
ri etveld
get list
get Contact
Ġfor cing
ĠT RA
ĠT imer
ĠT weet
et une
ve led
ĠS C
ĠS G
ĠS I
ĠS tri
ĠA dic
end ent
ith metic
from array
data model
Ġde velo
ist ical
us i
ĠF older
log det
out From
Ġ* ********
ow l
ob lig
Ġr dtype
ĠD ONE
che type
mb stone
time step
ens ities
Ġpro ceed
ĠO PT
Ġse cs
ĠM ag
ho o
of port
reate st
sp ents
Ġassert ions
Ġout line
ĠR u
ĠW allet
Ġch k
Ġal most
ĠRe quires
ep hemeral
('\ \
Ġro unded
** :
sub sample
sub header
Ġrequest ing
back off
start Time
Ġno me
Ġnew er
Ġle aves
Ġpo ols
Ġj vm
not hing
=[ {'
Ġtf tpy
local time
Ġcan ary
tra ction
Ġinter ior
Ġz max
][ :
mon str
pri ces
face t
97 5
De claration
Ġcode review
PI X
RI SCV
ĠCo in
Ġ] ))
File Path
Ġq a
eta iled
uto ol
tf Replica
Ġ10 7
34 1
86158 33
96 9
Po isson
stack ed
send cmpct
Ġte le
over nment
Group Result
vo x
TT L
vid ence
24 4
ord inal
65 87
mean ing
Request s
tag ging
ĠPy Spin
94 6
Com ma
Ġallow ing
SI MPLE
Check sum
Ġwas n
Ġwork around
fl t
Ġoff line
86159 56
hex pat
36 7
35 1
=% (
UP DAT
Resource Type
26 0
Parser RuleContext
Client ID
Ġrel u
Man age
math bf
ĠName s
"} }
VE LO
Ðµ Ðº
(? =[(
Per f
Ġerr s
ĠSettings Styles
Ġclo th
39 3
Ad ds
Ġaut oc
Ġbucket ing
tax on
DS CP
Th at
ffi ciency
ĠInter net
With Error
year ly
Options Middleware
Ġpool ing
termin us
Ġfit ness
Ġmulti part
raise d
click jacking
draw ing
exist ence
Ñģ Ð¿
Ġsim u
pick ler
ral ph
BO OT
Ġdump file
ĠClient Error
Level s
Ġig mp
Open SSL
Ġput s
SUB TOP
Ġdepth wise
Ne ed
SP A
tol erance
åº ĵ
Ġtermin ation
ĠAST Template
ĠMO DI
Document s
è¡Į æĥħ
simul ate
spe ction
ARCH AR
GRO W
ĠBE GIN
ĠPoint s
ä¹ ł
Post fix
Ġdy dx
Ġmm det
Ġ################################# ################
Ġ################################# ########################
Plot s
ĠEval uate
Virtual Appliance
Ġmut ually
pag inator
Gu aranteed
517 0
Ġcrit ic
Ġhappen ed
kick outFrom
Static Producer
ĠBot s
jk lm
Ġè İ·åıĸ
Ġtun er
Ġremain der
qi har
Rad ius
FACT OR
Aggreg ate
886 1
withdraw al
æľŁ è´§
ĠAir flow
ĠBlue print
åĨħ å®¹
Qi qihar
Ġjunk size
Tong liao
Cut off
ingre dients
Ġ#-------------------------------- -----------------------------------------
Ġimpact ed
bless ing
bless ings
TEN ANT
Ġconcaten ated
Optim ization
Ġcred s
ĠDAT AB
Tai An
Ġinvoking State
thermo stat
EXTEN SION
ĠAgg reg
æ» ¡
Chi Squared
ĠDie WithError
Daz hou
Xia ogan
jub ba
ĠMplex Stream
ParseTree Listener
Jiang men
XFrame OptionsMiddleware
tfReplica Specs
(?=[( ])',
kickoutFrom Group
# @
3 77
4 30
6 71
> "),
A Z
B ump
D OT
D ali
F ig
I l
I MENT
K a
R ound
R DF
T ran
T ilt
V V
W C
[ ["
a osapi
d se
d ph
f I
k ed
n odata
p unctuation
v g
v server
x fa
| %
} ?
} **
§ è¡Į
Ġ ranger
Ħ ì
in dep
re tain
re serve
st ations
Ġt bl
de sktop
me ster
it o
Ġc name
Ġc rc
ro cket
ro unds
Ġp ron
Ġp ci
Ġre commendation
Ġin form
Ġs lower
Ġs lave
Ġs mtp
ue sses
Ġo file
li est
li ms
Ġm irrored
ex pt
Ġd ual
Ġd atal
ot p
() [:
Ġw agtail
is ig
(' !
con sensus
__ )),
ver ge
Ġof ficial
)) +
Ġ{ (
Ġ{ _
Ġu seless
Ġas ks
od ename
ĠC ached
Ġth ist
Ġst ash
Ġst yles
Ġg y
") (
Ġex posed
Ġ: \
In c
ist a
Ġco vid
Ġres ids
out let
Ġor bit
Ġr si
im ization
ĠD ATE
art ment
ĠĠĠĠĠĠĠĠĠĠĠĠĠĠĠĠĠĠĠĠĠĠĠĠĠĠĠĠĠĠĠĠ ĠĠĠĠĠĠĠĠĠĠĠĠĠĠĠĠĠĠĠĠĠĠĠĠĠĠĠĠĠĠĠĠĠĠĠĠĠĠĠ
py cdf
py xl
test me
ĠI G
Ġpro x
Ġse ason
Ġse aborn
ĠM AN
[" \
Ġnp z
ĠN othing
Ġan om
Ġget opt
Ġset ter
ug ate
Ġun do
sa ving
ĠV ari
ĠR V
ĠR SA
ĠG ithub
Ġch ia
ill ion
ĠRe search
og g
10 80
Ġcol ander
Ġsh ut
group Name
comp ut
Ġsub type
Ġsub list
Ġpy upbit
Ġj j
ste mp
ther mal
Ġcan opy
tra j
sum ing
trans it
mon te
Set Schema
uc lear
Ġbase dir
Me mo
ĠY AML
OT HER
Ġunder score
Ġinit ializes
open cv
ĠQ Image
96 5
cat aly
PO LY
Ġpos ix
âķ Ĺ
over load
annot s
100 1
94 3
Al go
66 8
25 2
ĠAny Value
Pre dicate
Ġ12 345
Ġtemp dir
Des cribe
Ġ'/ ',
Ġ'/ ')
Ġfix tures
86159 12
86159 53
contain ing
Comp osite
ãĥ ī
Gener ating
Client Error
No va
Ġsee k
23 1
lip ay
ĉĉĉĉ ĉĉĉ
('/ ')[
ik es
Ġph antom
Ġdt p
fin der
}" },
ĠBase Model
assign er
ĠUp load
ĠIP s
Ð¾Ð ½
kernel s
47 0
Interface Name
ĠResource s
squ ash
Ġforward ing
SO AR
Ġplatform s
ĠSpec ific
ĠSpec ified
éĩ Į
################################################################ ##############
enum eration
bad chars
mk temp
Float ing
Target s
Ġì ½Ķ
ĠRE QUI
Ġedit able
effect ive
86157 54
Ġcomment ed
SUB JECT
ĠOper ations
74 06
SY MBOL
del phi
Ġworks heet
Ġcomm unicate
Ġdat um
Print s
lid ar
spe ar
Ġpush er
TRAIN ED
Extension Type
Ġë §
Byte TagList
tech n
RM SE
produ ced
ĠMat plotlib
Ġred shift
Ġhealth check
COM MENT
Ġrecurs ion
Ġdistri ct
æĸ¹ æ³ķ
Ġmeas ures
Conf lict
Style Sheet
11111111 11111111
General ized
Wait ing
delivery Num
ĠTri gger
Comb ination
LLVM X
gold en
Ġml flow
vile ged
Ġblue print
304 41
Try ing
ĠPiCamera ValueError
synchron ized
EXA MPLE
ëĭ Ī
Ġht lc
OPER ATOR
Mag ics
ĠHello World
æİĴ åºı
thumb print
decess or
Ġmot if
Pat ient
COMPR ESSION
å±ŀ æĢ§
ĠGEDA Parameter
ToOne Field
assertDict Equal
ĠENT ITY
SetSchema Data
& (
, "",
. ])
. </
3 53
3 76
4 34
6 05
6 82
: ``
: {}".
> (
C rit
C aching
D roid
E lastic
G Y
G PS
H ouse
J OR
J ie
K ill
L ane
M n
N MS
R MS
S as
S ES
S PL
U i
V I
V PN
W HERE
_ |
c ve
d ynamodb
f ol
g host
h f
k nots
l um
m ur
m ibBuilder
n om
n ice
p list
p ump
q z
s cols
s chool
¢ «
Ð ¢
Ù Ħ
Ġ 999
in ated
in coming
in consistent
re cogn
re peats
Ġt pg
an itize
Ġc ircuits
Ġ" ]
Ġ" *.
Ġf ed
Ġf rees
Ġp yn
Ġp icture
ce ph
Ġn y
Ġn ib
Ġin et
Ġs lider
ing u
ing dom
Ġm lp
un less
Ġd k
Ġd il
Ġb at
ad vertise
ul led
() ',
"" ),
urn ament
get s
is na
Ġfor ced
la w
name target
up np
set t
set StyleSheet
Ġ[ [-
Ġ1 12
arg parser
'] "}),
am f
ab a
type script
res cue
Ġe at
Ġe os
(" :")
ĠS ide
ĠS urface
ĠA re
ĠC IF
ime ter
list ify
Ġg rey
Ġl c
ub mit
Ġh ue
Ġh um
Ġh aven
ĠF ire
ĠF AST
ĠF AI
=' %(
fig s
art icles
ĠL D
Ġv an
Ġv net
Ġ) ;
Ġse ctor
ĠM aterial
=" ./
fe b
Ġ` '
sp k
Ġhe lps
ĠN ull
Ġget Junk
ag rad
loc us
Ġ3 01
Ġk b
Ġk appa
ac r
Ġun d
ĠR SE
read me
instance B
ant age
lif etime
ID E
jo hn
qui lib
work load
LE G
ĠIn line
ĠCon troller
RE LEASE
Ġcomp ilers
db s
iter values
ĠEx ist
ĠEx tended
write Long
stra j
Ġapp ending
tra its
Se g
Ġmock s
000 8
Par pC
Ġopen stack
ĠSe q
are as
Ġ(" -
ĠX SOAR
CO ME
Ġq reg
find iter
Un attend
98 2
Str ToInt
Config Parser
iss ub
Ġ... ")
Ġcor outine
du ck
su ptitle
Request Context
84 7
Ġ7 6
94 9
column configure
Ġ.. ..
Ġqu ite
Des ktop
ear th
MO CK
89 1
36 9
ĠSer ializer
Comp any
Ġprob es
fs anitize
27 116
ĠAl gorithm
system ctl
RES ET
af ari
Line Edit
Ðµ Ð»
ĠHTTP Error
allow s
48 7
Source Waveform
Ġannot ate
We ek
short ened
LOG IN
TER Y
ffi ce
cos ine
learn ed
win RM
ĠUp per
Element Tree
ĠLo oseVersion
Conv Bert
Init ializes
47 2
Cal o
Cal ibration
Sp an
rec array
([[ [
Rout es
à¦ ¿
New s
Ġvector izer
'^ [
Ġfra c
Ip L
Ġedit ed
ĠPre diction
Ġregex p
dk it
mak ing
resol utions
rag ged
æĮ ī
Sign ed
Ġmodify ing
iff ness
Ġevalu ating
Embed ded
AUTH OR
ĠReg ular
ĠSup ports
Ġgu arante
CD MA
ĠCommand Line
Ġsq d
measure divergence
micro seconds
under lying
ĠExchange NotAvailable
Security Middleware
RC NN
Ġsl ash
Ġvariance s
lon gest
/* /
Draw able
additional Unattend
bing roup
vat ID
gran ularity
blacklist ed
Pan Tilt
('{ :
Ġsuc ceed
ĠOption Parser
managed Disk
#------------------------------------------------------------------------ ------
Ġur lopen
Ġlst m
Ġwave form
ç®Ĺ æ³ķ
STK ID
ĠDoor Kind
Sheet Type
ĠÐ½ Ð°
Ġfun cs
explo re
ham let
stick er
åĿ ĩ
ĠMatch Type
abcdef ghi
ĠClean up
sir cat
Ð°ÑĤ ÑĮ
eter nal
âĸĳ âĸĳ
ĠConcat enate
CUSTOM ER
ĠEmbed ding
LIBR ARY
Ġnat ural
ĠOri ginal
tend encies
>[^ /]+)/
ĠBT N
NotImplemented Error
Solid ityTypes
pressRoute Gateway
chin ery
ytd l
Ġdem isto
Notebook App
ĠTMP Py
uniMplsAgent V
Traced Callback
FHIR Primitive
Ġtdk TestObj
scik it
Gan ons
GROW TH
additionalUnattend Content
4 57
4 33
4 36
4 39
B el
C RY
C rypto
E ither
E vpn
J s
J PEG
J UMP
L ive
L AT
N V
P od
Q H
S ending
S uch
T os
U LE
b atched
c up
c rate
c ities
e is
f ting
g ated
j in
k an
n net
o un
s x
s lim
t def
t conv
t ie
t iff
è ĭ
é Ĥ
í Ļ
Ġ XXXX
Ġt v
de ath
al function
al ice
al ian
it ivities
Ġf ib
Ġf requencies
ct ree
lo st
mp h
Ġs po
Ġs queeze
Ġs andbox
Ġo prot
Ġo cean
Ġa ffine
Ġm ile
ate ly
co herence
un finished
Ġd c
Ġd ont
Ġd cc
Ġd vc
def er
ad og
ch apters
fi ci
ed g
ck an
el m
() "
() )).
ss o
ri al
pt t
get Name
(' $
con versation
Ġ1 10
arg ins
am z
)) }
(" ^
(" //
ĠS u
ĠC D
ĠC AM
ĠC Transaction
vi cer
Ġst ars
Ġg a
In complete
key pair
ĠF AIL
Ġ2 0000
sh rink
]) ])
ĠD ay
ĠD SL
bo ards
Ġpro fit
ĠO VER
ĠO WNER
pre filled
Ġse s
ĠE quivalent
ĠM ost
Ġpar ametri
ĠN at
rain ing
dd c
IN F
ag ram
""" ),
ĠB io
Ġthis module
Ġprint Debug
Ġk inds
Ġun ig
num mer
sa vet
ĠR i
ĠR UN
Ġlog it
:// /
pp m
Ġal ice
og ene
ann a
ĠH DF
OR ICAL
Ġint ra
Ġro unds
lif espans
32 8
comp action
SE C
SE GMENT
pa res
lib lib
Ġuser From
ĠCon f
ĠCon tin
99 1
Ġpo sterior
create DataFrame
Ġpy mongo
ume xp
AL LE
Ġrun All
AS SERT
md isk
'. ")
no red
local ize
row Attack
Ġline age
pri mitives
doc strings
Ġmin idom
LO SS
item size
opt una
CH AIN
18 3
Ġsy mbolic
ĠAr m
Ġsp ans
Ġtrans it
Ġtrans posed
tf idf
86158 05
86158 46
ĠQ Application
ĠQ iskit
Ġany where
Ġexp ressed
Ġver b
Value SizeConstraint
scope d
Ġread me
Not Supported
Request ID
Bo mb
Al locate
way point
25 9
other wise
An chor
Ġmark ov
Index er
has attr
VER BOSE
Ġgraph s
Comp arison
access ible
skip na
CL ASSI
long long
27 8
EL LI
non dim
Ġidx s
Ġbin aries
23 8
Ġprefix ed
sig mas
Ġloc ator
ĠEn coder
ĠRun s
desc ent
reed y
Ġaut os
Ġannot ated
Ġauto scaler
ĠSh ared
Ġmod info
Ð¸ Ð¸
ĠTo ol
ĠComp are
88 3
TER M
On ce
('- ')
Ġ[[ ]
PER ATION
Ġrece iving
ÑĤ Ð¸
Box es
åĲ «
free list
åį ·
quant ization
ĠSy stems
Def initions
Ġmarket Id
Ġside s
Ġmove ptr
Ġrest ored
ĠSub Element
æł ¡
enum erate
Ġfree vars
writ elines
Ġbad chars
Ġå °
Ġattemp ting
============ ==
cons umption
ĠCDF Error
Ġcomm unication
mult iline
Agent Pool
Rel u
Mark down
Ġmodifi ers
micro version
heat maps
Ġsche mas
xim ity
Pi Camera
æĿ ¡
Ġcent ered
(?: [
ĠStruct Field
Edge s
åĬł è½½
Ver ified
Ġlb Entry
anc illa
ĠAUT O
Ġmeas ured
mut ations
colour s
STATIC FILES
Join ByTicket
attemp t
ĠMay be
Predict or
ali ased
numer ical
Yan An
ĠRealm AuditLog
ĠTra ffic
å¤ļ éĢīé¢ĺ
Ġemp loyment
Bgp Ls
fam ilies
Ġke eps
ĠAllow s
Adapt ive
ĠDraw ing
Qing yuan
ĠFix ed
erk le
è¶ ħ
GIT HUB
Sparse Tensor
Coordinate System
MON IT
Ġ============= ===
tal ent
Ġclust erer
rout ine
ĠDer ivative
Ġeigen values
å¥ ½
Sl ug
SECON D
Wen zhou
Ġign oring
HIST ORICAL
monkey patch
SPAR E
remo vals
TOR CH
ĠCent ral
GOO GLE
bay es
ĠReplica State
lore x
ĠIndexOps Like
æĶ¯ æĮģ
irp stack
prevent JoinByTicket
ĠEMP TY
Participant ID
Npy Iter
Bump er
ĠFAI LED
FHIRPrimitive ExtensionType
ĠprintDebug Message
ĠrunAll Tests
' ')
' ``.
( @
) ]:
* ?
- (
/ __
0 64
2 14748364
3 55
4 95
5 13
8 944
A IG
B urst
C red
C ity
C lip
D RA
D NS
E t
M om
O ct
O QL
P ie
P lane
R V
R ATION
S aml
T runcated
W B
W elcome
X PATH
Y EAR
h ba
h aps
j f
l ith
m om
m utable
n oc
n ake
o vers
o qing
q ab
s ct
s izer
s pread
s weep
s nowflake
z ion
å ł
è ¢«
ê ¸°
Ġ ãĥ
Ġ âĺ
Ġ angular
se mester
st anford
Ġt g
Ġt ur
sel enium
Ġi mag
Ġc u
Ġc udf
Ġ' </
Ġf ailover
Ġp or
Ġp itch
Ġp wd
Ġp ressed
Ġre base
Ġre pl
Ġin verted
Ġs licer
ent Wlan
Ġa udi
Ġm time
co vid
co lorex
un able
un started
Ġb ob
ul ator
() \
Ġw id
ort une
ri o
ri cal
pt z
ma cd
Ġto wn
ĠT ER
Ġ[ .
Ġ1 02
ab tu
Ġu a
Ġe mitted
(" ***
to dict
od d
ĠS ol
ĠS core
ĠS ocket
ĠS cheduler
ĠS outh
ĠC UR
Ġth issize
from file
#### ###
Ġst imulus
Ġg ram
Ġex ponent
Ġ: ]),
key store
out out
out Dir
ine matics
add res
add Cleanup
Ġr fm
ĠP ID
ĠD ag
ĠĠĠĠĠĠĠĠĠĠĠĠĠĠĠĠĠĠĠĠĠĠĠĠĠĠĠĠĠĠĠĠ ĠĠĠĠĠĠĠĠĠĠĠĠĠĠĠĠĠĠĠĠĠĠĠĠĠĠĠĠĠĠĠĠĠĠĠĠĠĠ
Ġme id
fo cal
py gments
Ġtest Zipf
Ġdata gen
Ġpro be
Ġse alapi
ĠM D
ang bind
ip c
ĠN M
ĠN ONE
Ġan imal
ĠB FD
loc ally
ac ies
Ġun wind
Ġun suitable
ph ys
ĠĠĠĠĠĠĠĠĠĠĠĠĠĠĠĠĠĠĠĠĠĠĠĠ ĠĠĠĠčĊ
ff b
ĠV IEW
config Def
77 4
10 37
Ġpre amble
update Log
Ġtime d
ca mpo
12 00
32 9
work dir
Ex ponential
net id
Ġcomp as
Ġcomp osite
Ġ5 3
exp m
Ġj dx
Ġj ina
lob als
gener ators
module Base
Ġsup posed
ail er
rep lies
Id Error
lement s
ak ou
Ġ[' *.
... ',
Ġurl join
Ġ6 1
Ġ6 7
ĠAn n
ENT ER
Ġdb c
hand led
Get Branch
struct s
Ġopen pyxl
ĠSe mantic
ĠCo ordin
Ġsp k
Text area
Ġpa ste
Po ssible
my pkg
Ġback ref
Config Property
annot ator
Ġ... ],
Ob servation
The se
65 535
84 3
ten ess
03 7
ĠIN IT
])) .
Ġparent Symbol
Ġ'. ',
Ġ'. '.
cast s
Ġpython com
INT ENT
(* )
VER Y
edit ed
web driver
MO DES
Qu eries
Qu ota
ï¼ ģ
'][ _
[...]
