{"<pad>":0,"<s>":1,"</s>":2,"<unk>":3,"<mask>":4,"<|code|>":5,"<|endofcode|>":6,"!":7,"\"":8,"#":9,"$":10,"%":11,"&":12,"'":13,"(":14,")":15,"*":16,"+":17,",":18,"-":19,".":20,"/":21,"0":22,"1":23,"2":24,"3":25,"4":26,"5":27,"6":28,"7":29,"8":30,"9":31,":":32,";":33,"<":34,"=":35,">":36,"?":37,"@":38,"A":39,"B":40,"C":41,"D":42,"E":43,"F":44,"G":45,"H":46,"I":47,"J":48,"K":49,"L":50,"M":51,"N":52,"O":53,"P":54,"Q":55,"R":56,"S":57,"T":58,"U":59,"V":60,"W":61,"X":62,"Y":63,"Z":64,"[":65,"\\":66,"]":67,"^":68,"_":69,"`":70,"a":71,"b":72,"c":73,"d":74,"e":75,"f":76,"g":77,"h":78,"i":79,"j":80,"k":81,"l":82,"m":83,"n":84,"o":85,"p":86,"q":87,"r":88,"s":89,"t":90,"u":91,"v":92,"w":93,"x":94,"y":95,"z":96,"{":97,"|":98,"}":99,"~":100,"¡":101,"¢":102,"£":103,"¤":104,"¥":105,"¦":106,"§":107,"¨":108,"©":109,"ª":110,"«":111,"¬":112,"®":113,"¯":114,"°":115,"±":116,"²":117,"³":118,"´":119,"µ":120,"¶":121,"·":122,"¸":123,"¹":124,"º":125,"»":126,"¼":127,"½":128,"¾":129,"¿":130,"À":131,"Á":132,"Â":133,"Ã":134,"Ä":135,"Å":136,"Æ":137,"Ç":138,"È":139,"É":140,"Ê":141,"Ë":142,"Ì":143,"Í":144,"Î":145,"Ï":146,"Ð":147,"Ñ":148,"Ò":149,"Ó":150,"Ô":151,"Õ":152,"Ö":153,"×":154,"Ø":155,"Ù":156,"Ú":157,"Û":158,"Ü":159,"Ý":160,"Þ":161,"ß":162,"à":163,"á":164,"â":165,"ã":166,"ä":167,"å":168,"æ":169,"ç":170,"è":171,"é":172,"ê":173,"ë":174,"ì":175,"í":176,"î":177,"ï":178,"ð":179,"ñ":180,"ò":181,"ó":182,"ô":183,"õ":184,"ö":185,"÷":186,"ø":187,"ù":188,"ú":189,"û":190,"ü":191,"ý":192,"þ":193,"ÿ":194,"Ā":195,"ā":196,"Ă":197,"ă":198,"Ą":199,"ą":200,"Ć":201,"ć":202,"Ĉ":203,"ĉ":204,"Ċ":205,"ċ":206,"Č":207,"č":208,"Ď":209,"ď":210,"Đ":211,"đ":212,"Ē":213,"ē":214,"Ĕ":215,"ĕ":216,"Ė":217,"ė":218,"Ę":219,"ę":220,"Ě":221,"ě":222,"Ĝ":223,"ĝ":224,"Ğ":225,"ğ":226,"Ġ":227,"ġ":228,"Ģ":229,"ģ":230,"Ĥ":231,"ĥ":232,"Ħ":233,"ħ":234,"Ĩ":235,"ĩ":236,"Ī":237,"ī":238,"Ĭ":239,"ĭ":240,"Į":241,"į":242,"İ":243,"ı":244,"Ĳ":245,"ĳ":246,"Ĵ":247,"ĵ":248,"Ķ":249,"ķ":250,"ĸ":251,"Ĺ":252,"ĺ":253,"Ļ":254,"ļ":255,"Ľ":256,"ľ":257,"Ŀ":258,"ŀ":259,"Ł":260,"ł":261,"Ń":262,"ĠĠ":263,"ĠĠĠĠ":264,"ĠĠĠ":265,"se":266,"ĠĠĠĠĠĠĠ":267,"lf":268,"self":269,"de":270,"st":271,"Ġi":272,"re":273,"Ġ=":274,"Ġself":275,"def":276,"or":277,"Ġre":278,"it":279,"en":280,"ur":281,"Ġdef":282,"ist":283,"ue":284,"ne":285,"):":286,"Ġin":287,"Ġret":288,"ar":289,"as":290,"urn":291,"Ġreturn":292,"em":293,"in":294,"Ġt":295,"._":296,"al":297,"Ġf":298,"ĠĠĠĠĠĠĠĠĠĠĠ":299,"Ġ-":300,"le":301,"Ġc":302,"Ġl":303,"lt":304,"ult":305,"Ġ->":306,"__":307,"ig":308,"ke":309,"item":310,"er":311,"Ġif":312,"str":313,"at":314,"no":315,"Ġ[":316,"Ġb":317,"ge":318,"ic":319,"on":320,"ask":321,"igh":322,"key":323,"sult":324,"val":325,"List":326,"No":327,"ac":328,"ap":329,"xt":330,"Ġw":331,"value":332,"id":333,"Ġresult":334,"Ġint":335,"Ġfor":336,"items":337,"ict":338,"las":339,"pt":340,"pen":341,"()":342,"im":343,"ow":344,"Ġe":345,"Ġstr":346,"None":347,"lass":348,"ad":349,"ed":350,"he":351,"list":352,"nt":353,"Ġm":354,"arr":355,"pend":356,"an":357,"class":358,"Ġd":359,"Ġ__":360,"Ġno":361,"ĠList":362,"ĠNone":363,"star":364,"ort":365,"__(":366,"Ġ[]":367,"append":368,"start":369,"Ġ+":370,"Ġ1":371,"Ġp":372,"Ġkey":373,"Ġis":374,"rent":375,"urrent":376,"init":377,"Ġlist":378,"ext":379,"ven":380,"Ġr":381,"Ġs":382,"Ġne":383,"set":384,"ueue":385,"Ġcurrent":386,"Ġnot":387,"vent":388,"gs":389,"iz":390,"lo":391,"om":392,"queue":393,"tem":394,"Ġvalue":395,"der":396,"sto":397,"order":398,"ind":399,"node":400,"ight":401,"ack":402,"Ġdict":403,"ize":404,"\")":405,"Task":406,"ault":407,"ce":408,"ion":409,"ol":410,"port":411,"ror":412,"rom":413,"Ġarr":414,"itle":415,"ing":416,"Ġtext":417,"all":418,"Ġlen":419,"get":420,"Ġwind":421,"ption":422,"ime":423,"loat":424,"store":425,"Ġwindow":426,"\",":427,"ax":428,"bor":429,"back":430,"el":431,"ior":432,"op":433,"rior":434,"th":435,"task":436,"Ġ*":437,"Ġ<":438,"Ġa":439,"Ġx":440,"Ġ==":441,"ity":442,"ener":443,"ighbor":444,"idth":445,"height":446,"listener":447,"Ġmid":448,"allback":449,"riority":450,"listeners":451,"(\"":452,"An":453,"Dict":454,"]:":455,"ai":456,"hi":457,"ool":458,"pop":459,"un":460,"Ġ\"":461,"Ġ0":462,"Ġ{":463,"Ġqueue":464,"ĠDict":465,"ĠĠĠĠĠĠĠĠĠĠĠĠĠĠĠ":466,"Ġitem":467,"default":468,"next":469,"Ġtask":470,"Ġfi":471,"Ġfloat":472,"Ġcallback":473,"Ġbool":474,"Ġwhi":475,"add":476,"edge":477,"head":478,"Ġrai":479,"tasks":480,"Any":481,"Ġwhile":482,"Ġraise":483,").":484,"Er":485,"Lin":486,"Option":487,"ags":488,"dList":489,"event":490,"fig":491,"from":492,"high":493,"is":494,"iv":495,"mport":496,"ot":497,"pat":498,"qu":499,"size":500,"width":501,"xce":502,"Ġ/":503,"Ġ2":504,"Ġset":505,"ĠTask":506,"ĠOption":507,"Ġhigh":508,"sed":509,"Ġimport":510,"args":511,"Ġtitle":512,"Ġcle":513,"kedList":514,"onfig":515,"apsed":516,"values":517,"Ġel":518,"Ġevent":519,"Ġpiv":520,"Ġsize":521,"setdefault":522,"elapsed":523,"Ġ<=":524,"unc":525,"Ġ{}":526,"edges":527,"Error":528,"LinkedList":529,"path":530,"ĠOptional":531,"Ġpivot":532,"In":533,"Tr":534,"],":535,"ast":536,"ane":537,"bon":538,"ci":539,"config":540,"func":541,"js":542,"ks":543,"len":544,"low":545,"max":546,"one":547,"ping":548,"priority":549,"title":550,"um":551,"vis":552,"yping":553,"Ġ>":554,"Ġg":555,"Ġo":556,"Ġen":557,"Ġas":558,"Ġem":559,"Ġan":560,"Ġstart":561,"Ġorder":562,"ĠAny":563,"Ġqu":564,"ĠLinkedList":565,"Ġjs":566,"Ġvis":567,"stan":568,"ited":569,"neighbor":570,"arget":571,"instan":572,"Ġtime":573,"Ġtags":574,"Ġtyping":575,"Ġtarget":576,"Ġlow":577,"Ġlast":578,"error":579,"atac":580,"attem":581,"icks":582,"Node":583,"acci":584,"pty":585,"import":586,"Ġexce":587,"Ġmax":588,"ange":589,"Ġpriority":590,"Ġisinstan":591,"Ġrange":592,"Ġnew":593,"Ġneighbor":594,"Ġfibon":595,"Ġ//":596,"Ġcleane":597,"Ġelse":598,"True":599,"Ġand":600,"Ġquicks":601,"Ġjson":602,"Ġvisited":603,"attempt":604,"Ġisinstance":605,"Ġfibonacci":606,"Ġcleaned":607,"Ġquicksort":608,"\"[":609,"-]":610,"=\"":611,"Fal":612,"Tim":613,"]]":614,"av":615,"cd":616,"co":617,"cle":618,"dle":619,"dict":620,"ding":621,"done":622,"ft":623,"float":624,"if":625,"ip":626,"kw":627,"lat":628,"mid":629,"ple":630,"ry":631,"su":632,"tf":633,"ten":634,"ter":635,"time":636,"utf":637,"xError":638,"Ġ(":639,"ĠR":640,"ĠS":641,"Ġn":642,"Ġde":643,"Ġor":644,"Ġheight":645,"Ġadd":646,"ĠIn":647,"ĠTrue":648,"ĠFal":649,"ĠĠĠĠĠĠĠĠĠĠĠĠĠĠĠĠĠĠĠ":650,"dest":651,"dexError":652,"sted":653,"result":654,"ith":655,"Ġdefault":656,"Ġfrom":657,"left":658,"erge":659,"strip":660,"Ġwidth":661,"Ġwith":662,"())":663,"()).":664,"Ġmerge":665,"Ġdatac":666,"Ġnode":667,"Ġ[]).":668,"Ġnext":669,"oldest":670,"ptions":671,"eld":672,"Ġ**":673,"Ġmiddle":674,"Ġfield":675,"lower":676,"Ġgcd":677,"Ġopen":678,"Ġenco":679,"Ġempty":680,"ĠLinkedListNode":681,"Ġexceptions":682,"attempts":683,"Timer":684,"clear":685,"dicts":686,"kwargs":687,"latten":688,"sub":689,"ĠIndexError":690,"ĠFalse":691,"Ġencoding":692}