#version: 0.2
Ġ Ġ
ĠĠ ĠĠ
ĠĠ Ġ
s e
ĠĠĠĠ ĠĠĠ
l f
se lf
d e
s t
Ġ i
r e
Ġ =
Ġ self
de f
o r
Ġ re
i t
e n
u r
Ġ def
i st
u e
n e
) :
Ġi n
Ġre t
a r
a s
ur n
Ġret urn
e m
i n
Ġ t
. _
a l
Ġ f
ĠĠĠĠ ĠĠĠĠĠĠĠ
Ġ -
l e
Ġ c
Ġ l
l t
u lt
Ġ- >
_ _
i g
k e
it em
e r
Ġi f
st r
a t
n o
Ġ [
Ġ b
g e
i c
o n
as k
ig h
ke y
s ult
v al
L ist
N o
a c
a p
x t
Ġ w
val ue
i d
Ġre sult
Ġin t
Ġf or
item s
ic t
l as
p t
p en
( )
i m
o w
Ġ e
Ġ str
No ne
las s
a d
e d
h e
l ist
n t
Ġ m
ar r
pen d
a n
c lass
Ġ d
Ġ __
Ġ no
Ġ List
Ġ None
st ar
or t
__ (
Ġ[ ]
ap pend
star t
Ġ +
Ġ 1
Ġ p
Ġ key
Ġi s
re nt
ur rent
in it
Ġl ist
e xt
v en
Ġ r
Ġ s
Ġ ne
se t
ue ue
Ġc urrent
Ġno t
ven t
g s
i z
l o
o m
q ueue
t em
Ġ value
de r
st o
or der
in d
no de
igh t
ac k
Ġd ict
iz e
" )
T ask
a ult
c e
i on
o l
p ort
r or
r om
Ġ arr
it le
in g
Ġt ext
al l
Ġl en
ge t
Ġw ind
pt ion
im e
lo at
sto re
Ġwind ow
" ,
a x
b or
b ack
e l
i or
o p
r ior
t h
t ask
Ġ *
Ġ <
Ġ a
Ġ x
Ġ= =
it y
en er
igh bor
id th
he ight
list ener
Ġm id
all back
rior ity
listener s
( "
A n
D ict
] :
a i
h i
o ol
p op
u n
Ġ "
Ġ 0
Ġ {
Ġ queue
Ġ Dict
ĠĠĠĠ ĠĠĠĠĠĠĠĠĠĠĠ
Ġi tem
def ault
ne xt
Ġt ask
Ġf i
Ġf loat
Ġc allback
Ġb ool
Ġw hi
ad d
ed ge
he ad
Ġr ai
task s
An y
Ġwhi le
Ġrai se
) .
E r
L in
O ption
a gs
d List
e vent
f ig
f rom
h igh
i s
i v
m port
o t
p at
q u
s ize
w idth
x ce
Ġ /
Ġ 2
Ġ set
Ġ Task
Ġ Option
Ġ high
se d
Ġi mport
ar gs
Ġt itle
Ġc le
ke dList
on fig
ap sed
value s
Ġe l
Ġe vent
Ġp iv
Ġs ize
set default
el apsed
Ġ< =
un c
Ġ{ }
edge s
Er ror
Lin kedList
pat h
ĠOption al
Ġpiv ot
I n
T r
] ,
a st
a ne
b on
c i
c onfig
f unc
j s
k s
l en
l ow
m ax
o ne
p ing
p riority
t itle
u m
v is
y ping
Ġ >
Ġ g
Ġ o
Ġ en
Ġ as
Ġ em
Ġ an
Ġ start
Ġ order
Ġ Any
Ġ qu
Ġ LinkedList
Ġ js
Ġ vis
st an
it ed
ne ighbor
ar get
in stan
Ġt ime
Ġt ags
Ġt yping
Ġt arget
Ġl ow
Ġl ast
er ror
at ac
at tem
ic ks
No de
ac ci
pt y
im port
Ġe xce
Ġm ax
an ge
Ġp riority
Ġis instan
Ġr ange
Ġne w
Ġne ighbor
Ġfi bon
Ġ/ /
Ġcle ane
Ġel se
Tr ue
Ġan d
Ġqu icks
Ġjs on
Ġvis ited
attem pt
Ġisinstan ce
Ġfibon acci
Ġcleane d
Ġquicks ort
" [
- ]
= "
F al
T im
] ]
a v
c d
c o
c le
d le
d ict
d ing
d one
f t
f loat
i f
i p
k w
l at
m id
p le
r y
s u
t f
t en
t er
t ime
u tf
x Error
Ġ (
Ġ R
Ġ S
Ġ n
Ġ de
Ġ or
Ġ height
Ġ add
Ġ In
Ġ True
Ġ Fal
ĠĠĠĠ ĠĠĠĠĠĠĠĠĠĠĠĠĠĠĠ
de st
de xError
st ed
re sult
it h
Ġdef ault
Ġf rom
le ft
er ge
str ip
Ġw idth
Ġw ith
() )
() ).
Ġm erge
Ġd atac
Ġno de
Ġ[] ).
Ġne xt
ol dest
ption s
el d
Ġ* *
Ġmid dle
Ġfi eld
low er
Ġg cd
Ġo pen
Ġen co
Ġem pty
ĠLinkedList Node
Ġexce ptions
attempt s
Tim er
cle ar
dict s
kw args
lat ten
su b
ĠIn dexError
ĠFal se
Ġenco ding
