{
  "version": "1.0",
  "truncation": null,
  "padding": null,
  "added_tokens": [
    {
      "id": 0,
      "content": "<pad>",
      "single_word": false,
      "lstrip": false,
      "rstrip": false,
      "normalized": false,
      "special": true
    },
    {
      "id": 1,
      "content": "<s>",
      "single_word": false,
      "lstrip": false,
      "rstrip": false,
      "normalized": false,
      "special": true
    },
    {
      "id": 2,
      "content": "</s>",
      "single_word": false,
      "lstrip": false,
      "rstrip": false,
      "normalized": false,
      "special": true
    },
    {
      "id": 3,
      "content": "<unk>",
      "single_word": false,
      "lstrip": false,
      "rstrip": false,
      "normalized": false,
      "special": true
    },
    {
      "id": 4,
      "content": "<mask>",
      "single_word": false,
      "lstrip": false,
      "rstrip": false,
      "normalized": false,
      "special": true
    },
    {
      "id": 5,
      "content": "<|code|>",
      "single_word": false,
      "lstrip": false,
      "rstrip": false,
      "normalized": false,
      "special": true
    },
    {
      "id": 6,
      "content": "<|endofcode|>",
      "single_word": false,
      "lstrip": false,
      "rstrip": false,
      "normalized": false,
      "special": true
    }
  ],
  "normalizer": null,
  "pre_tokenizer": {
    "type": "ByteLevel",
    "add_prefix_space": false,
    "trim_offsets": true,
    "use_regex": true
  },
  "post_processor": {
    "type": "ByteLevel",
    "add_prefix_space": true,
    "trim_offsets": false,
    "use_regex": true
  },
  "decoder": {
    "type": "ByteLevel",
    "add_prefix_space": true,
    "trim_offsets": true,
    "use_regex": true
  },
  "model": {
    "type": "BPE",
    "dropout": null,
    "unk_token": null,
    "continuing_subword_prefix": null,
    "end_of_word_suffix": null,
    "fuse_unk": false,
    "byte_fallback": false,
    "ignore_merges": false,
    "vocab": {
      "<pad>": 0,
      "<s>": 1,
      "</s>": 2,
      "<unk>": 3,
      "<mask>": 4,
      "<|code|>": 5,
      "<|endofcode|>": 6,
      "!": 7,
      "\"": 8,
      "#": 9,
      "$": 10,
      "%": 11,
      "&": 12,
      "'": 13,
      "(": 14,
      ")": 15,
      "*": 16,
      "+": 17,
      ",": 18,
      "-": 19,
      ".": 20,
      "/": 21,
      "0": 22,
      "1": 23,
      "2": 24,
      "3": 25,
      "4": 26,
      "5": 27,
      "6": 28,
      "7": 29,
      "8": 30,
      "9": 31,
      ":": 32,
      ";": 33,
      "<": 34,
      "=": 35,
      ">": 36,
      "?": 37,
      "@": 38,
      "A": 39,
      "B": 40,
      "C": 41,
      "D": 42,
      "E": 43,
      "F": 44,
      "G": 45,
      "H": 46,
      "I": 47,
      "J": 48,
      "K": 49,
      "L": 50,
      "M": 51,
      "N": 52,
      "O": 53,
      "P": 54,
      "Q": 55,
      "R": 56,
      "S": 57,
      "T": 58,
      "U": 59,
      "V": 60,
      "W": 61,
      "X": 62,
      "Y": 63,
      "Z": 64,
      "[": 65,
      "\\": 66,
      "]": 67,
      "^": 68,
      "_": 69,
      "`": 70,
      "a": 71,
      "b": 72,
      "c": 73,
      "d": 74,
      "e": 75,
      "f": 76,
      "g": 77,
      "h": 78,
      "i": 79,
      "j": 80,
      "k": 81,
      "l": 82,
      "m": 83,
      "n": 84,
      "o": 85,
      "p": 86,
      "q": 87,
      "r": 88,
      "s": 89,
      "t": 90,
      "u": 91,
      "v": 92,
      "w": 93,
      "x": 94,
      "y": 95,
      "z": 96,
      "{": 97,
      "|": 98,
      "}": 99,
      "~": 100,
      "¡": 101,
      "¢": 102,
      "£": 103,
      "¤": 104,
      "¥": 105,
      "¦": 106,
      "§": 107,
      "¨": 108,
      "©": 109,
      "ª": 110,
      "«": 111,
      "¬": 112,
      "®": 113,
      "¯": 114,
      "°": 115,
      "±": 116,
      "²": 117,
      "³": 118,
      "´": 119,
      "µ": 120,
      "¶": 121,
      "·": 122,
      "¸": 123,
      "¹": 124,
      "º": 125,
      "»": 126,
      "¼": 127,
      "½": 128,
      "¾": 129,
      "¿": 130,
      "À": 131,
      "Á": 132,
      "Â": 133,
      "Ã": 134,
      "Ä": 135,
      "Å": 136,
      "Æ": 137,
      "Ç": 138,
      "È": 139,
      "É": 140,
      "Ê": 141,
      "Ë": 142,
      "Ì": 143,
      "Í": 144,
      "Î": 145,
      "Ï": 146,
      "Ð": 147,
      "Ñ": 148,
      "Ò": 149,
      "Ó": 150,
      "Ô": 151,
      "Õ": 152,
      "Ö": 153,
      "×": 154,
      "Ø": 155,
      "Ù": 156,
      "Ú": 157,
      "Û": 158,
      "Ü": 159,
      "Ý": 160,
      "Þ": 161,
      "ß": 162,
      "à": 163,
      "á": 164,
      "â": 165,
      "ã": 166,
      "ä": 167,
      "å": 168,
      "æ": 169,
      "ç": 170,
      "è": 171,
      "é": 172,
      "ê": 173,
      "ë": 174,
      "ì": 175,
      "í": 176,
      "î": 177,
      "ï": 178,
      "ð": 179,
      "ñ": 180,
      "ò": 181,
      "ó": 182,
      "ô": 183,
      "õ": 184,
      "ö": 185,
      "÷": 186,
      "ø": 187,
      "ù": 188,
      "ú": 189,
      "û": 190,
      "ü": 191,
      "ý": 192,
      "þ": 193,
      "ÿ": 194,
      "Ā": 195,
      "ā": 196,
      "Ă": 197,
      "ă": 198,
      "Ą": 199,
      "ą": 200,
      "Ć": 201,
      "ć": 202,
      "Ĉ": 203,
      "ĉ": 204,
      "Ċ": 205,
      "ċ": 206,
      "Č": 207,
      "č": 208,
      "Ď": 209,
      "ď": 210,
      "Đ": 211,
      "đ": 212,
      "Ē": 213,
      "ē": 214,
      "Ĕ": 215,
      "ĕ": 216,
      "Ė": 217,
      "ė": 218,
      "Ę": 219,
      "ę": 220,
      "Ě": 221,
      "ě": 222,
      "Ĝ": 223,
      "ĝ": 224,
      "Ğ": 225,
      "ğ": 226,
      "Ġ": 227,
      "ġ": 228,
      "Ģ": 229,
      "ģ": 230,
      "Ĥ": 231,
      "ĥ": 232,
      "Ħ": 233,
      "ħ": 234,
      "Ĩ": 235,
      "ĩ": 236,
      "Ī": 237,
      "ī": 238,
      "Ĭ": 239,
      "ĭ": 240,
      "Į": 241,
      "į": 242,
      "İ": 243,
      "ı": 244,
      "Ĳ": 245,
      "ĳ": 246,
      "Ĵ": 247,
      "ĵ": 248,
      "Ķ": 249,
      "ķ": 250,
      "ĸ": 251,
      "Ĺ": 252,
      "ĺ": 253,
      "Ļ": 254,
      "ļ": 255,
      "Ľ": 256,
      "ľ": 257,
      "Ŀ": 258,
      "ŀ": 259,
      "Ł": 260,
      "ł": 261,
      "Ń": 262,
      "ĠĠ": 263,
      "ĠĠĠĠ": 264,
      "čĊ": 265,
      "ĠĠĠ": 266,
      "ĠĠĠĠĠĠĠĠ": 267,
      "se": 268,
      "in": 269,
      "ĠĠĠĠĠĠĠ": 270,
      "on": 271,
      "re": 272,
      "at": 273,
      "er": 274,
      "st": 275,
      "or": 276,
      "Ġ=": 277,
      "Ġt": 278,
      "en": 279,
      "de": 280,
      "al": 281,
      "ar": 282,
      "ĠĠĠĠĠĠĠĠĠĠĠ": 283,
      "sel": 284,
      "an": 285,
      "self": 286,
      "le": 287,
      "me": 288,
      "Ġi": 289,
      "ion": 290,
      "he": 291,
      "--": 292,
      "it": 293,
      "Ġc": 294,
      "Ġ'": 295,
      "ro": 296,
      "Ġ\"": 297,
      "Ġf": 298,
      "ct": 299,
      "Ġp": 300,
      "as": 301,
      "ce": 302,
      "ge": 303,
      "ut": 304,
      "ĠĠĠĠĠĠĠĠĠĠĠĠĠĠĠĠ": 305,
      "Ġself": 306,
      "ur": 307,
      "Ġre": 308,
      "Ġn": 309,
      "lo": 310,
      "mp": 311,
      "Ġin": 312,
      "Ġs": 313,
      "ing": 314,
      "pe": 315,
      "ame": 316,
      "ue": 317,
      "):": 318,
      "Ġo": 319,
      "ent": 320,
      "Ġa": 321,
      "li": 322,
      "',": 323,
      "Ġm": 324,
      "ate": 325,
      "co": 326,
      "Ġthe": 327,
      "un": 328,
      "ex": 329,
      "Ġd": 330,
      "id": 331,
      "Ġb": 332,
      "def": 333,
      "ad": 334,
      "ch": 335,
      "Ġ#": 336,
      "fi": 337,
      "ĠĠĠĠĠĠĠĠĠĠĠĠĠĠĠ": 338,
      "ser": 339,
      "ed": 340,
      "ra": 341,
      "ot": 342,
      "ck": 343,
      "ul": 344,
      "el": 345,
      "----": 346,
      "Ġif": 347,
      "um": 348,
      "()": 349,
      "Ġw": 350,
      "ort": 351,
      "ss": 352,
      "':": 353,
      "ri": 354,
      "\"\"": 355,
      "pt": 356,
      "urn": 357,
      "Ġ(": 358,
      "and": 359,
      "##": 360,
      "one": 361,
      "turn": 362,
      "\",": 363,
      "ype": 364,
      "ode": 365,
      "val": 366,
      "Ġdef": 367,
      "get": 368,
      "is": 369,
      "il": 370,
      "es": 371,
      "ata": 372,
      "ol": 373,
      "Ġfor": 374,
      "la": 375,
      "int": 376,
      "ččĊ": 377,
      "')": 378,
      "ation": 379,
      "('": 380,
      "name": 381,
      "ma": 382,
      "di": 383,
      "est": 384,
      "Ġto": 385,
      "Ġis": 386,
      "up": 387,
      "con": 388,
      "Ġreturn": 389,
      "str": 390,
      "None": 391,
      "ĠT": 392,
      "__": 393,
      "et": 394,
      "mport": 395,
      "set": 396,
      "Ġ[": 397,
      "ect": 398,
      "Ġ1": 399,
      "ter": 400,
      "arg": 401,
      "==": 402,
      "ver": 403,
      "iz": 404,
      "rom": 405,
      "ult": 406,
      "th": 407,
      "Ġof": 408,
      "ap": 409,
      "00": 410,
      "),": 411,
      "Ġ+": 412,
      "ass": 413,
      "']": 414,
      "Ġ\"\"\"": 415,
      "ke": 416,
      "am": 417,
      "Ġ-": 418,
      "ab": 419,
      "qu": 420,
      "type": 421,
      "put": 422,
      "Ġ0": 423,
      "ath": 424,
      "ext": 425,
      "res": 426,
      "))": 427,
      "Ġ{": 428,
      "Ġu": 429,
      "ĠĠĠĠĠĠĠĠĠĠĠĠĠĠĠĠĠĠĠ": 430,
      "ig": 431,
      "Ġe": 432,
      "po": 433,
      "Ġas": 434,
      "age": 435,
      "value": 436,
      "(\"": 437,
      "ve": 438,
      "par": 439,
      "ht": 440,
      "Ġcon": 441,
      "to": 442,
      "['": 443,
      "\":": 444,
      "od": 445,
      "ption": 446,
      "ĠS": 447,
      "ĠA": 448,
      "ĠC": 449,
      "end": 450,
      "Ġnot": 451,
      "vi": 452,
      "orm": 453,
      "cl": 454,
      "ith": 455,
      "._": 456,
      "ction": 457,
      "ĠNone": 458,
      "ic": 459,
      "--------": 460,
      "ime": 461,
      "all": 462,
      "Ġth": 463,
      "from": 464,
      "rue": 465,
      "pro": 466,
      "sert": 467,
      "####": 468,
      "Ġand": 469,
      "Ġst": 470,
      "odel": 471,
      "Ġimport": 472,
      "list": 473,
      "args": 474,
      "per": 475,
      "ĠĠĠĠĠ": 476,
      "Ġg": 477,
      "\")": 478,
      "Ġex": 479,
      "ran": 480,
      "Ġl": 481,
      "able": 482,
      "Ġ==": 483,
      "ub": 484,
      "ize": 485,
      "data": 486,
      "Ġh": 487,
      "Ġ:": 488,
      "ror": 489,
      "],": 490,
      "ta": 491,
      "ject": 492,
      "Ġde": 493,
      "In": 494,
      "ist": 495,
      "us": 496,
      "ile": 497,
      "Ġco": 498,
      "key": 499,
      "Ġres": 500,
      "ĠF": 501,
      "path": 502,
      "der": 503,
      "que": 504,
      "log": 505,
      "Ġ_": 506,
      "ment": 507,
      "out": 508,
      "Ġ2": 509,
      "te": 510,
      "form": 511,
      "ase": 512,
      "01": 513,
      "Ġ*": 514,
      "ine": 515,
      "Ġor": 516,
      "Re": 517,
      "sc": 518,
      "ance": 519,
      "ren": 520,
      "file": 521,
      "sh": 522,
      "='": 523,
      "ack": 524,
      "ow": 525,
      "Ġbe": 526,
      "alse": 527,
      "add": 528,
      "====": 529,
      "ob": 530,
      "our": 531,
      "Ġr": 532,
      "fig": 533,
      "ĠP": 534,
      "app": 535,
      "ers": 536,
      "im": 537,
      "])": 538,
      "ĠD": 539,
      "art": 540,
      "ĠĠĠĠĠĠĠĠĠĠĠĠĠĠĠĠĠĠĠĠĠĠĠĠĠĠĠĠĠĠĠĠ": 541,
      "Ġme": 542,
      "ew": 543,
      "red": 544,
      "fo": 545,
      "che": 546,
      "py": 547,
      "Ġwith": 548,
      "quest": 549,
      "},": 550,
      "ite": 551,
      "mb": 552,
      "ps": 553,
      "ĠL": 554,
      "class": 555,
      "tr": 556,
      "Ġstr": 557,
      "test": 558,
      "Ġtest": 559,
      "else": 560,
      "ial": 561,
      "atch": 562,
      "Ġ%": 563,
      "Ġdata": 564,
      "ure": 565,
      "ds": 566,
      "Ġelse": 567,
      "ault": 568,
      "time": 569,
      "Ġname": 570,
      "bo": 571,
      "ly": 572,
      "Ġv": 573,
      "ĠI": 574,
      "ens": 575,
      "Ġpro": 576,
      "rint": 577,
      "Ġ)": 578,
      "import": 579,
      "ĠO": 580,
      "ource": 581,
      "mple": 582,
      "Ġvalue": 583,
      "ity": 584,
      "pre": 585,
      "Ġse": 586,
      "if": 587,
      "om": 588,
      "param": 589,
      "ĠE": 590,
      "Ġma": 591,
      "wor": 592,
      "ĠM": 593,
      "lab": 594,
      "ho": 595,
      "Ġx": 596,
      "unt": 597,
      "=\"": 598,
      "True": 599,
      "stance": 600,
      "ang": 601,
      "dex": 602,
      "date": 603,
      "fe": 604,
      "mo": 605,
      "ise": 606,
      "roup": 607,
      "Ġpar": 608,
      "pon": 609,
      "Ġy": 610,
      "ER": 611,
      "rror": 612,
      "assert": 613,
      "Ġ@": 614,
      "ĠĠĠĠĠĠĠĠĠĠĠĠĠĠĠĠĠĠĠĠĠĠĠ": 615,
      "low": 616,
      "ip": 617,
      "init": 618,
      "tri": 619,
      "size": 620,
      "text": 621,
      "Error": 622,
      "load": 623,
      "ule": 624,
      "model": 625,
      "url": 626,
      "lic": 627,
      "of": 628,
      "ms": 629,
      "code": 630,
      "[\"": 631,
      "Ġnp": 632,
      "col": 633,
      "02": 634,
      "########": 635,
      "reate": 636,
      "Ġ`": 637,
      "label": 638,
      "sp": 639,
      "ponse": 640,
      "ON": 641,
      "lay": 642,
      "Ġhe": 643,
      "ĠN": 644,
      "rain": 645,
      "oc": 646,
      "..": 647,
      "dict": 648,
      "dd": 649,
      "len": 650,
      "ssage": 651,
      "Ġan": 652,
      "IN": 653,
      "ir": 654,
      "Ġfile": 655,
      "Ġget": 656,
      "op": 657,
      "mage": 658,
      "eld": 659,
      "Ġon": 660,
      "cess": 661,
      "ag": 662,
      "Ġ>": 663,
      "ies": 664,
      "vice": 665,
      "ust": 666,
      "Ġassert": 667,
      "----------------": 668,
      "\"\"\"": 669,
      "ifi": 670,
      "Ġcl": 671,
      "Ġtype": 672,
      "ĠB": 673,
      "Ġthis": 674,
      ").": 675,
      "ind": 676,
      "loc": 677,
      "htt": 678,
      "ty": 679,
      "ES": 680,
      "\"]": 681,
      "com": 682,
      "ument": 683,
      "Ġprint": 684,
      "ray": 685,
      "Ġout": 686,
      "ener": 687,
      "rent": 688,
      "os": 689,
      "Ġ3": 690,
      "Ġset": 691,
      "ator": 692,
      "ĠThe": 693,
      "vers": 694,
      "lock": 695,
      "ape": 696,
      "sed": 697,
      "user": 698,
      "ĉĉ": 699,
      "Ġk": 700,
      "format": 701,
      "ug": 702,
      "Ġ__": 703,
      "//": 704,
      "ask": 705,
      "valid": 706,
      "Ġnum": 707,
      "Ġfrom": 708,
      "ac": 709,
      "ĠTrue": 710,
      "error": 711,
      "Ġob": 712,
      "dir": 713,
      "ory": 714,
      "pec": 715,
      "Ġun": 716,
      "thod": 717,
      "ry": 718,
      "lient": 719,
      "num": 720,
      "qual": 721,
      "append": 722,
      "15": 723,
      "Ġlist": 724,
      "Ġmodel": 725,
      "port": 726,
      "ay": 727,
      "sa": 728,
      "ute": 729,
      "ph": 730,
      "node": 731,
      "ive": 732,
      "Con": 733,
      "ight": 734,
      "Ġra": 735,
      "Ġdi": 736,
      "ssion": 737,
      "fa": 738,
      "scri": 739,
      "ĠĠĠĠĠĠĠĠĠĠĠĠĠĠĠĠĠĠĠĠĠĠĠĠ": 740,
      "ns": 741,
      "AT": 742,
      "::": 743,
      "min": 744,
      "js": 745,
      "Ġthat": 746,
      "86": 747,
      "ff": 748,
      "ĠV": 749,
      "yn": 750,
      "version": 751,
      "ĠR": 752,
      "Ġlen": 753,
      "wargs": 754,
      "config": 755,
      "ber": 756,
      "ary": 757,
      "und": 758,
      "ings": 759,
      "ĠG": 760,
      "Ġ<": 761,
      "info": 762,
      "Ġlog": 763,
      "array": 764,
      "False": 765,
      "unction": 766,
      "://": 767,
      "{'": 768,
      "ock": 769,
      "read": 770,
      "ĠĠĠĠĠĠ": 771,
      "Ġresult": 772,
      "ameter": 773,
      "ĠFalse": 774,
      "Ġat": 775,
      "tent": 776,
      "Ġwh": 777,
      "ww": 778,
      "Ġen": 779,
      "pp": 780,
      "ger": 781,
      "ĠW": 782,
      "line": 783,
      "stat": 784,
      "ĠU": 785,
      "ign": 786,
      "instance": 787,
      "Ġby": 788,
      "iv": 789,
      "ield": 790,
      "count": 791,
      "ant": 792,
      "Ġch": 793,
      "Ġos": 794,
      "========": 795,
      "ces": 796,
      "range": 797,
      "Ġal": 798,
      "odule": 799,
      "ild": 800,
      "Ġdefault": 801,
      "cept": 802,
      "ill": 803,
      "ĠRe": 804,
      "og": 805,
      "ann": 806,
      "ĠH": 807,
      "77": 808,
      "OR": 809,
      "ense": 810,
      "pect": 811,
      "__(": 812,
      "ep": 813,
      "mit": 814,
      "10": 815,
      "ud": 816,
      "wa": 817,
      "Ġpre": 818,
      "arget": 819,
      "ore": 820,
      "loat": 821,
      "json": 822,
      "rans": 823,
      "update": 824,
      "EN": 825,
      "Ġraise": 826,
      "ard": 827,
      "ition": 828,
      "XX": 829,
      "():": 830,
      "Ġint": 831,
      "ress": 832,
      "uth": 833,
      "Ġkey": 834,
      "ok": 835,
      "Ġcol": 836,
      "Ġtime": 837,
      "ated": 838,
      "nect": 839,
      "Ġsh": 840,
      "Ġwe": 841,
      "('\\": 842,
      "gs": 843,
      "Ġro": 844,
      "index": 845,
      "ations": 846,
      "by": 847,
      "ST": 848,
      "ery": 849,
      "([": 850,
      "ll": 851,
      "zh": 852,
      "ptions": 853,
      "cur": 854,
      "ensor": 855,
      "group": 856,
      "heck": 857,
      "lif": 858,
      "Ġ{}": 859,
      "vent": 860,
      "Ġare": 861,
      "rect": 862,
      "ID": 863,
      "Ġ4": 864,
      "**": 865,
      "max": 866,
      "ĠĠĠĠĠĠĠĠĠ": 867,
      "sub": 868,
      "Ġ->": 869,
      "].": 870,
      "ca": 871,
      "jo": 872,
      "string": 873,
      "Type": 874,
      "object": 875,
      "output": 876,
      "ptional": 877,
      "Ġrequest": 878,
      "rame": 879,
      "qui": 880,
      "12": 881,
      "sen": 882,
      "ari": 883,
      "with": 884,
      "ĠčĊ": 885,
      "ulum": 886,
      "ded": 887,
      "run": 888,
      "Equal": 889,
      "ulumi": 890,
      "state": 891,
      "act": 892,
      "')},": 893,
      "util": 894,
      "':{'": 895,
      "8615": 896,
      "32": 897,
      "input": 898,
      "work": 899,
      "mpl": 900,
      "ong": 901,
      "we": 902,
      "ml": 903,
      "trib": 904,
      "Ġit": 905,
      "point": 906,
      "Ġelif": 907,
      "Ġbo": 908,
      "pos": 909,
      "request": 910,
      "AR": 911,
      "pi": 912,
      "back": 913,
      "St": 914,
      "own": 915,
      "rite": 916,
      "'),": 917,
      "tain": 918,
      "Ġ[]": 919,
      "comp": 920,
      "Ġ}": 921,
      "bu": 922,
      "SE": 923,
      "base": 924,
      "pa": 925,
      "ys": 926,
      "for": 927,
      "Ġargs": 928,
      "train": 929,
      "main": 930,
      "Ġuse": 931,
      "ample": 932,
      "IT": 933,
      "Ex": 934,
      "Ġall": 935,
      "ump": 936,
      "ark": 937,
      "https": 938,
      "ader": 939,
      "Ġoutput": 940,
      "uct": 941,
      "ax": 942,
      "lib": 943,
      "cor": 944,
      "lit": 945,
      "Ġser": 946,
      "argument": 947,
      "LE": 948,
      "start": 949,
      "ĠIn": 950,
      "params": 951,
      "lot": 952,
      "ĠĠĠĠĠĠĠĠĠĠĠĠĠĠĠĠĠĠĠĠĠĠĠĠĠĠĠ": 953,
      "join": 954,
      "Ġ+=": 955,
      "method": 956,
      "ave": 957,
      "mand": 958,
      "7701": 959,
      "Pro": 960,
      "assertEqual": 961,
      "Ġinput": 962,
      "query": 963,
      "ec": 964,
      "Ġuser": 965,
      "ib": 966,
      "ync": 967,
      "net": 968,
      "Ġno": 969,
      "result": 970,
      "inter": 971,
      "ange": 972,
      "shape": 973,
      "mat": 974,
      "core": 975,
      "Ġadd": 976,
      "kwargs": 977,
      "Ġnew": 978,
      "ĠCon": 979,
      "RE": 980,
      "Ġ**": 981,
      "''": 982,
      "arch": 983,
      "Ġcomp": 984,
      "Ġsub": 985,
      "Ġdo": 986,
      "db": 987,
      "Ġ/": 988,
      "Ġobject": 989,
      "Ġ5": 990,
      "Ġrange": 991,
      "perty": 992,
      "())": 993,
      "ception": 994,
      "ameters": 995,
      "99": 996,
      "feren": 997,
      "ght": 998,
      "Ġwill": 999,
      "'],": 1000,
      "Ġid": 1001,
      "map": 1002,
      "uld": 1003,
      "arn": 1004,
      "gth": 1005,
      "ash": 1006,
      "lace": 1007,
      "alue": 1008,
      "api": 1009,
      "lin": 1010,
      "Ġle": 1011,
      "Res": 1012,
      "64": 1013,
      "df": 1014,
      "scription": 1015,
      "################": 1016,
      "Ġpo": 1017,
      "Ġ\\": 1018,
      "fix": 1019,
      "exp": 1020,
      "reg": 1021,
      "Ġexcept": 1022,
      "AN": 1023,
      "cs": 1024,
      "create": 1025,
      "word": 1026,
      "Data": 1027,
      "da": 1028,
      "message": 1029,
      "Ġnode": 1030,
      "ou": 1031,
      "ull": 1032,
      "Ġpath": 1033,
      "client": 1034,
      "pected": 1035,
      "Ġpy": 1036,
      "ions": 1037,
      "np": 1038,
      "Ġj": 1039,
      "ses": 1040,
      "ializ": 1041,
      "do": 1042,
      "ION": 1043,
      "Ġcur": 1044,
      "ree": 1045,
      "Ġtry": 1046,
      "ken": 1047,
      "his": 1048,
      "org": 1049,
      "thon": 1050,
      "cal": 1051,
      "Ġspec": 1052,
      "box": 1053,
      "Ġmax": 1054,
      "lob": 1055,
      "ume": 1056,
      "image": 1057,
      "ence": 1058,
      "ste": 1059,
      ".__": 1060,
      "Ġfunction": 1061,
      "ference": 1062,
      "Ġ{'": 1063,
      "Ġconfig": 1064,
      "(),": 1065,
      "lp": 1066,
      "gr": 1067,
      "]]": 1068,
      "AL": 1069,
      "gener": 1070,
      "default": 1071,
      "check": 1072,
      "tings": 1073,
      "tx": 1074,
      "response": 1075,
      "ther": 1076,
      "module": 1077,
      "ME": 1078,
      "11": 1079,
      "iter": 1080,
      "icense": 1081,
      "0000": 1082,
      "Ġcheck": 1083,
      "Ġsup": 1084,
      "Name": 1085,
      "Ġresponse": 1086,
      "annel": 1087,
      "layer": 1088,
      "ĠEx": 1089,
      "ail": 1090,
      "vel": 1091,
      "Ġisinstance": 1092,
      "Ġla": 1093,
      "ĠIf": 1094,
      "itle": 1095,
      "Ġcom": 1096,
      "write": 1097,
      "view": 1098,
      "ix": 1099,
      "unc": 1100,
      "not": 1101,
      "Ġlabel": 1102,
      "return": 1103,
      "ual": 1104,
      "andom": 1105,
      "be": 1106,
      "rep": 1107,
      "Id": 1108,
      "Ġop": 1109,
      "attr": 1110,
      "block": 1111,
      "Ġ--": 1112,
      "ariable": 1113,
      "DE": 1114,
      "Ġbu": 1115,
      ">>": 1116,
      "IC": 1117,
      "ast": 1118,
      "57": 1119,
      "Ġhas": 1120,
      "Ġ('": 1121,
      "orch": 1122,
      "Test": 1123,
      "Ġ.": 1124,
      "Ġdis": 1125,
      "stra": 1126,
      "gra": 1127,
      "ef": 1128,
      "ific": 1129,
      "http": 1130,
      "53": 1131,
      "'])": 1132,
      "Ġrun": 1133,
      "14": 1134,
      "loss": 1135,
      "Ġparam": 1136,
      "Ġcreate": 1137,
      "mplate": 1138,
      "ids": 1139,
      "lement": 1140,
      "its": 1141,
      "AS": 1142,
      "ature": 1143,
      "Ġimage": 1144,
      "utils": 1145,
      "Ġclass": 1146,
      "ĠOptional": 1147,
      "ron": 1148,
      "Ġapp": 1149,
      "En": 1150,
      "ak": 1151,
      "right": 1152,
      "UT": 1153,
      "status": 1154,
      "Ġerror": 1155,
      "Ġstart": 1156,
      "lat": 1157,
      "md": 1158,
      "().": 1159,
      "=[": 1160,
      "Ġ['": 1161,
      "Ġper": 1162,
      "Ġax": 1163,
      "04": 1164,
      "ream": 1165,
      "var": 1166,
      "ify": 1167,
      "Ġtf": 1168,
      "led": 1169,
      "ts": 1170,
      "elds": 1171,
      "io": 1172,
      "www": 1173,
      "'.": 1174,
      "56": 1175,
      "ĠĠĠĠĠĠĠĠĠĠĠĠ": 1176,
      "Ġnumber": 1177,
      "av": 1178,
      "Ġmessage": 1179,
      "Ġdict": 1180,
      "ick": 1181,
      "Ġ!": 1182,
      "quired": 1183,
      "no": 1184,
      "ors": 1185,
      "call": 1186,
      "Ġ>>>": 1187,
      "umn": 1188,
      "local": 1189,
      "Ġtrain": 1190,
      "ach": 1191,
      "the": 1192,
      "split": 1193,
      "Co": 1194,
      "Ġcan": 1195,
      "Ġac": 1196,
      "ich": 1197,
      "float": 1198,
      "Ġindex": 1199,
      "Ġfil": 1200,
      "ĠĠĠĠĠĠĠĠĠĠĠĠĠĠĠĠĠĠĠĠĠĠĠĠĠĠĠĠĠĠĠ": 1201,
      "Ġend": 1202,
      "tra": 1203,
      "ures": 1204,
      "Ġinter": 1205,
      "ĠThis": 1206,
      "fil": 1207,
      "Input": 1208,
      "Ġz": 1209,
      "ne": 1210,
      "ĠLicense": 1211,
      "ding": 1212,
      "CT": 1213,
      "((": 1214,
      "dis": 1215,
      "Ġext": 1216,
      "Ar": 1217,
      "emp": 1218,
      "wait": 1219,
      "row": 1220,
      "ĠReturn": 1221,
      "adata": 1222,
      "Se": 1223,
      "clo": 1224,
      ".\"\"\"": 1225,
      "print": 1226,
      "Ġpass": 1227,
      "--------------------------------": 1228,
      "Ġ!=": 1229,
      "][": 1230,
      "ude": 1231,
      "models": 1232,
      "RO": 1233,
      "mi": 1234,
      "Field": 1235,
      "use": 1236,
      "Ġmock": 1237,
      "olume": 1238,
      "Ġline": 1239,
      "parse": 1240,
      "Ġwor": 1241,
      "batch": 1242,
      "content": 1243,
      "...": 1244,
      "rc": 1245,
      "ref": 1246,
      "Ġne": 1247,
      "Ġvalues": 1248,
      "List": 1249,
      "Ġmethod": 1250,
      "atus": 1251,
      "uple": 1252,
      "Ġ},": 1253,
      "connect": 1254,
      "new": 1255,
      "ert": 1256,
      "\".": 1257,
      "but": 1258,
      "Ġ|": 1259,
      "ctions": 1260,
      "lete": 1261,
      "values": 1262,
      "vert": 1263,
      "ĠĠĠĠĠĠĠĠĠĠĠĠĠĠĠĠĠĠ": 1264,
      "sy": 1265,
      "hould": 1266,
      "``": 1267,
      "ango": 1268,
      "Ġhelp": 1269,
      "[:": 1270,
      "property": 1271,
      "Ġtarget": 1272,
      "jango": 1273,
      "ome": 1274,
      "ide": 1275,
      "16": 1276,
      "stri": 1277,
      "ateg": 1278,
      "sum": 1279,
      "Ġcls": 1280,
      "'):": 1281,
      "Ġent": 1282,
      "]:": 1283,
      "process": 1284,
      "Ke": 1285,
      "obj": 1286,
      "types": 1287,
      "trans": 1288,
      "try": 1289,
      "mon": 1290,
      "Ġinstance": 1291,
      "pri": 1292,
      "Ġexpected": 1293,
      "cf": 1294,
      "MA": 1295,
      "ace": 1296,
      "auth": 1297,
      "{}": 1298,
      "otal": 1299,
      "Ġgroup": 1300,
      "order": 1301,
      "Ġused": 1302,
      "Ġstate": 1303,
      "ging": 1304,
      "Ġurl": 1305,
      "ain": 1306,
      "000": 1307,
      "umpy": 1308,
      "let": 1309,
      "Ġshould": 1310,
      "ound": 1311,
      "ialize": 1312,
      "poch": 1313,
      "target": 1314,
      "face": 1315,
      "limit": 1316,
      "flow": 1317,
      "straint": 1318,
      "mbol": 1319,
      "idth": 1320,
      "doc": 1321,
      "97": 1322,
      "mbda": 1323,
      "mark": 1324,
      "ĠĠĠĠčĊ": 1325,
      "ote": 1326,
      "pl": 1327,
      "Ġmin": 1328,
      "pulumi": 1329,
      "select": 1330,
      "Set": 1331,
      "Ġvalid": 1332,
      "Ġns": 1333,
      "tin": 1334,
      "ĠĠĠĠĠĠĠĠĠĠĠĠĠ": 1335,
      "Ġpulumi": 1336,
      "Ġfe": 1337,
      "html": 1338,
      "ld": 1339,
      "filter": 1340,
      "================": 1341,
      "bug": 1342,
      "Ġone": 1343,
      "Ġstring": 1344,
      "move": 1345,
      "Ġms": 1346,
      "old": 1347,
      "Ġdist": 1348,
      "\"),": 1349,
      "env": 1350,
      "cy": 1351,
      "umns": 1352,
      "project": 1353,
      "Par": 1354,
      "clude": 1355,
      "'s": 1356,
      "Ġversion": 1357,
      "resh": 1358,
      "Ġopt": 1359,
      "cope": 1360,
      "host": 1361,
      "Ġpl": 1362,
      "ĠReturns": 1363,
      "201": 1364,
      "length": 1365,
      "orage": 1366,
      "tes": 1367,
      "table": 1368,
      "De": 1369,
      "Ġparams": 1370,
      "uration": 1371,
      "28": 1372,
      "Ġ6": 1373,
      "sing": 1374,
      "Model": 1375,
      "=(": 1376,
      "rt": 1377,
      "ĠAn": 1378,
      "source": 1379,
      "tem": 1380,
      "Ġtorch": 1381,
      "LO": 1382,
      "Ġ``": 1383,
      "dim": 1384,
      "item": 1385,
      "ension": 1386,
      "Ġcode": 1387,
      "Ch": 1388,
      "raw": 1389,
      "uc": 1390,
      "man": 1391,
      "ENT": 1392,
      "tadata": 1393,
      "Ġdb": 1394,
      "Ġcontain": 1395,
      "tribute": 1396,
      "Ġdf": 1397,
      "opt": 1398,
      "hand": 1399,
      "Ser": 1400,
      "GE": 1401,
      "Key": 1402,
      "XXXX": 1403,
      "msg": 1404,
      "Get": 1405,
      "ally": 1406,
      "idx": 1407,
      "CH": 1408,
      "lename": 1409,
      "Ġwhich": 1410,
      "ting": 1411,
      "ĠJ": 1412,
      "mail": 1413,
      "ody": 1414,
      "idd": 1415,
      "Ġparser": 1416,
      "ost": 1417,
      "Ġkwargs": 1418,
      "Ġfloat": 1419,
      "Ġjson": 1420,
      "service": 1421,
      "play": 1422,
      "mbed": 1423,
      "Ġcurrent": 1424,
      "struct": 1425,
      "Ġbase": 1426,
      "nal": 1427,
      "oth": 1428,
      "expr": 1429,
      "filename": 1430,
      "Ġother": 1431,
      "Ġonly": 1432,
      "mock": 1433,
      "token": 1434,
      "Ġresource": 1435,
      "Ġdate": 1436,
      "resource": 1437,
      "Ġopen": 1438,
      "ĠSe": 1439,
      "are": 1440,
      "uid": 1441,
      "ware": 1442,
      "PI": 1443,
      "inal": 1444,
      "Ġ(\"": 1445,
      "lean": 1446,
      "Ġbool": 1447,
      "izer": 1448,
      "sample": 1449,
      "title": 1450,
      "RI": 1451,
      "ED": 1452,
      "vis": 1453,
      "20": 1454,
      "scal": 1455,
      "aders": 1456,
      "Ġcall": 1457,
      "nodes": 1458,
      "cent": 1459,
      "Ġreg": 1460,
      "older": 1461,
      "18": 1462,
      "amp": 1463,
      "context": 1464,
      "field": 1465,
      "plot": 1466,
      ":`": 1467,
      "names": 1468,
      "Ġquery": 1469,
      "frame": 1470,
      "ft": 1471,
      "atures": 1472,
      "general": 1473,
      "Frame": 1474,
      "items": 1475,
      "space": 1476,
      "ler": 1477,
      "ĠCo": 1478,
      "als": 1479,
      "norm": 1480,
      "oft": 1481,
      "Ġclient": 1482,
      "mode": 1483,
      "ates": 1484,
      "cri": 1485,
      "Ġ]": 1486,
      "Ġdoc": 1487,
      "Ġmust": 1488,
      "tro": 1489,
      "ched": 1490,
      "Ġhave": 1491,
      "options": 1492,
      "Me": 1493,
      "alueError": 1494,
      "Ġsize": 1495,
      "ING": 1496,
      "rist": 1497,
      "channel": 1498,
      "ĠX": 1499,
      "Ġwhen": 1500,
      "Ġbatch": 1501,
      "Add": 1502,
      "Ġsy": 1503,
      "udy": 1504,
      "ĠY": 1505,
      "CO": 1506,
      "weight": 1507,
      "coder": 1508,
      "ner": 1509,
      "Ġyou": 1510,
      "ĠAr": 1511,
      "Ġawait": 1512,
      "Ġsp": 1513,
      "Ġtext": 1514,
      "})": 1515,
      "Text": 1516,
      "bin": 1517,
      "File": 1518,
      "Ġsys": 1519,
      "irst": 1520,
      "33": 1521,
      "Ġq": 1522,
      "Ġarray": 1523,
      "Ġtrans": 1524,
      "Ġsource": 1525,
      "urch": 1526,
      "ution": 1527,
      "OT": 1528,
      "nd": 1529,
      "mission": 1530,
      "off": 1531,
      "cord": 1532,
      "root": 1533,
      "function": 1534,
      "atter": 1535,
      "pop": 1536,
      "address": 1537,
      "ified": 1538,
      "ql": 1539,
      "Ġunder": 1540,
      "ci": 1541,
      "Ġact": 1542,
      "christ": 1543,
      "vide": 1544,
      "Ġformat": 1545,
      "study": 1546,
      "func": 1547,
      "ments": 1548,
      "nn": 1549,
      "ĠĠĠĠĠĠĠĠĠĠ": 1550,
      "church": 1551,
      "Ġinit": 1552,
      "cre": 1553,
      "Ġarg": 1554,
      "stant": 1555,
      "find": 1556,
      "zer": 1557,
      "Ġupdate": 1558,
      "Un": 1559,
      "MP": 1560,
      "quence": 1561,
      "50": 1562,
      "Ġsuper": 1563,
      "Ġ'''": 1564,
      "jes": 1565,
      "UR": 1566,
      "FI": 1567,
      "event": 1568,
      "rectory": 1569,
      "ical": 1570,
      "jesus": 1571,
      "so": 1572,
      "arning": 1573,
      "cket": 1574,
      "pack": 1575,
      "17": 1576,
      "here": 1577,
      "open": 1578,
      "Ġasync": 1579,
      "ks": 1580,
      "conference": 1581,
      "Ġmay": 1582,
      "Ġdtype": 1583,
      "asses": 1584,
      "eta": 1585,
      "'))": 1586,
      "device": 1587,
      "dataset": 1588,
      "go": 1589,
      "ofjesus": 1590,
      "churchofjesus": 1591,
      "churchofjesuschrist": 1592,
      "script": 1593,
      "uto": 1594,
      "'t": 1595,
      "rop": 1596,
      "Ġeach": 1597,
      "ulti": 1598,
      "\"],": 1599,
      "55": 1600,
      "Ġblock": 1601,
      "save": 1602,
      "Ġrow": 1603,
      "kip": 1604,
      "licy": 1605,
      "ker": 1606,
      "Ġup": 1607,
      "sent": 1608,
      "tf": 1609,
      "Ġpa": 1610,
      "ĠĠĠĠĠĠĠĠĠĠĠĠĠĠĠĠĠĠĠĠĠĠ": 1611,
      "last": 1612,
      "Ġmodels": 1613,
      "Ġ10": 1614,
      "34": 1615,
      "Ġmsg": 1616,
      "ĠĠĠĠĠĠĠĠĠĠĠĠĠĠĠĠĠ": 1617,
      "description": 1618,
      "stem": 1619,
      "Ġad": 1620,
      "86158": 1621,
      "Ġ[\"": 1622,
      "top": 1623,
      "ãģ": 1624,
      "ĠQ": 1625,
      "indow": 1626,
      "req": 1627,
      "Ġgener": 1628,
      "ustom": 1629,
      "AD": 1630,
      "Ġab": 1631,
      "Ġaxis": 1632,
      "NA": 1633,
      "Ġ{\"": 1634,
      "96": 1635,
      "Ġevent": 1636,
      "hash": 1637,
      "Ġag": 1638,
      "Ġtra": 1639,
      "Ġfield": 1640,
      "cat": 1641,
      "command": 1642,
      "Ġobj": 1643,
      "PE": 1644,
      "level": 1645,
      "ĠSet": 1646,
      "gest": 1647,
      "Ġconnect": 1648,
      "spec": 1649,
      "Ġcal": 1650,
      "Po": 1651,
      "Ġmat": 1652,
      "rix": 1653,
      "my": 1654,
      "task": 1655,
      "stack": 1656,
      "send": 1657,
      "ĠConstraint": 1658,
      "DI": 1659,
      "ous": 1660,
      ")))": 1661,
      "files": 1662,
      "les": 1663,
      "ifier": 1664,
      "ogle": 1665,
      "axis": 1666,
      "Ġtensor": 1667,
      "ĠK": 1668,
      "98": 1669,
      "tensor": 1670,
      "Str": 1671,
      "ved": 1672,
      "ribut": 1673,
      "ename": 1674,
      "ice": 1675,
      "mary": 1676,
      "sche": 1677,
      "AB": 1678,
      "patch": 1679,
      "PO": 1680,
      "angu": 1681,
      "labels": 1682,
      "Ġmo": 1683,
      "Ġpos": 1684,
      "sign": 1685,
      "fields": 1686,
      "ward": 1687,
      "keys": 1688,
      "Ġoper": 1689,
      "lication": 1690,
      "DO": 1691,
      "anguage": 1692,
      "sv": 1693,
      "delete": 1694,
      "ager": 1695,
      "location": 1696,
      "Ġfirst": 1697,
      "Ġload": 1698,
      "down": 1699,
      "utes": 1700,
      "Ġlin": 1701,
      "viron": 1702,
      "ict": 1703,
      "search": 1704,
      "rel": 1705,
      "lection": 1706,
      "Ġany": 1707,
      "qa": 1708,
      "cond": 1709,
      "nt": 1710,
      "âķ": 1711,
      "stamp": 1712,
      "mask": 1713,
      "Ġcopy": 1714,
      "ias": 1715,
      "ĠValueError": 1716,
      "igh": 1717,
      "Ġlo": 1718,
      "Col": 1719,
      "13": 1720,
      "random": 1721,
      "UL": 1722,
      "Ġargument": 1723,
      "Ġexp": 1724,
      "riter": 1725,
      "template": 1726,
      "ises": 1727,
      "temp": 1728,
      "lobal": 1729,
      "uster": 1730,
      "Ġrequired": 1731,
      "char": 1732,
      "current": 1733,
      "Ġpart": 1734,
      "Time": 1735,
      "dtype": 1736,
      "ĠSt": 1737,
      "Ġver": 1738,
      "copy": 1739,
      "pol": 1740,
      "ative": 1741,
      "Value": 1742,
      "pend": 1743,
      "gn": 1744,
      "replace": 1745,
      "Ġpri": 1746,
      "UN": 1747,
      "US": 1748,
      "ists": 1749,
      "debug": 1750,
      "90": 1751,
      "Ġ),": 1752,
      "ake": 1753,
      "server": 1754,
      "Ġte": 1755,
      "Ġcommand": 1756,
      "PT": 1757,
      "pass": 1758,
      "eval": 1759,
      "only": 1760,
      "Ġshape": 1761,
      "exec": 1762,
      "Ġnoqa": 1763,
      "number": 1764,
      "rit": 1765,
      "place": 1766,
      "like": 1767,
      "raph": 1768,
      "22": 1769,
      "page": 1770,
      "rad": 1771,
      "Ġmodule": 1772,
      "ĠĠĠĠĠĠĠĠĠĠĠĠĠĠĠĠĠĠĠĠĠĠĠĠĠĠĠĠĠĠĠĠĠĠĠ": 1773,
      "scope": 1774,
      "Ġitem": 1775,
      "rap": 1776,
      ")]": 1777,
      "fir": 1778,
      "IL": 1779,
      "onent": 1780,
      "Ġdataset": 1781,
      "tect": 1782,
      "Ġback": 1783,
      "Ġlogging": 1784,
      "entity": 1785,
      "At": 1786,
      "ĠPar": 1787,
      "over": 1788,
      "width": 1789,
      "Ġfiles": 1790,
      "Ġread": 1791,
      "Ġ<=": 1792,
      "Ġcontin": 1793,
      "shot": 1794,
      "ache": 1795,
      "ĠĠĠĠĠĠĠĠĠĠĠĠĠĠ": 1796,
      "epoch": 1797,
      "Ġim": 1798,
      "Config": 1799,
      "------": 1800,
      "iven": 1801,
      "Ġ8": 1802,
      "ell": 1803,
      "build": 1804,
      "Group": 1805,
      "Ġorder": 1806,
      "Ġnumpy": 1807,
      "ä¸": 1808,
      "ĠĠĠĠĠĠĠĠĠĠĠĠĠĠĠĠĠĠĠĠĠ": 1809,
      "network": 1810,
      "pha": 1811,
      "ible": 1812,
      "Ġenum": 1813,
      "ility": 1814,
      "ĠĠĠĠĠĠĠĠčĊ": 1815,
      "job": 1816,
      "ĠData": 1817,
      "ĠUn": 1818,
      "Ġcontent": 1819,
      "30": 1820,
      "img": 1821,
      "vo": 1822,
      "rate": 1823,
      "54": 1824,
      "ĠĠĠĠĠĠĠĠĠĠĠĠĠĠĠĠĠĠĠĠĠĠĠĠĠĠ": 1825,
      "header": 1826,
      "ning": 1827,
      "volume": 1828,
      "columns": 1829,
      "mber": 1830,
      "TT": 1831,
      "Ġval": 1832,
      "pert": 1833,
      "âĶ": 1834,
      "step": 1835,
      "iled": 1836,
      "ranch": 1837,
      "settings": 1838,
      "AC": 1839,
      "ia": 1840,
      "lease": 1841,
      "part": 1842,
      "Bu": 1843,
      "ities": 1844,
      "nap": 1845,
      "ister": 1846,
      "session": 1847,
      "utf": 1848,
      "parameters": 1849,
      "Ġtag": 1850,
      "change": 1851,
      "ped": 1852,
      "iss": 1853,
      "pc": 1854,
      "ized": 1855,
      "Ġserver": 1856,
      "vid": 1857,
      "ster": 1858,
      "[-": 1859,
      "Ġelement": 1860,
      "annot": 1861,
      "edge": 1862,
      "Ġ--------": 1863,
      "store": 1864,
      "efault": 1865,
      "Ġoptions": 1866,
      "lower": 1867,
      "Base": 1868,
      "','": 1869,
      "Log": 1870,
      "python": 1871,
      "color": 1872,
      "Ġover": 1873,
      "ient": 1874,
      "parser": 1875,
      "etwork": 1876,
      "pub": 1877,
      "static": 1878,
      "dices": 1879,
      "tocol": 1880,
      "match": 1881,
      "Ġcontext": 1882,
      "idden": 1883,
      "Ġ...": 1884,
      "action": 1885,
      "close": 1886,
      "Ġso": 1887,
      "Ġauth": 1888,
      "Ġbut": 1889,
      "24": 1890,
      "Ġlogger": 1891,
      "cls": 1892,
      "IS": 1893,
      "Ob": 1894,
      "stream": 1895,
      "Response": 1896,
      "ĠList": 1897,
      "perties": 1898,
      "To": 1899,
      "mplement": 1900,
      "wo": 1901,
      "ization": 1902,
      "Ġbuild": 1903,
      "Ġcor": 1904,
      "pu": 1905,
      "ffer": 1906,
      "link": 1907,
      "pv": 1908,
      "post": 1909,
      "Ġvariable": 1910,
      "ops": 1911,
      "Ġsample": 1912,
      "tt": 1913,
      "Ġresults": 1914,
      "################################": 1915,
      "ialized": 1916,
      "formation": 1917,
      "nel": 1918,
      "make": 1919,
      "Ġstatus": 1920,
      "Ġmake": 1921,
      "Ġ&": 1922,
      "`.": 1923,
      "gram": 1924,
      "100": 1925,
      "fore": 1926,
      "graph": 1927,
      "ont": 1928,
      "Ġdistribut": 1929,
      "fter": 1930,
      "ializer": 1931,
      "Ġfilename": 1932,
      "du": 1933,
      "Ġdoes": 1934,
      "xy": 1935,
      "ols": 1936,
      "ultip": 1937,
      "ord": 1938,
      "virt": 1939,
      "Ġproject": 1940,
      "Ġusing": 1941,
      "fn": 1942,
      "The": 1943,
      "ling": 1944,
      "Not": 1945,
      "metadata": 1946,
      "ches": 1947,
      "cmd": 1948,
      "reak": 1949,
      "napshot": 1950,
      "equal": 1951,
      "su": 1952,
      "gen": 1953,
      "EST": 1954,
      "cript": 1955,
      "65": 1956,
      "Ġmatch": 1957,
      "He": 1958,
      "Ac": 1959,
      "std": 1960,
      "Up": 1961,
      "cb": 1962,
      "mean": 1963,
      "Ġheader": 1964,
      "Ġcontinue": 1965,
      "={": 1966,
      "Ġspecified": 1967,
      "ique": 1968,
      "Ġaction": 1969,
      "unk": 1970,
      "Ġrandom": 1971,
      "django": 1972,
      "mt": 1973,
      "CON": 1974,
      "lass": 1975,
      "Ġtable": 1976,
      "Ġ>=": 1977,
      "ailable": 1978,
      "unds": 1979,
      "Request": 1980,
      "mory": 1981,
      "Ġ201": 1982,
      "\"])": 1983,
      "err": 1984,
      "uccess": 1985,
      "[:,": 1986,
      "ields": 1987,
      "license": 1988,
      "ĠTest": 1989,
      "ted": 1990,
      "ilder": 1991,
      "parent": 1992,
      "score": 1993,
      "bool": 1994,
      "ential": 1995,
      "cache": 1996,
      "Ġlocal": 1997,
      "sol": 1998,
      "cli": 1999,
      "']['": 2000,
      "Ġsame": 2001,
      "bar": 2002,
      "TR": 2003,
      "84": 2004,
      "501": 2005,
      "Ġgiven": 2006,
      "Ġpoint": 2007,
      "âķĲ": 2008,
      "domain": 2009,
      "ĠOR": 2010,
      "empty": 2011,
      "stall": 2012,
      "lta": 2013,
      "(_": 2014,
      "Ġpd": 2015,
      "Path": 2016,
      "Ġ],": 2017,
      "Ġfilter": 2018,
      "results": 2019,
      "Ġlimit": 2020,
      "tail": 2021,
      "Inter": 2022,
      "****": 2023,
      "conv": 2024,
      "height": 2025,
      "ĠĠĠĠĠĠĠĠĠĠĠĠĠĠĠĠĠĠĠĠ": 2026,
      "tag": 2027,
      "oper": 2028,
      "Ġsort": 2029,
      "imum": 2030,
      "Ġsupport": 2031,
      "Ġ7": 2032,
      "'].": 2033,
      "ten": 2034,
      "abled": 2035,
      "]['": 2036,
      "etch": 2037,
      "classes": 2038,
      "fer": 2039,
      "03": 2040,
      "Ġdest": 2041,
      "lambda": 2042,
      "uggest": 2043,
      "Ġplt": 2044,
      "Exception": 2045,
      "HE": 2046,
      "Ġmode": 2047,
      "Ġscal": 2048,
      "ins": 2049,
      "scale": 2050,
      "lect": 2051,
      "next": 2052,
      "Message": 2053,
      "objects": 2054,
      "ĠPy": 2055,
      "idget": 2056,
      "lines": 2057,
      ".')": 2058,
      "Ġtoken": 2059,
      "layers": 2060,
      "Ġdatetime": 2061,
      "Ġloss": 2062,
      "Ġdescription": 2063,
      ")),": 2064,
      "Met": 2065,
      "txt": 2066,
      "Ġinto": 2067,
      "HO": 2068,
      "au": 2069,
      "Ġlast": 2070,
      "trol": 2071,
      "Bo": 2072,
      "LI": 2073,
      "ping": 2074,
      "ater": 2075,
      "TI": 2076,
      "ĉĉĉ": 2077,
      "sw": 2078,
      "Ġman": 2079,
      "Ġtask": 2080,
      "EX": 2081,
      "Ġcount": 2082,
      "200": 2083,
      "94": 2084,
      "dde": 2085,
      "datetime": 2086,
      "lan": 2087,
      "Ġass": 2088,
      "Ġdevice": 2089,
      "Ġparameters": 2090,
      "Ġtuple": 2091,
      "account": 2092,
      "Ġ100": 2093,
      "Ġextra": 2094,
      ")):": 2095,
      "Al": 2096,
      "Ġhttps": 2097,
      "metri": 2098,
      "Ġlambda": 2099,
      "ĠPro": 2100,
      "conf": 2101,
      "ATE": 2102,
      "Te": 2103,
      "bytes": 2104,
      "prob": 2105,
      "show": 2106,
      "strip": 2107,
      "71": 2108,
      "Ġstat": 2109,
      "âķĲâķĲ": 2110,
      "queue": 2111,
      "âĶĢ": 2112,
      "sort": 2113,
      "Ġchange": 2114,
      "points": 2115,
      "ĠType": 2116,
      "Ġweight": 2117,
      "prefix": 2118,
      "Ġwhile": 2119,
      "ze": 2120,
      "column": 2121,
      "66": 2122,
      "User": 2123,
      "ransa": 2124,
      "true": 2125,
      "NAME": 2126,
      "bose": 2127,
      "</": 2128,
      "very": 2129,
      "variable": 2130,
      "way": 2131,
      "async": 2132,
      "ersion": 2133,
      "Ġmain": 2134,
      "src": 2135,
      "ocket": 2136,
      "features": 2137,
      "imizer": 2138,
      "ian": 2139,
      "Ġdim": 2140,
      "Ġport": 2141,
      "ĠException": 2142,
      "Form": 2143,
      "total": 2144,
      "Ġparameter": 2145,
      "Ġneed": 2146,
      "ĠAN": 2147,
      "lper": 2148,
      "08": 2149,
      "bit": 2150,
      "ĠĠĠĠĠĠĠĠĠĠĠĠĠĠĠĠĠĠĠĠĠĠĠĠĠ": 2151,
      "Ġfull": 2152,
      "\\\\": 2153,
      "coding": 2154,
      "ĠCON": 2155,
      "peline": 2156,
      "oftware": 2157,
      "Ġform": 2158,
      "video": 2159,
      "Vi": 2160,
      "vision": 2161,
      "ĠArgs": 2162,
      "ĠSee": 2163,
      "tributes": 2164,
      "connection": 2165,
      "Com": 2166,
      "umber": 2167,
      "fla": 2168,
      "ayload": 2169,
      "Ġ##": 2170,
      "cul": 2171,
      "ĠFor": 2172,
      "prec": 2173,
      "25": 2174,
      "Status": 2175,
      "TY": 2176,
      "Ġcase": 2177,
      "Ġfound": 2178,
      "admin": 2179,
      "ĠIN": 2180,
      "Ġhand": 2181,
      "ification": 2182,
      "ector": 2183,
      "grad": 2184,
      "(__": 2185,
      "Ġapi": 2186,
      "duct": 2187,
      "]))": 2188,
      "email": 2189,
      "19": 2190,
      "ride": 2191,
      "embed": 2192,
      "Ġiter": 2193,
      "other": 2194,
      "Sh": 2195,
      "day": 2196,
      "ating": 2197,
      "ither": 2198,
      "Ġpack": 2199,
      "Ġlabels": 2200,
      "FA": 2201,
      "teger": 2202,
      "now": 2203,
      "first": 2204,
      "ESS": 2205,
      "Ġ..": 2206,
      "required": 2207,
      "symbol": 2208,
      "Ġtotal": 2209,
      "cho": 2210,
      "vate": 2211,
      "wh": 2212,
      "rid": 2213,
      "profile": 2214,
      "05": 2215,
      "Ġcolor": 2216,
      "Node": 2217,
      "ctionary": 2218,
      "Ġoptional": 2219,
      "Ġservice": 2220,
      "Ġparent": 2221,
      "peri": 2222,
      "position": 2223,
      "Ġqu": 2224,
      "Ġvar": 2225,
      "Spec": 2226,
      "Ġtop": 2227,
      "offset": 2228,
      "Ġlength": 2229,
      "andard": 2230,
      "Ġmore": 2231,
      "ormal": 2232,
      "'},": 2233,
      "An": 2234,
      "bot": 2235,
      "body": 2236,
      "ĠAny": 2237,
      "Object": 2238,
      "Pre": 2239,
      "pose": 2240,
      "iang": 2241,
      "Ġsign": 2242,
      "String": 2243,
      "Ġ12": 2244,
      "ics": 2245,
      "\"):": 2246,
      "extra": 2247,
      "side": 2248,
      "AP": 2249,
      "ency": 2250,
      "Ġ'.": 2251,
      "-------": 2252,
      "stats": 2253,
      "*-": 2254,
      "Ġexist": 2255,
      "Ġconst": 2256,
      "Address": 2257,
      "ategory": 2258,
      "Ġallow": 2259,
      "storage": 2260,
      "Ġbreak": 2261,
      "attern": 2262,
      "ollow": 2263,
      "Ġtemp": 2264,
      "mer": 2265,
      "cast": 2266,
      "Ġprocess": 2267,
      "dump": 2268,
      "google": 2269,
      "Ġnext": 2270,
      "loy": 2271,
      "Ġav": 2272,
      "Ġeval": 2273,
      "Ġpython": 2274,
      "dot": 2275,
      "cores": 2276,
      "transform": 2277,
      "FF": 2278,
      "ush": 2279,
      "Ġmap": 2280,
      "cc": 2281,
      "latform": 2282,
      "AG": 2283,
      "SI": 2284,
      "06": 2285,
      "uture": 2286,
      "TTP": 2287,
      "cro": 2288,
      "KE": 2289,
      "Ġchannel": 2290,
      "Ġchar": 2291,
      "Ġ-*-": 2292,
      "Ġimg": 2293,
      "Ġselect": 2294,
      "Des": 2295,
      "missions": 2296,
      "ories": 2297,
      "Ġdjango": 2298,
      "Ġhttp": 2299,
      "Ġ'/": 2300,
      "Ġfields": 2301,
      "ear": 2302,
      "~~": 2303,
      "ined": 2304,
      "Ġinfo": 2305,
      "Ġpage": 2306,
      "nan": 2307,
      "Tensor": 2308,
      "Check": 2309,
      "ĠParameters": 2310,
      "mote": 2311,
      ".\")": 2312,
      "full": 2313,
      "pred": 2314,
      "Ġ\"--": 2315,
      "Ġsession": 2316,
      "dic": 2317,
      "Ġright": 2318,
      "\",\"": 2319,
      "verage": 2320,
      "Ġstream": 2321,
      "ie": 2322,
      "gment": 2323,
      "Ġjob": 2324,
      "Ġtemplate": 2325,
      "Ġmark": 2326,
      "Ġinputs": 2327,
      "Ġplot": 2328,
      "ular": 2329,
      "Index": 2330,
      "Ġorig": 2331,
      "has": 2332,
      "logger": 2333,
      "Ġwas": 2334,
      "entifier": 2335,
      "exit": 2336,
      "Ġker": 2337,
      "rank": 2338,
      "Ġexample": 2339,
      "foo": 2340,
      "Ġfix": 2341,
      "INT": 2342,
      "fact": 2343,
      "inputs": 2344,
      "76": 2345,
      "istr": 2346,
      "Return": 2347,
      "ĠNot": 2348,
      "2857": 2349,
      "remove": 2350,
      "Lo": 2351,
      "round": 2352,
      "rest": 2353,
      "Ġhost": 2354,
      "(*": 2355,
      "enc": 2356,
      "285714": 2357,
      "password": 2358,
      "Ġwhere": 2359,
      "Result": 2360,
      "Ġdif": 2361,
      "ability": 2362,
      "Ġtitle": 2363,
      "Ġexec": 2364,
      ".,": 2365,
      "Ġtraining": 2366,
      "mpty": 2367,
      "__,": 2368,
      "Ġwork": 2369,
      "alid": 2370,
      "fl": 2371,
      "channels": 2372,
      "ATION": 2373,
      "cfg": 2374,
      "gin": 2375,
      "head": 2376,
      "Ġ----------": 2377,
      "Ġcolumn": 2378,
      "By": 2379,
      "82": 2380,
      "bounds": 2381,
      "less": 2382,
      "branch": 2383,
      "tmp": 2384,
      "abs": 2385,
      "âĶĢâĶĢ": 2386,
      "Ġ[],": 2387,
      "ĠDefault": 2388,
      "unter": 2389,
      "csv": 2390,
      "VER": 2391,
      "grid": 2392,
      "pytest": 2393,
      "keep": 2394,
      "Ġoff": 2395,
      "\"))": 2396,
      "Ġdistributed": 2397,
      "verse": 2398,
      "cloud": 2399,
      "az": 2400,
      "edit": 2401,
      "real": 2402,
      "Ġnon": 2403,
      "pth": 2404,
      "direct": 2405,
      "member": 2406,
      "/{": 2407,
      "timeout": 2408,
      "Or": 2409,
      "Ġsettings": 2410,
      "Ġdocument": 2411,
      "('--": 2412,
      "web": 2413,
      "ĠRes": 2414,
      "MO": 2415,
      "Ġdirectory": 2416,
      "cle": 2417,
      "ensions": 2418,
      "ĠDe": 2419,
      "ĠĠĠĠĠĠĠĠĠĠĠĠĠĠĠĠĠĠĠĠĠĠĠĠĠĠĠĠĠĠĠĠĠĠĠĠĠĠĠ": 2420,
      "ĠOF": 2421,
      "boxes": 2422,
      "environ": 2423,
      "'}": 2424,
      "89": 2425,
      "lem": 2426,
      "olution": 2427,
      "erate": 2428,
      "ĠGet": 2429,
      "oken": 2430,
      "Qu": 2431,
      "ingle": 2432,
      "86159": 2433,
      "ML": 2434,
      "gress": 2435,
      "TO": 2436,
      "Ġfind": 2437,
      "river": 2438,
      "headers": 2439,
      "ton": 2440,
      "CE": 2441,
      "ULT": 2442,
      "uang": 2443,
      "Ġsum": 2444,
      "TH": 2445,
      "Ġbox": 2446,
      "75": 2447,
      "apt": 2448,
      "hist": 2449,
      "View": 2450,
      "Out": 2451,
      "ators": 2452,
      "pn": 2453,
      "itional": 2454,
      "imple": 2455,
      "Ġnames": 2456,
      "pression": 2457,
      "aises": 2458,
      "rule": 2459,
      "chain": 2460,
      "mod": 2461,
      "Ġparse": 2462,
      "ful": 2463,
      "Ġthen": 2464,
      "case": 2465,
      "Ġsu": 2466,
      "ï¼": 2467,
      "andas": 2468,
      "pen": 2469,
      "Ġlib": 2470,
      "Ġsave": 2471,
      "swith": 2472,
      "Ġlevel": 2473,
      "kens": 2474,
      "uuid": 2475,
      "zeros": 2476,
      "chema": 2477,
      "ffect": 2478,
      "initialize": 2479,
      "Ġgo": 2480,
      "ination": 2481,
      "pk": 2482,
      "Ġeither": 2483,
      "IP": 2484,
      "setup": 2485,
      "ransaction": 2486,
      "Info": 2487,
      "child": 2488,
      "late": 2489,
      "Ġ-------": 2490,
      "Ġpol": 2491,
      "Ġmask": 2492,
      "hou": 2493,
      "Ġopts": 2494,
      "virtual": 2495,
      "contrib": 2496,
      "ire": 2497,
      "const": 2498,
      "ĠTO": 2499,
      "').": 2500,
      "sor": 2501,
      "Ġheaders": 2502,
      "Ġroot": 2503,
      "Ġbody": 2504,
      "ãĤ": 2505,
      "Ġrepre": 2506,
      "pyright": 2507,
      "sup": 2508,
      "Ġtri": 2509,
      "sys": 2510,
      "Ġret": 2511,
      "ĠĠĠĠĠĠĠĠĠĠĠĠĠĠĠĠĠĠĠĠĠĠĠĠĠĠĠĠĠ": 2512,
      "ultiple": 2513,
      "internal": 2514,
      "DataFrame": 2515,
      "ared": 2516,
      "ĠĠĠĠĠĠĠĠĠĠĠĠĠĠĠĠĠĠĠĠĠĠĠĠĠĠĠĠ": 2517,
      "example": 2518,
      "contain": 2519,
      "yle": 2520,
      "meta": 2521,
      "({": 2522,
      "81": 2523,
      "lable": 2524,
      "Ġunit": 2525,
      "Py": 2526,
      "hex": 2527,
      "ãĢ": 2528,
      "Ġinclude": 2529,
      "execute": 2530,
      "rand": 2531,
      "Class": 2532,
      "Ġenumerate": 2533,
      "36": 2534,
      "Ipv": 2535,
      "pool": 2536,
      "Case": 2537,
      "]),": 2538,
      "Ġthan": 2539,
      "5357": 2540,
      "dev": 2541,
      "element": 2542,
      "fail": 2543,
      "Args": 2544,
      "Ġsrc": 2545,
      "35": 2546,
      "Ġinformation": 2547,
      "Ġmetadata": 2548,
      "tach": 2549,
      "ĠSer": 2550,
      "ls": 2551,
      "Ġgraph": 2552,
      "Ġsearch": 2553,
      "(-": 2554,
      "gre": 2555,
      "Ġnn": 2556,
      "Ġmean": 2557,
      "fit": 2558,
      "board": 2559,
      "exists": 2560,
      "unit": 2561,
      "wise": 2562,
      "Ġsome": 2563,
      "=%": 2564,
      "hed": 2565,
      "Ġbet": 2566,
      "Comp": 2567,
      "serialize": 2568,
      "angle": 2569,
      "Ġhere": 2570,
      "rl": 2571,
      "'''": 2572,
      "gex": 2573,
      "Ġafter": 2574,
      "Ġref": 2575,
      "words": 2576,
      "Ġcontaining": 2577,
      "numpy": 2578,
      "ĠWe": 2579,
      "option": 2580,
      "Ġinterface": 2581,
      "sync": 2582,
      "gnore": 2583,
      "serv": 2584,
      "Is": 2585,
      "'][": 2586,
      "ha": 2587,
      "Ġfollow": 2588,
      "ERR": 2589,
      "reshold": 2590,
      "addr": 2591,
      "bucket": 2592,
      "Ġprob": 2593,
      "=['": 2594,
      "Ġconnection": 2595,
      "91": 2596,
      "Ġthread": 2597,
      "ugh": 2598,
      "Ġraw": 2599,
      "Ġstep": 2600,
      "imal": 2601,
      "access": 2602,
      "ait": 2603,
      "uint": 2604,
      "Ġpadd": 2605,
      "aw": 2606,
      "Ġ'--": 2607,
      "errors": 2608,
      "any": 2609,
      "outputs": 2610,
      "State": 2611,
      "delta": 2612,
      "ween": 2613,
      "lied": 2614,
      "assertTrue": 2615,
      "ĠAdd": 2616,
      "Ġsymbol": 2617,
      "tags": 2618,
      "acy": 2619,
      "samples": 2620,
      "Ġreturns": 2621,
      "Create": 2622,
      "NO": 2623,
      "Ġvolume": 2624,
      "tuple": 2625,
      "era": 2626,
      "active": 2627,
      "commit": 2628,
      "hether": 2629,
      "conds": 2630,
      "package": 2631,
      "Ġ,": 2632,
      "gt": 2633,
      "Ġspecific": 2634,
      "ctx": 2635,
      "weights": 2636,
      "lr": 2637,
      "dec": 2638,
      "tact": 2639,
      "application": 2640,
      "ready": 2641,
      "DIR": 2642,
      "Ġ'%": 2643,
      "Ġfl": 2644,
      "ux": 2645,
      "vided": 2646,
      "nown": 2647,
      "Ġnetwork": 2648,
      "Ġtransform": 2649,
      "QU": 2650,
      "`,": 2651,
      "Ġshow": 2652,
      "scriptor": 2653,
      "tick": 2654,
      "Ġctx": 2655,
      "Ġwrite": 2656,
      "within": 2657,
      "torch": 2658,
      "cv": 2659,
      "schema": 2660,
      "95": 2661,
      "icode": 2662,
      "olean": 2663,
      "Ġmetri": 2664,
      "tention": 2665,
      "Dict": 2666,
      "skip": 2667,
      "Ġaddress": 2668,
      "entic": 2669,
      "uble": 2670,
      "itions": 2671,
      "ailed": 2672,
      "nder": 2673,
      "orig": 2674,
      "ason": 2675,
      "Ġtrue": 2676,
      "staticmethod": 2677,
      "RL": 2678,
      "ugin": 2679,
      "medi": 2680,
      "]):": 2681,
      "rary": 2682,
      "uff": 2683,
      "Ġdown": 2684,
      "Ġepoch": 2685,
      "groups": 2686,
      "ãĥ": 2687,
      "ĠCopyright": 2688,
      "light": 2689,
      "Ġ'_": 2690,
      "ĠVar": 2691,
      "uggestion": 2692,
      "BU": 2693,
      "Gener": 2694,
      "Ġlayer": 2695,
      "Ġ\",": 2696,
      "ĠUser": 2697,
      "tems": 2698,
      "center": 2699,
      "tree": 2700,
      "Ġcolumns": 2701,
      "UP": 2702,
      "CL": 2703,
      "long": 2704,
      "ORT": 2705,
      "80": 2706,
      "gument": 2707,
      "ince": 2708,
      "Ġsplit": 2709,
      "encode": 2710,
      "Resource": 2711,
      "================================": 2712,
      "son": 2713,
      "RAN": 2714,
      "Ġenv": 2715,
      ".\"": 2716,
      "=_": 2717,
      "report": 2718,
      "Ġar": 2719,
      "Ġtx": 2720,
      "left": 2721,
      "26": 2722,
      "enter": 2723,
      "quire": 2724,
      "td": 2725,
      "expected": 2726,
      "feature": 2727,
      "Ġ'-": 2728,
      "ose": 2729,
      "Ġproperty": 2730,
      "Ġyield": 2731,
      "fs": 2732,
      "URL": 2733,
      "setter": 2734,
      "tract": 2735,
      "27": 2736,
      "mount": 2737,
      "abel": 2738,
      "igr": 2739,
      "xx": 2740,
      "ithub": 2741,
      "Parser": 2742,
      "Ġty": 2743,
      "EL": 2744,
      "indices": 2745,
      "Client": 2746,
      ").__": 2747,
      "folder": 2748,
      "oding": 2749,
      "256": 2750,
      "ĠID": 2751,
      "Ġsc": 2752,
      "park": 2753,
      "eps": 2754,
      "Ð¾": 2755,
      "ĠAl": 2756,
      "Ġcond": 2757,
      "pout": 2758,
      "ĠĠĠĠĠĠĠĠĠĠĠĠĠĠĠĠĠĠĠĠĠĠĠĠĠĠĠĠĠĠ": 2759,
      "No": 2760,
      "record": 2761,
      "inte": 2762,
      "common": 2763,
      "tests": 2764,
      "Code": 2765,
      "ices": 2766,
      "eng": 2767,
      "normal": 2768,
      "Size": 2769,
      "dest": 2770,
      "sl": 2771,
      "ļĦ": 2772,
      "cell": 2773,
      "Ġsee": 2774,
      "çļĦ": 2775,
      "IONS": 2776,
      "comple": 2777,
      "Ġrequests": 2778,
      "states": 2779,
      "Ġcustom": 2780,
      "oci": 2781,
      "matrix": 2782,
      "system": 2783,
      "difi": 2784,
      "interval": 2785,
      "ĠIS": 2786,
      "non": 2787,
      "Ġarguments": 2788,
      "cert": 2789,
      "redential": 2790,
      "Ġentity": 2791,
      "callback": 2792,
      "mplemented": 2793,
      "ĠCreate": 2794,
      "ĠZ": 2795,
      "Ġpub": 2796,
      "sql": 2797,
      "Ġcv": 2798,
      "Ġthere": 2799,
      "constant": 2800,
      "Ġlanguage": 2801,
      "Ġignore": 2802,
      "TE": 2803,
      "ĠYou": 2804,
      "21": 2805,
      "seed": 2806,
      "Ġidx": 2807,
      "USER": 2808,
      "ĠAPI": 2809,
      "decode": 2810,
      "ropout": 2811,
      "Ġwidth": 2812,
      "rypt": 2813,
      "ttp": 2814,
      "reshape": 2815,
      "Ġpe": 2816,
      "Ġ):": 2817,
      "RES": 2818,
      "Ġbytes": 2819,
      "LIC": 2820,
      "amera": 2821,
      "ĠHe": 2822,
      "seq": 2823,
      "Le": 2824,
      "ceptions": 2825,
      "Reals": 2826,
      "Image": 2827,
      "Ġattribute": 2828,
      "backend": 2829,
      "component": 2830,
      "Ġ\"\"": 2831,
      "press": 2832,
      "timestamp": 2833,
      "assed": 2834,
      "Ġglobal": 2835,
      "UM": 2836,
      "Ġverbose": 2837,
      "Ġwrit": 2838,
      "Ġpytest": 2839,
      "author": 2840,
      "rapper": 2841,
      "Ġtwo": 2842,
      "Ġbin": 2843,
      "Ġattr": 2844,
      "fg": 2845,
      "23": 2846,
      "sm": 2847,
      "Ġimp": 2848,
      "ASE": 2849,
      "ĠPython": 2850,
      "dist": 2851,
      "imul": 2852,
      "fra": 2853,
      "bl": 2854,
      "CRI": 2855,
      "uri": 2856,
      "Ġconn": 2857,
      "Ġ--------------------------------": 2858,
      "Ġrel": 2859,
      "future": 2860,
      "TYPE": 2861,
      "curity": 2862,
      "stop": 2863,
      "descriptor": 2864,
      "Ġ\".": 2865,
      "uation": 2866,
      "Ġbetween": 2867,
      "Ġrep": 2868,
      "07": 2869,
      "Ġfeature": 2870,
      "Oper": 2871,
      "lish": 2872,
      "OL": 2873,
      "ink": 2874,
      "Ġmeta": 2875,
      "Ġview": 2876,
      "ĠCheck": 2877,
      "Ġpackage": 2878,
      "Ġfla": 2879,
      "ness": 2880,
      "sk": 2881,
      "Ġembed": 2882,
      "Run": 2883,
      "Ð°": 2884,
      "Ġstruct": 2885,
      "Date": 2886,
      "IO": 2887,
      "helper": 2888,
      "Ġconvert": 2889,
      "Ġheight": 2890,
      "æķ": 2891,
      "']:": 2892,
      "ptr": 2893,
      "alpha": 2894,
      "called": 2895,
      "ĠGuang": 2896,
      "Ġprovided": 2897,
      "Ġ''": 2898,
      "irs": 2899,
      "ift": 2900,
      "XXXXXXXX": 2901,
      "Ġpi": 2902,
      "Ġobjects": 2903,
      "steps": 2904,
      "Ġbefore": 2905,
      "ĠURL": 2906,
      "ABLE": 2907,
      "xi": 2908,
      "PRO": 2909,
      "Ġyour": 2910,
      "FAULT": 2911,
      "af": 2912,
      "xml": 2913,
      "Ġavailable": 2914,
      "Ġtimeout": 2915,
      "Ġ200": 2916,
      "docs": 2917,
      "Ġkernel": 2918,
      "beta": 2919,
      "ĠKey": 2920,
      "Event": 2921,
      "Ġsingle": 2922,
      "59": 2923,
      "Tra": 2924,
      "Ġold": 2925,
      "Ġexception": 2926,
      "ĠWAR": 2927,
      "Hand": 2928,
      "Ġdictionary": 2929,
      "extend": 2930,
      "proto": 2931,
      "ET": 2932,
      "Line": 2933,
      "multi": 2934,
      "Ġ::": 2935,
      "ui": 2936,
      "stru": 2937,
      "pace": 2938,
      "validation": 2939,
      "entry": 2940,
      "Ġap": 2941,
      "Ġcoding": 2942,
      "vider": 2943,
      "Ġframe": 2944,
      "Man": 2945,
      "ero": 2946,
      "messages": 2947,
      "Ġvalidation": 2948,
      "lice": 2949,
      "ploy": 2950,
      "safe": 2951,
      "ĠTime": 2952,
      "Sub": 2953,
      "09": 2954,
      "lack": 2955,
      "Ġprefix": 2956,
      "App": 2957,
      "blob": 2958,
      "CRIPT": 2959,
      "Ġtmp": 2960,
      "ĠDict": 2961,
      "bound": 2962,
      "For": 2963,
      "Ġlocation": 2964,
      "insert": 2965,
      "ĠGener": 2966,
      "em": 2967,
      "TestCase": 2968,
      "Ġoffset": 2969,
      "]+": 2970,
      "ĠStr": 2971,
      "ĠANY": 2972,
      "ĠDE": 2973,
      "ferent": 2974,
      "tack": 2975,
      "Ġoperation": 2976,
      "ivation": 2977,
      "Lay": 2978,
      "Ġreturned": 2979,
      "exception": 2980,
      "compile": 2981,
      "math": 2982,
      "github": 2983,
      "Ġutils": 2984,
      "ision": 2985,
      "sig": 2986,
      "policy": 2987,
      "Ġdel": 2988,
      "predict": 2989,
      "ĠName": 2990,
      ")[": 2991,
      "Ġits": 2992,
      "Ġscale": 2993,
      "iddle": 2994,
      "PAT": 2995,
      "Ġfig": 2996,
      "agent": 2997,
      "lip": 2998,
      "CK": 2999,
      "username": 3000,
      "\"}": 3001,
      "Ġremove": 3002,
      "apping": 3003,
      "Block": 3004,
      "\\'": 3005,
      "Ġempty": 3006,
      "åı": 3007,
      "Ġoption": 3008,
      "Ġdirect": 3009,
      "31": 3010,
      "Ġalso": 3011,
      "manager": 3012,
      "atio": 3013,
      "Ġstd": 3014,
      "paths": 3015,
      "Ġtypes": 3016,
      "price": 3017,
      "hidden": 3018,
      "itor": 3019,
      "posit": 3020,
      "Ġpost": 3021,
      "ĠTypeError": 3022,
      "nection": 3023,
      "Ġentry": 3024,
      "DES": 3025,
      "':'": 3026,
      "Valid": 3027,
      "æķ°": 3028,
      "Ġweb": 3029,
      "ffix": 3030,
      "Ġalpha": 3031,
      "202": 3032,
      "Table": 3033,
      "ĉĉĉĉ": 3034,
      "Ġlines": 3035,
      "Ġnodes": 3036,
      "Ġcache": 3037,
      "ves": 3038,
      "Context": 3039,
      "tails": 3040,
      ":]": 3041,
      "used": 3042,
      "SS": 3043,
      "Ġhasattr": 3044,
      "register": 3045,
      ")',": 3046,
      "Ġskip": 3047,
      "properties": 3048,
      "API": 3049,
      "('/": 3050,
      "Ġwithout": 3051,
      "loader": 3052,
      "Ġcreated": 3053,
      "attribute": 3054,
      "Ġaccess": 3055,
      "44": 3056,
      "auto": 3057,
      "Ġsa": 3058,
      "897": 3059,
      "DAT": 3060,
      "ĠTODO": 3061,
      "ITY": 3062,
      "37": 3063,
      "quires": 3064,
      "ordin": 3065,
      "dered": 3066,
      "Ġ\"\\": 3067,
      "vars": 3068,
      "Number": 3069,
      "Sy": 3070,
      "SON": 3071,
      "getter": 3072,
      "conn": 3073,
      "Dis": 3074,
      "Content": 3075,
      "Array": 3076,
      "åĪ": 3077,
      "dif": 3078,
      "window": 3079,
      "leep": 3080,
      "ube": 3081,
      "GET": 3082,
      "ines": 3083,
      "loads": 3084,
      "VE": 3085,
      "br": 3086,
      "(['": 3087,
      "Ġsoftware": 3088,
      "peed": 3089,
      "asic": 3090,
      "ĠCh": 3091,
      "handle": 3092,
      "encoder": 3093,
      "rency": 3094,
      "CA": 3095,
      "Raises": 3096,
      "Ðµ": 3097,
      "Ġfunc": 3098,
      "Service": 3099,
      "validate": 3100,
      "Ġkeys": 3101,
      "ba": 3102,
      "uate": 3103,
      "Ġ9": 3104,
      "startswith": 3105,
      "itch": 3106,
      "void": 3107,
      "Ġextension": 3108,
      "85": 3109,
      "directory": 3110,
      "Ġrender": 3111,
      "Ġloc": 3112,
      "Ġcell": 3113,
      "Ġfollowing": 3114,
      "her": 3115,
      "arnings": 3116,
      "++": 3117,
      "global": 3118,
      "ene": 3119,
      "relu": 3120,
      "compute": 3121,
      "assertRaises": 3122,
      "(?": 3123,
      "ones": 3124,
      "dio": 3125,
      "display": 3126,
      "Ġdbg": 3127,
      "ĠĠĠĠĠĠĠĠĠĠĠĠĠĠĠĠĠĠĠĠĠĠĠĠĠĠĠĠĠĠĠĠĠ": 3128,
      "Ġdisable": 3129,
      "book": 3130,
      "ries": 3131,
      "Ġvis": 3132,
      "ĠHTTP": 3133,
      "Ġbot": 3134,
      "master": 3135,
      "argv": 3136,
      "ould": 3137,
      "Ġcho": 3138,
      "ĠAt": 3139,
      "hook": 3140,
      "Ġmath": 3141,
      "ĠDis": 3142,
      "issing": 3143,
      "cu": 3144,
      "served": 3145,
      "Ġplayer": 3146,
      "zip": 3147,
      "Ġsorted": 3148,
      "install": 3149,
      "Ġleft": 3150,
      "Char": 3151,
      "ily": 3152,
      "can": 3153,
      "diction": 3154,
      "Auth": 3155,
      "na": 3156,
      "allow": 3157,
      "pping": 3158,
      "QL": 3159,
      "buffer": 3160,
      "Sequence": 3161,
      "DF": 3162,
      "Per": 3163,
      "}/": 3164,
      "Ġpassed": 3165,
      ")*": 3166,
      "cap": 3167,
      "Ġrule": 3168,
      "ĠNOT": 3169,
      "ik": 3170,
      "ced": 3171,
      "ĠExample": 3172,
      "ĠDataFrame": 3173,
      "Ġnormal": 3174,
      "Ġdepend": 3175,
      "Ġcmd": 3176,
      "Ġzip": 3177,
      "Call": 3178,
      "section": 3179,
      "public": 3180,
      "KEY": 3181,
      "wd": 3182,
      "dong": 3183,
      "Policy": 3184,
      "Ġkeep": 3185,
      "include": 3186,
      "Ġwait": 3187,
      "distri": 3188,
      "azure": 3189,
      "Trans": 3190,
      "invalid": 3191,
      "help": 3192,
      "Ġ16": 3193,
      "OP": 3194,
      "Ġ'__": 3195,
      "Ġsetup": 3196,
      "ENSE": 3197,
      "pb": 3198,
      "ternal": 3199,
      "rection": 3200,
      "Ġmatrix": 3201,
      "ĠWARRAN": 3202,
      "Item": 3203,
      "Ġutf": 3204,
      "Ġoutputs": 3205,
      ".\",": 3206,
      "Ġgetattr": 3207,
      "Ġalready": 3208,
      "IND": 3209,
      "ture": 3210,
      "ĠĠĠĠĠĠĠĠĠĠĠĠĠĠĠĠĠĠĠĠĠĠĠĠĠĠĠĠĠĠĠĠĠĠĠĠĠĠĠĠĠĠĠ": 3211,
      "ĠGuangdong": 3212,
      "UB": 3213,
      "lint": 3214,
      "Ġph": 3215,
      ",\"": 3216,
      "Pri": 3217,
      "Ġaccount": 3218,
      "opts": 3219,
      "Tag": 3220,
      "icro": 3221,
      "ĠĠĠĠĠĠĠĠĠĠĠĠĠĠĠĠĠĠĠĠĠĠĠĠĠĠĠĠĠĠĠĠĠĠĠĠ": 3222,
      "ĠEn": 3223,
      "ority": 3224,
      "vious": 3225,
      "usr": 3226,
      "Ġchild": 3227,
      "Ġdomain": 3228,
      "ĠÐ": 3229,
      "respon": 3230,
      "ĠLO": 3231,
      "Ġsupported": 3232,
      "endpoint": 3233,
      "SER": 3234,
      "Ġerr": 3235,
      "Count": 3236,
      "ĠSettings": 3237,
      "Ġ\"/": 3238,
      "world": 3239,
      "Ġword": 3240,
      "67": 3241,
      "Ġsuccess": 3242,
      "sched": 3243,
      "Ġsend": 3244,
      "istry": 3245,
      "ĠVersion": 3246,
      "AGE": 3247,
      "ards": 3248,
      "Ġscope": 3249,
      "liance": 3250,
      "andid": 3251,
      "ĠRun": 3252,
      "none": 3253,
      "role": 3254,
      "Ġconv": 3255,
      "cret": 3256,
      "ram": 3257,
      "rows": 3258,
      "AA": 3259,
      "cluster": 3260,
      "fc": 3261,
      "Ġreport": 3262,
      "login": 3263,
      "zhou": 3264,
      "Ġunique": 3265,
      "Max": 3266,
      "ower": 3267,
      "summary": 3268,
      "atal": 3269,
      "ook": 3270,
      "ifies": 3271,
      "Fe": 3272,
      "From": 3273,
      "licenses": 3274,
      "fetch": 3275,
      "Ġfeatures": 3276,
      "tom": 3277,
      "Ġclo": 3278,
      "svp": 3279,
      "chron": 3280,
      "pache": 3281,
      "soft": 3282,
      "language": 3283,
      "extension": 3284,
      "Instance": 3285,
      "Profile": 3286,
      "vironment": 3287,
      "Ġsql": 3288,
      "uffle": 3289,
      "PATH": 3290,
      "Ġip": 3291,
      "Ġmy": 3292,
      "Ġstack": 3293,
      "Ġdetect": 3294,
      "(\\": 3295,
      "Module": 3296,
      "WAR": 3297,
      "RA": 3298,
      "ret": 3299,
      "hell": 3300,
      "Ġcluster": 3301,
      "29": 3302,
      "Ġnow": 3303,
      "construct": 3304,
      "Rsvp": 3305,
      "ount": 3306,
      "training": 3307,
      "metric": 3308,
      "48": 3309,
      "Do": 3310,
      "gy": 3311,
      "Dig": 3312,
      "Source": 3313,
      "raises": 3314,
      "jiang": 3315,
      "alance": 3316,
      "solute": 3317,
      "END": 3318,
      "clean": 3319,
      "amma": 3320,
      "FT": 3321,
      "Ġdelete": 3322,
      "dims": 3323,
      "Reg": 3324,
      "ords": 3325,
      "wRsvp": 3326,
      "Ġgrad": 3327,
      "zero": 3328,
      "wRsvpTe": 3329,
      "oo": 3330,
      "fill": 3331,
      "acc": 3332,
      "Ġobtain": 3333,
      "5317": 3334,
      "dt": 3335,
      "fb": 3336,
      "ĠĠĠĠĠĠĠĠĠĠĠĠĠĠĠĠĠĠĠĠĠĠĠĠĠĠĠĠĠĠĠĠĠĠ": 3337,
      "Ġconfiguration": 3338,
      "cp": 3339,
      "scores": 3340,
      "ynchron": 3341,
      "VAL": 3342,
      "periment": 3343,
      "={'": 3344,
      "med": 3345,
      "Ġcomponent": 3346,
      "pg": 3347,
      "Ġitems": 3348,
      "inition": 3349,
      "ea": 3350,
      "sq": 3351,
      "ets": 3352,
      "CTION": 3353,
      "Ġwhether": 3354,
      "Ġvariables": 3355,
      "ĠTHE": 3356,
      "Ġ20": 3357,
      "Ġweights": 3358,
      "39": 3359,
      "MENT": 3360,
      "ods": 3361,
      "ĠIt": 3362,
      "Output": 3363,
      "pow": 3364,
      "ived": 3365,
      "Ġpermissions": 3366,
      "bias": 3367,
      "chine": 3368,
      "images": 3369,
      "Storage": 3370,
      "38": 3371,
      "desc": 3372,
      "uda": 3373,
      "Ġpers": 3374,
      "curacy": 3375,
      "ivity": 3376,
      "=-": 3377,
      "Ġcfg": 3378,
      "leted": 3379,
      "sec": 3380,
      "Ġfin": 3381,
      "Ġdebug": 3382,
      "Ġhtml": 3383,
      "cd": 3384,
      "This": 3385,
      "ilter": 3386,
      "Ġtags": 3387,
      "ĠAll": 3388,
      "interface": 3389,
      "00000000": 3390,
      "Ġdt": 3391,
      "reed": 3392,
      "atic": 3393,
      "Ġserialized": 3394,
      "troll": 3395,
      "HT": 3396,
      "hen": 3397,
      "(\"--": 3398,
      "stead": 3399,
      "metrics": 3400,
      "Ad": 3401,
      "Ġfail": 3402,
      "Ġcalled": 3403,
      "DB": 3404,
      "Ġ\"-": 3405,
      "custom": 3406,
      "Ġerrors": 3407,
      "Ġ'\\": 3408,
      "Ġreal": 3409,
      "ams": 3410,
      "users": 3411,
      "ĠWIT": 3412,
      "document": 3413,
      "sets": 3414,
      "precated": 3415,
      "Ġaut": 3416,
      "Ġschema": 3417,
      "\").": 3418,
      "POST": 3419,
      "TIES": 3420,
      "60": 3421,
      "Ġtree": 3422,
      "bn": 3423,
      "cpu": 3424,
      "initial": 3425,
      "vec": 3426,
      "Ġannot": 3427,
      "DESCRIPT": 3428,
      "We": 3429,
      "Ġtests": 3430,
      "Ġbucket": 3431,
      "Ġtyping": 3432,
      "MS": 3433,
      "fin": 3434,
      "double": 3435,
      "Flow": 3436,
      "Ġhash": 3437,
      "Ġcomple": 3438,
      "Ġwant": 3439,
      "ï¼Į": 3440,
      "container": 3441,
      "iddleware": 3442,
      "mul": 3443,
      "Ġsig": 3444,
      "topic": 3445,
      "arm": 3446,
      "ummy": 3447,
      "\":\"": 3448,
      "}\"": 3449,
      "Ġsw": 3450,
      "velo": 3451,
      "logging": 3452,
      "Ġdisplay": 3453,
      "aded": 3454,
      "Entry": 3455,
      "ä»": 3456,
      "reset": 3457,
      "Ġauto": 3458,
      "Net": 3459,
      "ged": 3460,
      "convert": 3461,
      "PL": 3462,
      "ensed": 3463,
      "Ġbeen": 3464,
      "Ġsent": 3465,
      "gg": 3466,
      "Ġter": 3467,
      "urls": 3468,
      "Version": 3469,
      "Ġlike": 3470,
      "ross": 3471,
      "rough": 3472,
      ",'": 3473,
      "40": 3474,
      "att": 3475,
      "Ġpassword": 3476,
      "Ġlink": 3477,
      "Ġpandas": 3478,
      "ĠPath": 3479,
      "okup": 3480,
      "protocol": 3481,
      "Ġstride": 3482,
      "Ġreference": 3483,
      "bers": 3484,
      "memory": 3485,
      "Ġca": 3486,
      "ssible": 3487,
      "Ġstop": 3488,
      "ransp": 3489,
      "pare": 3490,
      "Ġtensorflow": 3491,
      "ats": 3492,
      "Attribute": 3493,
      "********": 3494,
      "_(": 3495,
      "leg": 3496,
      "Ġsk": 3497,
      "short": 3498,
      "Ġjust": 3499,
      "Ġstorage": 3500,
      "Ġgen": 3501,
      "redentials": 3502,
      "drop": 3503,
      "oid": 3504,
      "exceptions": 3505,
      "amount": 3506,
      "Header": 3507,
      "success": 3508,
      "Ġvi": 3509,
      "this": 3510,
      "cause": 3511,
      "Ġpred": 3512,
      "oration": 3513,
      "best": 3514,
      "units": 3515,
      "apply": 3516,
      "Ġcallback": 3517,
      "detect": 3518,
      "ĠSh": 3519,
      "ĠCol": 3520,
      "tax": 3521,
      "generate": 3522,
      "Access": 3523,
      "Ġow": 3524,
      "term": 3525,
      "Ġev": 3526,
      "ĠWARRANTIES": 3527,
      "ssue": 3528,
      "ship": 3529,
      "rpc": 3530,
      "Argument": 3531,
      "arr": 3532,
      "Ġsecond": 3533,
      "ĠBase": 3534,
      "entication": 3535,
      "æľ": 3536,
      "Ġmod": 3537,
      "Ġdifferent": 3538,
      "ital": 3539,
      "ws": 3540,
      "warning": 3541,
      "ĠApache": 3542,
      "\"].": 3543,
      "Ġrecord": 3544,
      "encies": 3545,
      "Ġincl": 3546,
      "Ð¸": 3547,
      "Label": 3548,
      "-%": 3549,
      "Ġ\"%": 3550,
      "loop": 3551,
      "Ġpredict": 3552,
      "Ġextract": 3553,
      "Ġhidden": 3554,
      "troller": 3555,
      "\"{": 3556,
      "DS": 3557,
      "ans": 3558,
      "repr": 3559,
      "Token": 3560,
      "ĠTo": 3561,
      "Rule": 3562,
      "Th": 3563,
      "flat": 3564,
      "bb": 3565,
      "unique": 3566,
      "FILE": 3567,
      "Update": 3568,
      "Ġet": 3569,
      "remote": 3570,
      "Ġps": 3571,
      "ifact": 3572,
      "ALL": 3573,
      "resources": 3574,
      "gl": 3575,
      "PORT": 3576,
      "driver": 3577,
      "eric": 3578,
      "End": 3579,
      "handler": 3580,
      "License": 3581,
      "thing": 3582,
      "pipeline": 3583,
      "Mock": 3584,
      "ni": 3585,
      "payload": 3586,
      "uan": 3587,
      "Ġscript": 3588,
      "tokens": 3589,
      "Ġ_,": 3590,
      "Ġcompute": 3591,
      "gor": 3592,
      "ender": 3593,
      "ĠComp": 3594,
      "extract": 3595,
      "CP": 3596,
      "ategories": 3597,
      "Ġpayload": 3598,
      "Ġcommit": 3599,
      "âķĲâķĲâķĲâķĲ": 3600,
      "threshold": 3601,
      "Ġgenerate": 3602,
      "Builder": 3603,
      "Ġindices": 3604,
      "Ġscore": 3605,
      "ĠFile": 3606,
      "\"]:": 3607,
      "Ġcalcul": 3608,
      "LOG": 3609,
      "MM": 3610,
      "aml": 3611,
      "eq": 3612,
      "gger": 3613,
      "('_": 3614,
      "div": 3615,
      "Ġdec": 3616,
      "Metadata": 3617,
      "IG": 3618,
      "ground": 3619,
      "repo": 3620,
      "methods": 3621,
      "criptor": 3622,
      "Ġproperties": 3623,
      "88": 3624,
      "ZE": 3625,
      "âĢ": 3626,
      "Ġpoints": 3627,
      "Function": 3628,
      "uler": 3629,
      "TER": 3630,
      "eded": 3631,
      "Ġencoding": 3632,
      "lative": 3633,
      "Query": 3634,
      "holder": 3635,
      "DIT": 3636,
      "Ġvideo": 3637,
      "aly": 3638,
      "control": 3639,
      "tools": 3640,
      "Invalid": 3641,
      "Ġ50": 3642,
      "events": 3643,
      "Ġ\"_": 3644,
      "apache": 3645,
      "ĠString": 3646,
      "({'": 3647,
      "All": 3648,
      "Implemented": 3649,
      "uild": 3650,
      "ending": 3651,
      "rs": 3652,
      "Column": 3653,
      "ffi": 3654,
      "Ġ//": 3655,
      "utor": 3656,
      "ĠMe": 3657,
      "download": 3658,
      "issue": 3659,
      "gorith": 3660,
      "redu": 3661,
      "gb": 3662,
      "Ġconf": 3663,
      "sim": 3664,
      "Ġcorrect": 3665,
      "sage": 3666,
      "where": 3667,
      "Ġactual": 3668,
      "Ġedge": 3669,
      "ĠInter": 3670,
      "created": 3671,
      "ighb": 3672,
      "aries": 3673,
      "assign": 3674,
      "Ġcollection": 3675,
      "#!": 3676,
      "freq": 3677,
      "hy": 3678,
      "allet": 3679,
      "Ġmethods": 3680,
      "platform": 3681,
      "Ġmultiple": 3682,
      "counter": 3683,
      "Map": 3684,
      "bro": 3685,
      "Ġpylint": 3686,
      "product": 3687,
      "FOR": 3688,
      "ression": 3689,
      "Ġnet": 3690,
      "Ġgrid": 3691,
      "Ġbased": 3692,
      "bbox": 3693,
      "cos": 3694,
      "\");": 3695,
      "ynam": 3696,
      "With": 3697,
      "Connection": 3698,
      "Logger": 3699,
      "Command": 3700,
      "Widget": 3701,
      "final": 3702,
      "Ġsm": 3703,
      "Ġevery": 3704,
      "Ġrows": 3705,
      "199": 3706,
      "On": 3707,
      "Ġsequence": 3708,
      "configuration": 3709,
      "flags": 3710,
      "Ġbest": 3711,
      "Handler": 3712,
      "category": 3713,
      "classmethod": 3714,
      "trace": 3715,
      "mag": 3716,
      "Ġexpect": 3717,
      "sleep": 3718,
      "Ġ\"\",": 3719,
      "Ġinitial": 3720,
      "Ġpick": 3721,
      "Ġtick": 3722,
      "Ġthem": 3723,
      "history": 3724,
      "Loc": 3725,
      "('-": 3726,
      "(\"\\": 3727,
      "Ġbound": 3728,
      "depend": 3729,
      "Ġinstead": 3730,
      "ĠĠĠĠĠĠĠĠĠĠĠĠĠĠĠĠĠĠĠĠĠĠĠĠĠĠĠĠĠĠĠĠĠĠĠĠĠĠĠĠĠĠ": 3731,
      "lank": 3732,
      "high": 3733,
      "Ġsystem": 3734,
      "Ġamount": 3735,
      "Descriptor": 3736,
      "Ġfailed": 3737,
      "PC": 3738,
      "Ġmon": 3739,
      "=[],": 3740,
      "Ġtrace": 3741,
      "2857143": 3742,
      "(**": 3743,
      "4285714": 3744,
      "]],": 3745,
      "ocab": 3746,
      "comm": 3747,
      "processing": 3748,
      "Format": 3749,
      "42857142857143": 3750,
      "Ġapplic": 3751,
      "ĠĠĠĠĠĠĠĠĠĠĠĠčĊ": 3752,
      "-----": 3753,
      "imp": 3754,
      "keras": 3755,
      "HOUT": 3756,
      "ars": 3757,
      "Ġ[[": 3758,
      "001": 3759,
      "Ġagent": 3760,
      "Det": 3761,
      "ving": 3762,
      ");": 3763,
      "MES": 3764,
      "dirname": 3765,
      "pr": 3766,
      "services": 3767,
      "Ġbackend": 3768,
      "Ġpipeline": 3769,
      ":%": 3770,
      "Ġdon": 3771,
      "Ġelements": 3772,
      "Ġboth": 3773,
      "ely": 3774,
      "Ġposition": 3775,
      "git": 3776,
      "vol": 3777,
      "Ġclean": 3778,
      "prop": 3779,
      "Ġspecify": 3780,
      "å¤": 3781,
      "Ġ',": 3782,
      "Server": 3783,
      "player": 3784,
      "namespace": 3785,
      "Ġcorrespon": 3786,
      "gative": 3787,
      "untry": 3788,
      "__)": 3789,
      "ASS": 3790,
      "Ġwriting": 3791,
      "year": 3792,
      "sequence": 3793,
      "inc": 3794,
      "style": 3795,
      "ek": 3796,
      "assertIs": 3797,
      "optimizer": 3798,
      "learn": 3799,
      "izes": 3800,
      "ways": 3801,
      "actions": 3802,
      "~~~~": 3803,
      "Ġ~": 3804,
      "Ġconstant": 3805,
      "diff": 3806,
      "Ġoriginal": 3807,
      "suggestion": 3808,
      "Ġdir": 3809,
      "ĠNote": 3810,
      "PER": 3811,
      "site": 3812,
      "inv": 3813,
      "thread": 3814,
      "DEFAULT": 3815,
      "Ġmessages": 3816,
      "inx": 3817,
      "ested": 3818,
      "ru": 3819,
      "parameter": 3820,
      "dumps": 3821,
      ".',": 3822,
      "alle": 3823,
      "icensed": 3824,
      "Ġhow": 3825,
      "Options": 3826,
      "TEST": 3827,
      "æĸ": 3828,
      "INE": 3829,
      "track": 3830,
      "Ġplace": 3831,
      "Ġdatabase": 3832,
      "ĠTensor": 3833,
      "Found": 3834,
      "hes": 3835,
      "setting": 3836,
      "Ġthese": 3837,
      "Manager": 3838,
      "ĠShand": 3839,
      "ĠImage": 3840,
      "astype": 3841,
      "ĠShandong": 3842,
      "CC": 3843,
      "win": 3844,
      "Ġ\"__": 3845,
      "ĠDo": 3846,
      "ACK": 3847,
      "ĠNotImplemented": 3848,
      "ĠLOG": 3849,
      "Ġstats": 3850,
      "air": 3851,
      "__()": 3852,
      "Ġlong": 3853,
      "ported": 3854,
      "ANG": 3855,
      "87": 3856,
      "ored": 3857,
      "Ġemail": 3858,
      "Ġoptimizer": 3859,
      "factor": 3860,
      "}\")": 3861,
      "Ġthey": 3862,
      "icle": 3863,
      "ĠOn": 3864,
      "__':": 3865,
      "ĠUp": 3866,
      "Order": 3867,
      "dm": 3868,
      "uter": 3869,
      "ĠIP": 3870,
      "layout": 3871,
      "Ġpadding": 3872,
      "\">": 3873,
      "mbers": 3874,
      "Session": 3875,
      "IM": 3876,
      "WN": 3877,
      "zone": 3878,
      "requ": 3879,
      "lections": 3880,
      "Ġsince": 3881,
      "Ġblob": 3882,
      "DESCRIPTOR": 3883,
      "mac": 3884,
      "dropout": 3885,
      "ured": 3886,
      "concat": 3887,
      "Pack": 3888,
      "Ġgenerated": 3889,
      "ĠWITHOUT": 3890,
      "Ġwindow": 3891,
      "Ġ})": 3892,
      "#!/": 3893,
      "PS": 3894,
      "Ġpad": 3895,
      "Ġdefined": 3896,
      "Ġregister": 3897,
      "Ġadded": 3898,
      "private": 3899,
      "ĠKIND": 3900,
      "CM": 3901,
      "actor": 3902,
      "builder": 3903,
      "Ġ((": 3904,
      ")).": 3905,
      "comment": 3906,
      "Hel": 3907,
      "']]": 3908,
      "Ġrece": 3909,
      "upper": 3910,
      "ÑĤ": 3911,
      "Ġqueue": 3912,
      "ĠCal": 3913,
      ".*": 3914,
      "transaction": 3915,
      "derr": 3916,
      "available": 3917,
      "Element": 3918,
      "Ġhist": 3919,
      "ĠLo": 3920,
      "epochs": 3921,
      "Ġrepresent": 3922,
      "ĠĠĠĠĠĠĠĠĠĠĠĠĠĠĠĠĠĠĠĠĠĠĠĠĠĠĠĠĠĠĠĠĠĠĠĠĠĠ": 3923,
      "cols": 3924,
      "distribut": 3925,
      "Ġ$": 3926,
      "dictions": 3927,
      "accept": 3928,
      "owner": 3929,
      "Ġfunctions": 3930,
      "realm": 3931,
      "Ð¾Ð": 3932,
      "_%": 3933,
      "obs": 3934,
      "Conv": 3935,
      "stract": 3936,
      "Ġinst": 3937,
      "Ġmemory": 3938,
      "ites": 3939,
      "LECT": 3940,
      "Ġvari": 3941,
      "ĠNo": 3942,
      "Box": 3943,
      "LICENSE": 3944,
      "ategor": 3945,
      "45": 3946,
      "ĠLicensed": 3947,
      "Dataset": 3948,
      "EXT": 3949,
      "Variable": 3950,
      "depth": 3951,
      "testing": 3952,
      "Ġ%(": 3953,
      "subscription": 3954,
      "Ent": 3955,
      "ransport": 3956,
      "åħ": 3957,
      "Ġreplace": 3958,
      "blocks": 3959,
      "Scal": 3960,
      "]])": 3961,
      "route": 3962,
      "pattern": 3963,
      "Ġpool": 3964,
      "itive": 3965,
      "Ġdeser": 3966,
      "Ġapplicable": 3967,
      "Integer": 3968,
      "As": 3969,
      "cuda": 3970,
      "Ġcontains": 3971,
      "IR": 3972,
      "Ptr": 3973,
      "llo": 3974,
      "pad": 3975,
      "Ġtimestamp": 3976,
      "arguments": 3977,
      "CHE": 3978,
      "ERROR": 3979,
      "FO": 3980,
      "exc": 3981,
      "verify": 3982,
      "modules": 3983,
      "ather": 3984,
      "va": 3985,
      "Ġ{}'.": 3986,
      "cer": 3987,
      "atches": 3988,
      "Pos": 3989,
      "known": 3990,
      "Pol": 3991,
      "Ro": 3992,
      "Ġinstall": 3993,
      "().__": 3994,
      "updated": 3995,
      "Ġshort": 3996,
      "Ġfont": 3997,
      "ircu": 3998,
      "ART": 3999,
      "åĲ": 4000,
      "Ġpattern": 4001,
      "Ġexit": 4002,
      "Ġbecause": 4003,
      "'\\": 4004,
      "Ġwarnings": 4005,
      "Init": 4006,
      "Ġassign": 4007,
      "ee": 4008,
      "slot": 4009,
      "sin": 4010,
      "Ġcannot": 4011,
      "Ġhigh": 4012,
      "region": 4013,
      "ECT": 4014,
      "ĠUnion": 4015,
      "distance": 4016,
      "servation": 4017,
      "except": 4018,
      "estim": 4019,
      "ĠCom": 4020,
      "correct": 4021,
      "free": 4022,
      "writer": 4023,
      "series": 4024,
      "rf": 4025,
      "Ġhead": 4026,
      "}.": 4027,
      "ynchronous": 4028,
      "rb": 4029,
      "home": 4030,
      "Ġdisk": 4031,
      "1000": 4032,
      "NOT": 4033,
      "Ġge": 4034,
      "bove": 4035,
      "()))": 4036,
      "Ġthrough": 4037,
      "\"][\"": 4038,
      "ificate": 4039,
      "plotlib": 4040,
      "AY": 4041,
      "_,": 4042,
      "Ġsure": 4043,
      "Ġcharact": 4044,
      "termin": 4045,
      "Action": 4046,
      "Window": 4047,
      "Ġredu": 4048,
      "codes": 4049,
      "Ġattributes": 4050,
      "ategy": 4051,
      "axA": 4052,
      "Ġpolling": 4053,
      "ences": 4054,
      "Ġmer": 4055,
      "Device": 4056,
      "attributes": 4057,
      "ished": 4058,
      "Ġexists": 4059,
      "Ġvalidate": 4060,
      "kernel": 4061,
      "itude": 4062,
      "ish": 4063,
      "sd": 4064,
      "ases": 4065,
      "----------------------------------------": 4066,
      "Ġexpress": 4067,
      "Ġauthor": 4068,
      "Ġhandle": 4069,
      "SION": 4070,
      "chedule": 4071,
      "snapshot": 4072,
      "Ġsocket": 4073,
      "coin": 4074,
      "Property": 4075,
      "mal": 4076,
      "uded": 4077,
      "Clo": 4078,
      "integer": 4079,
      "Ġimplied": 4080,
      "42": 4081,
      "eff": 4082,
      "plan": 4083,
      "Ġloop": 4084,
      "Ġrepresen": 4085,
      "rtype": 4086,
      "vm": 4087,
      "Ġli": 4088,
      "128": 4089,
      "Default": 4090,
      "upload": 4091,
      "cords": 4092,
      "Ġimages": 4093,
      "ank": 4094,
      "gorithm": 4095,
      "gp": 4096,
      "Ġgover": 4097,
      "Ġdesc": 4098,
      "ancel": 4099,
      "ĠModel": 4100,
      "Ġ{}\".": 4101,
      "ĠNotImplementedError": 4102,
      "Ġfit": 4103,
      "47": 4104,
      "bind": 4105,
      "ratio": 4106,
      "initializer": 4107,
      "Op": 4108,
      "ĠĠĠĠĠĠĠĠĠĠĠĠĠĠĠĠĠĠĠĠĠĠĠĠĠĠĠĠĠĠĠĠĠĠĠĠĠ": 4109,
      "CharField": 4110,
      "hod": 4111,
      "Ġapply": 4112,
      "dings": 4113,
      "Ġabove": 4114,
      "tool": 4115,
      "Cur": 4116,
      "Ġfinal": 4117,
      "Ġlaw": 4118,
      "Ġgroups": 4119,
      "Cal": 4120,
      "widget": 4121,
      "()[": 4122,
      "Ġrate": 4123,
      "Ġkeyword": 4124,
      "ployment": 4125,
      "'{": 4126,
      "enabled": 4127,
      "Sp": 4128,
      "vector": 4129,
      "Ġexisting": 4130,
      "Ġmetric": 4131,
      "WOR": 4132,
      "licit": 4133,
      "ĠBy": 4134,
      ".\\": 4135,
      "OS": 4136,
      "null": 4137,
      "Ġday": 4138,
      "LL": 4139,
      "generator": 4140,
      "Ġsv": 4141,
      "Layer": 4142,
      "SA": 4143,
      "ynamic": 4144,
      "Di": 4145,
      "Ġsection": 4146,
      "Ġendpoint": 4147,
      "Filter": 4148,
      "åį": 4149,
      "Ġ32": 4150,
      "variables": 4151,
      "Ġcre": 4152,
      "Ġpatch": 4153,
      "uring": 4154,
      "\"\\": 4155,
      "ons": 4156,
      "ICE": 4157,
      "197": 4158,
      "Of": 4159,
      "Ġinteger": 4160,
      "fake": 4161,
      "ignore": 4162,
      "enable": 4163,
      "Ġsol": 4164,
      "ĠPo": 4165,
      "reduce": 4166,
      "Ġargparse": 4167,
      "collection": 4168,
      "ights": 4169,
      "äº": 4170,
      "Ġverify": 4171,
      "stdout": 4172,
      "duration": 4173,
      "optional": 4174,
      "uni": 4175,
      "quant": 4176,
      "targets": 4177,
      "aN": 4178,
      "ools": 4179,
      "constructor": 4180,
      "gments": 4181,
      "ier": 4182,
      "Ġnull": 4183,
      "(\"/": 4184,
      "parts": 4185,
      "Ġ202": 4186,
      "Ġnamespace": 4187,
      "STAT": 4188,
      "Ġcompliance": 4189,
      "ASIS": 4190,
      "power": 4191,
      "Interface": 4192,
      "Returns": 4193,
      "Ġfeed": 4194,
      "socket": 4195,
      "Ġ'{": 4196,
      "Ġmulti": 4197,
      "Ġresp": 4198,
      "=[\"": 4199,
      "ibBuilder": 4200,
      "Ġmaximum": 4201,
      "Parameter": 4202,
      "/'": 4203,
      "rec": 4204,
      "Ġenable": 4205,
      "ysis": 4206,
      "poly": 4207,
      "raise": 4208,
      "faces": 4209,
      "Protocol": 4210,
      "DITIONS": 4211,
      "ĠMo": 4212,
      "ĠHttp": 4213,
      "Ġsetting": 4214,
      "_{": 4215,
      "ble": 4216,
      "102": 4217,
      "chunk": 4218,
      "Ġhelper": 4219,
      "Ġsav": 4220,
      "alias": 4221,
      "Ġabsolute": 4222,
      "pository": 4223,
      "}'": 4224,
      "release": 4225,
      "Ġcore": 4226,
      "found": 4227,
      "Ġproduct": 4228,
      "è¯": 4229,
      "Ġgt": 4230,
      "ĠBASIS": 4231,
      "fixture": 4232,
      "joint": 4233,
      "Ġgoverning": 4234,
      "æĺ": 4235,
      "seconds": 4236,
      "Ġequal": 4237,
      "progress": 4238,
      "ĠCONDITIONS": 4239,
      "engine": 4240,
      "}')": 4241,
      "aged": 4242,
      "aker": 4243,
      "\"},": 4244,
      "CRE": 4245,
      "Ġcategory": 4246,
      "Int": 4247,
      "ives": 4248,
      "riteria": 4249,
      "Mo": 4250,
      "abc": 4251,
      "BUG": 4252,
      "ÑĢ": 4253,
      "Ġlicense": 4254,
      "Ġprev": 4255,
      "two": 4256,
      "ĠĠčĊ": 4257,
      "click": 4258,
      "Ġsnapshot": 4259,
      "Ġclasses": 4260,
      "ROM": 4261,
      "Ġbinary": 4262,
      "ircuit": 4263,
      "83": 4264,
      "draw": 4265,
      "ipe": 4266,
      "mg": 4267,
      "vari": 4268,
      "ider": 4269,
      "linear": 4270,
      "flag": 4271,
      "Ġadmin": 4272,
      "Ġagreed": 4273,
      "exclude": 4274,
      "ĠImport": 4275,
      "Snapshot": 4276,
      "si": 4277,
      "tab": 4278,
      "Ġdetails": 4279,
      "exist": 4280,
      "ĠSy": 4281,
      "FIG": 4282,
      "46": 4283,
      "export": 4284,
      "Ġcomb": 4285,
      "ensure": 4286,
      "]]:": 4287,
      "Ġsubprocess": 4288,
      "Ġcontainer": 4289,
      "Ġlimitations": 4290,
      "Ġinvalid": 4291,
      "cm": 4292,
      "ric": 4293,
      "Ġperform": 4294,
      "struction": 4295,
      "([\"": 4296,
      "]*": 4297,
      "Ġsepar": 4298,
      "Ġzero": 4299,
      "Ġabout": 4300,
      "Def": 4301,
      "PAR": 4302,
      "feed": 4303,
      "']))": 4304,
      "agg": 4305,
      "ĠResource": 4306,
      "security": 4307,
      "sqrt": 4308,
      "alth": 4309,
      "ĠText": 4310,
      "Ġtrack": 4311,
      ")])": 4312,
      "Ġ15": 4313,
      "ĠĠĠĠĠĠĠĠĠĠĠĠĠĠĠĠĠĠĠĠĠĠĠĠĠĠĠĠĠĠĠĠĠĠĠĠĠĠĠĠĠĠĠĠĠĠĠ": 4314,
      "miss": 4315,
      "HTTP": 4316,
      "Ġ64": 4317,
      "Ġprevious": 4318,
      "Ġcommon": 4319,
      "Range": 4320,
      "UD": 4321,
      "Ġmetrics": 4322,
      "iler": 4323,
      "Ġdelta": 4324,
      "ĠUnless": 4325,
      "Doc": 4326,
      "ng": 4327,
      "Ñģ": 4328,
      "2019": 4329,
      "dat": 4330,
      "lt": 4331,
      "adcast": 4332,
      "Ġ30": 4333,
      "Start": 4334,
      "Network": 4335,
      "SV": 4336,
      "Ġmapping": 4337,
      "GL": 4338,
      "bus": 4339,
      "cursor": 4340,
      "Iter": 4341,
      "Ġtokens": 4342,
      "ĠAuth": 4343,
      "question": 4344,
      "Ġaccept": 4345,
      "asure": 4346,
      "lag": 4347,
      "Ġseq": 4348,
      "trie": 4349,
      "failed": 4350,
      "å®": 4351,
      "ĠmibBuilder": 4352,
      "proxy": 4353,
      "ndarray": 4354,
      "Tests": 4355,
      "Ġassoci": 4356,
      "Cl": 4357,
      "Mode": 4358,
      "Ġ])": 4359,
      "Ġlearning": 4360,
      "Ġinterval": 4361,
      "Ġunittest": 4362,
      "ĠOr": 4363,
      "filters": 4364,
      "DATA": 4365,
      "Ġel": 4366,
      "Act": 4367,
      "aut": 4368,
      "kw": 4369,
      "rece": 4370,
      "sole": 4371,
      "png": 4372,
      "73": 4373,
      "Ġexpression": 4374,
      "Ġident": 4375,
      ")/": 4376,
      "SD": 4377,
      "è¿": 4378,
      "Ġvol": 4379,
      "ĠQu": 4380,
      "ategorical": 4381,
      "DER": 4382,
      "If": 4383,
      "card": 4384,
      "ually": 4385,
      "Ġremo": 4386,
      "Ġsim": 4387,
      "SIZE": 4388,
      "hass": 4389,
      "instr": 4390,
      "uest": 4391,
      "amily": 4392,
      "disk": 4393,
      "49": 4394,
      "Ġ\")": 4395,
      "Ġscores": 4396,
      "verbose": 4397,
      "cii": 4398,
      "igrations": 4399,
      "Ġfetch": 4400,
      "uted": 4401,
      "prev": 4402,
      "Ġpresent": 4403,
      "Ġprivate": 4404,
      "FL": 4405,
      "ametri": 4406,
      "Ġcontrol": 4407,
      "([[": 4408,
      "balance": 4409,
      "Ð½": 4410,
      "Ġmarket": 4411,
      "sens": 4412,
      "peer": 4413,
      "adapt": 4414,
      "Ġpossible": 4415,
      "pd": 4416,
      "Ġpop": 4417,
      "registry": 4418,
      "button": 4419,
      "OUT": 4420,
      "Ġ'',": 4421,
      "Ġind": 4422,
      "until": 4423,
      "ĠConfig": 4424,
      "AM": 4425,
      "Ġcli": 4426,
      "lica": 4427,
      "Ġpolicy": 4428,
      "Num": 4429,
      "``.": 4430,
      ":\\": 4431,
      "Ġfill": 4432,
      "esc": 4433,
      "Ġpaths": 4434,
      "arange": 4435,
      "ents": 4436,
      "Ġder": 4437,
      "artifact": 4438,
      "operator": 4439,
      "Rout": 4440,
      "Ġredirect": 4441,
      "pick": 4442,
      "aa": 4443,
      "inf": 4444,
      "ometry": 4445,
      "}\".": 4446,
      "Ġbbox": 4447,
      "Ġ[(": 4448,
      "ilities": 4449,
      "Ġusers": 4450,
      "Ġdistance": 4451,
      "Series": 4452,
      "COL": 4453,
      "andidate": 4454,
      "Ref": 4455,
      "ibility": 4456,
      "%(": 4457,
      "../": 4458,
      "gpu": 4459,
      "à¦": 4460,
      "Template": 4461,
      "Ġseed": 4462,
      "attrs": 4463,
      "Ġagain": 4464,
      "components": 4465,
      "Callback": 4466,
      "Ġ1000": 4467,
      "ĠĠĠĠĠĠĠĠĠĠĠĠĠĠĠĠĠĠĠĠĠĠĠĠĠĠĠĠĠĠĠĠĠĠĠĠĠĠĠĠĠ": 4468,
      "ĠUse": 4469,
      "Ġdoesn": 4470,
      "hs": 4471,
      "sist": 4472,
      "Ġdone": 4473,
      "verter": 4474,
      "dified": 4475,
      "Api": 4476,
      "Ġtheir": 4477,
      "ĠApp": 4478,
      "cessed": 4479,
      "aster": 4480,
      "rot": 4481,
      "scribe": 4482,
      "curs": 4483,
      "checkpoint": 4484,
      "ĠNumber": 4485,
      "Batch": 4486,
      "MAX": 4487,
      "Point": 4488,
      "Ġoperator": 4489,
      "Ġallowed": 4490,
      "igration": 4491,
      "Ġtargets": 4492,
      "__\":": 4493,
      "TRA": 4494,
      "={}": 4495,
      "Ġreverse": 4496,
      "Ġside": 4497,
      "Ġnote": 4498,
      "ral": 4499,
      "Ġadditional": 4500,
      "58": 4501,
      "dify": 4502,
      "'[": 4503,
      "Ass": 4504,
      "ips": 4505,
      "čččĊ": 4506,
      "Ġreason": 4507,
      "Ġinte": 4508,
      "mapping": 4509,
      "props": 4510,
      "acity": 4511,
      "Ġcompat": 4512,
      "Ġstatic": 4513,
      ".'": 4514,
      "New": 4515,
      "squ": 4516,
      "vs": 4517,
      "second": 4518,
      "assertFalse": 4519,
      "Ġmove": 4520,
      "Ġcap": 4521,
      "Ġflow": 4522,
      "Ġbranch": 4523,
      "ĠPer": 4524,
      "most": 4525,
      "buf": 4526,
      "WS": 4527,
      "spect": 4528,
      "Ġforward": 4529,
      "actory": 4530,
      "Standard": 4531,
      "2017": 4532,
      "fully": 4533,
      "ĠWor": 4534,
      "Ġupdated": 4535,
      "Ġdownload": 4536,
      "heet": 4537,
      "Ġsyn": 4538,
      "Ġdraw": 4539,
      "enu": 4540,
      "imer": 4541,
      "render": 4542,
      "ĠWhen": 4543,
      "ĠJiang": 4544,
      "Ġnorm": 4545,
      "framework": 4546,
      "ĠToken": 4547,
      "Ġenvironment": 4548,
      ")}": 4549,
      "bits": 4550,
      "SO": 4551,
      "force": 4552,
      "CI": 4553,
      "åĽ": 4554,
      "omatic": 4555,
      "Ġmsat": 4556,
      "BO": 4557,
      "ming": 4558,
      "single": 4559,
      "cription": 4560,
      "evaluate": 4561,
      "Ġboxes": 4562,
      "Digital": 4563,
      "iltin": 4564,
      "ational": 4565,
      "Ġexc": 4566,
      "MAGE": 4567,
      "åĬ": 4568,
      "Ġhy": 4569,
      "Ġsuch": 4570,
      "Ġoc": 4571,
      "Ġpeer": 4572,
      "198": 4573,
      "PU": 4574,
      "Ġpk": 4575,
      "Ġplatform": 4576,
      "tered": 4577,
      "ĠEX": 4578,
      "ixel": 4579,
      "tasks": 4580,
      "TIME": 4581,
      "Ġfolder": 4582,
      "ĠOpen": 4583,
      "Ġunicode": 4584,
      "Ġencode": 4585,
      "Ġrunning": 4586,
      "Ġstore": 4587,
      "Ġfn": 4588,
      "Ġstyle": 4589,
      "formats": 4590,
      "mplementation": 4591,
      ",),": 4592,
      "Ġrest": 4593,
      "Ġsix": 4594,
      "STR": 4595,
      "ç»": 4596,
      "secret": 4597,
      "Ġmissing": 4598,
      "ilar": 4599,
      "ĠOb": 4600,
      "cla": 4601,
      "ended": 4602,
      "Ġparsed": 4603,
      "requency": 4604,
      "ĠSpec": 4605,
      "Ġwords": 4606,
      "Task": 4607,
      "ya": 4608,
      "decoder": 4609,
      "asis": 4610,
      "9999": 4611,
      "Pool": 4612,
      "Ġlock": 4613,
      "Texts": 4614,
      "Ġour": 4615,
      "ĠJSON": 4616,
      "Account": 4617,
      "Ġdimension": 4618,
      "Volume": 4619,
      "just": 4620,
      "wrap": 4621,
      "}'.": 4622,
      "erature": 4623,
      "Ġissue": 4624,
      "Ġdump": 4625,
      "Ġwould": 4626,
      "uplic": 4627,
      "Ġwithin": 4628,
      "Search": 4629,
      "Ġdocumentation": 4630,
      "clear": 4631,
      "mid": 4632,
      "sg": 4633,
      "Ġbit": 4634,
      "Ġhass": 4635,
      "INTER": 4636,
      "éĩ": 4637,
      "ection": 4638,
      "preter": 4639,
      "ddd": 4640,
      "binary": 4641,
      "Ġperson": 4642,
      "Sc": 4643,
      "Ġ-=": 4644,
      "Ġrights": 4645,
      "MODE": 4646,
      "Entity": 4647,
      "NN": 4648,
      "ench": 4649,
      "ited": 4650,
      "Ġcoordin": 4651,
      "loadTexts": 4652,
      "GER": 4653,
      "Ġrole": 4654,
      "complete": 4655,
      "Ġspace": 4656,
      "Ġcursor": 4657,
      "suffix": 4658,
      "missing": 4659,
      "ai": 4660,
      "Ġremote": 4661,
      "undle": 4662,
      "byte": 4663,
      "Ġipv": 4664,
      "chor": 4665,
      "times": 4666,
      "readonly": 4667,
      "Ġsteps": 4668,
      "Back": 4669,
      "rong": 4670,
      "\"\")": 4671,
      "')),": 4672,
      "ĠCave": 4673,
      "compat": 4674,
      "begin": 4675,
      "ĠSub": 4676,
      "ĠCO": 4677,
      "usters": 4678,
      "signed": 4679,
      "255": 4680,
      "shift": 4681,
      "Ġencoder": 4682,
      "ongo": 4683,
      "cording": 4684,
      "################################################################": 4685,
      "æį": 4686,
      "ĠAs": 4687,
      "Ġprofile": 4688,
      "69": 4689,
      "æł": 4690,
      "after": 4691,
      "spark": 4692,
      "database": 4693,
      "Ġbuffer": 4694,
      "MAP": 4695,
      "MIN": 4696,
      "gamma": 4697,
      "ĠBo": 4698,
      "Process": 4699,
      "Ġpaddle": 4700,
      "enum": 4701,
      "Ġvector": 4702,
      "Ġoperations": 4703,
      "Ġgoogle": 4704,
      "Enum": 4705,
      "UE": 4706,
      "Var": 4707,
      "Ġreq": 4708,
      "requests": 4709,
      "big": 4710,
      "hwRsvpTe": 4711,
      "delay": 4712,
      "Ġ25": 4713,
      "sha": 4714,
      "Ġmatplotlib": 4715,
      "ä½": 4716,
      "Ġut": 4717,
      "Ġrank": 4718,
      "Ġbeing": 4719,
      "Color": 4720,
      "ĠSeries": 4721,
      "Ġds": 4722,
      "ĠSoftware": 4723,
      "Settings": 4724,
      "bad": 4725,
      "scalar": 4726,
      "ĠAND": 4727,
      "70": 4728,
      "Http": 4729,
      "Ġtool": 4730,
      "]).": 4731,
      "encoding": 4732,
      "Ġbyte": 4733,
      "swap": 4734,
      "'^": 4735,
      "Ġcert": 4736,
      "Ġfree": 4737,
      "Ġcollections": 4738,
      "1111": 4739,
      "commands": 4740,
      "ĠOut": 4741,
      "AGS": 4742,
      "nb": 4743,
      "alled": 4744,
      "ascii": 4745,
      "Ġprovide": 4746,
      "ialization": 4747,
      "PUT": 4748,
      "rv": 4749,
      "Ġrelative": 4750,
      "cost": 4751,
      "Method": 4752,
      "PR": 4753,
      "once": 4754,
      "rances": 4755,
      "Ġaxes": 4756,
      "}}": 4757,
      "colors": 4758,
      "ports": 4759,
      "mitted": 4760,
      "Auto": 4761,
      "][\"": 4762,
      "tile": 4763,
      "alysis": 4764,
      "lis": 4765,
      "EC": 4766,
      "inst": 4767,
      "adding": 4768,
      "Ġkind": 4769,
      "trained": 4770,
      "merge": 4771,
      "cing": 4772,
      "READ": 4773,
      "ĠStandard": 4774,
      "gradient": 4775,
      "cr": 4776,
      "font": 4777,
      "()),": 4778,
      "lap": 4779,
      "ĠIndex": 4780,
      "fname": 4781,
      "resp": 4782,
      "Ġ:,": 4783,
      "Ġprotocol": 4784,
      "ĠMulti": 4785,
      "ĠNaN": 4786,
      "Ġoptim": 4787,
      "ĠSets": 4788,
      "Alert": 4789,
      "sorted": 4790,
      "WARE": 4791,
      "gence": 4792,
      "mm": 4793,
      "ength": 4794,
      "ssian": 4795,
      "Ġeps": 4796,
      "Ġmedi": 4797,
      "ĠLog": 4798,
      "structure": 4799,
      "Ġevents": 4800,
      "zy": 4801,
      "unct": 4802,
      "keyword": 4803,
      "AUT": 4804,
      "hat": 4805,
      "qubit": 4806,
      "Ġuint": 4807,
      "Ġtesting": 4808,
      "many": 4809,
      "gine": 4810,
      "ires": 4811,
      "Ġmx": 4812,
      "theta": 4813,
      "###": 4814,
      "mpling": 4815,
      "Ġsubject": 4816,
      "Ġidentifier": 4817,
      "Ġcrop": 4818,
      "lim": 4819,
      "Ġ[-": 4820,
      "Ġmember": 4821,
      "Ġprogram": 4822,
      "ATT": 4823,
      "mk": 4824,
      "til": 4825,
      "Ġindic": 4826,
      "identifier": 4827,
      "....": 4828,
      "Ġregion": 4829,
      "Ġselected": 4830,
      ")\\": 4831,
      "OB": 4832,
      "plugin": 4833,
      "Params": 4834,
      "hint": 4835,
      "defined": 4836,
      "ĠFROM": 4837,
      "views": 4838,
      "roll": 4839,
      "ValueError": 4840,
      "Ġconstruct": 4841,
      "mble": 4842,
      "Ġ{})": 4843,
      "expand": 4844,
      "Serializer": 4845,
      "Ali": 4846,
      "NE": 4847,
      "utable": 4848,
      "lookup": 4849,
      "ĉĉĉĉĉ": 4850,
      "Cmd": 4851,
      "attention": 4852,
      "quee": 4853,
      "ĠEnt": 4854,
      "acle": 4855,
      "environment": 4856,
      "allel": 4857,
      "Min": 4858,
      "è¡": 4859,
      "ĠSich": 4860,
      "Ġdev": 4861,
      "ĠFI": 4862,
      "ifest": 4863,
      "NotFound": 4864,
      "ĠSichuan": 4865,
      "gent": 4866,
      "logy": 4867,
      "crypt": 4868,
      "lex": 4869,
      "lear": 4870,
      "lia": 4871,
      "Ġforce": 4872,
      "Ġsens": 4873,
      ")\"": 4874,
      "Float": 4875,
      "Train": 4876,
      "ident": 4877,
      "ading": 4878,
      "percent": 4879,
      "Ġchunk": 4880,
      "Ġplan": 4881,
      "ĠYun": 4882,
      "Opt": 4883,
      "sses": 4884,
      "uting": 4885,
      "Ġstock": 4886,
      "CONF": 4887,
      "ĠYunnan": 4888,
      "inds": 4889,
      "comb": 4890,
      "shared": 4891,
      "getLogger": 4892,
      "Ġseconds": 4893,
      "Ġinternal": 4894,
      "52": 4895,
      "ipv": 4896,
      "âĸ": 4897,
      "learning": 4898,
      "forward": 4899,
      "MAIN": 4900,
      "Ġcorresponding": 4901,
      "ĠClient": 4902,
      "logits": 4903,
      "SELECT": 4904,
      "Ġcommands": 4905,
      "__.": 4906,
      "parametri": 4907,
      "permissions": 4908,
      "Wrapper": 4909,
      "('%": 4910,
      "Ġwhat": 4911,
      "sym": 4912,
      "âĶĢâĶĢâĶĢâĶĢ": 4913,
      "MI": 4914,
      "des": 4915,
      "arge": 4916,
      "ird": 4917,
      "decay": 4918,
      "come": 4919,
      "Ġurllib": 4920,
      "/',": 4921,
      "(\"%": 4922,
      "Ġalways": 4923,
      "ITE": 4924,
      "optim": 4925,
      "dl": 4926,
      "Ġrequires": 4927,
      "simple": 4928,
      "alt": 4929,
      "Ġdistribution": 4930,
      "Ġ11": 4931,
      "Ġchain": 4932,
      "Ġpublic": 4933,
      ",)": 4934,
      "IE": 4935,
      "Ġ).": 4936,
      "ĠNode": 4937,
      "ront": 4938,
      "VERSION": 4939,
      "Ns": 4940,
      "000000": 4941,
      "SC": 4942,
      "Ġ')": 4943,
      "ĠBaxA": 4944,
      "Ġunits": 4945,
      "Ġsamples": 4946,
      "THER": 4947,
      "Symbol": 4948,
      "ĠExamples": 4949,
      "Target": 4950,
      "ulation": 4951,
      "Ġlibrary": 4952,
      "hot": 4953,
      "Ġarch": 4954,
      "argin": 4955,
      "Ġworld": 4956,
      "Ġlook": 4957,
      "Ġappro": 4958,
      "SH": 4959,
      "iod": 4960,
      "attach": 4961,
      "instances": 4962,
      "escape": 4963,
      "')])": 4964,
      "____": 4965,
      "resses": 4966,
      "Ġstrings": 4967,
      "children": 4968,
      "lation": 4969,
      "uch": 4970,
      "ĠTe": 4971,
      "cross": 4972,
      "Ġeffect": 4973,
      "ĠĠĠĠĠĠĠĠĠĠĠĠĠĠĠĠĠĠĠĠĠĠĠĠĠĠĠĠĠĠĠĠĠĠĠĠĠĠĠĠ": 4974,
      "signature": 4975,
      "Ġtopic": 4976,
      "()).": 4977,
      "ĠTrans": 4978,
      "Stream": 4979,
      "mesh": 4980,
      "cel": 4981,
      "Ġì": 4982,
      "review": 4983,
      "Ġops": 4984,
      "AND": 4985,
      "letion": 4986,
      "CONFIG": 4987,
      "Ġvirtual": 4988,
      "cover": 4989,
      "]]):": 4990,
      "Ġneeded": 4991,
      "Ġgradient": 4992,
      "43": 4993,
      "Optional": 4994,
      "ale": 4995,
      "rance": 4996,
      "Ġ255": 4997,
      "Ġorigin": 4998,
      "+'": 4999,
      "embedding": 5000,
      "Ġvia": 5001,
      "Ġ\"{": 5002,
      "Ġsimul": 5003,
      "currency": 5004,
      "Ġinstances": 5005,
      "Ġflag": 5006,
      "icrosoft": 5007,
      "reference": 5008,
      "alog": 5009,
      "unch": 5010,
      "Mat": 5011,
      "tle": 5012,
      "oriz": 5013,
      "unicode": 5014,
      "expression": 5015,
      "before": 5016,
      "Ġids": 5017,
      "subject": 5018,
      "Ġapplication": 5019,
      "queeze": 5020,
      "JECT": 5021,
      "Red": 5022,
      "URE": 5023,
      "kind": 5024,
      "regex": 5025,
      "ĠRE": 5026,
      "pending": 5027,
      "cut": 5028,
      "area": 5029,
      "ressed": 5030,
      "using": 5031,
      ")],": 5032,
      ">\\": 5033,
      "lers": 5034,
      "rees": 5035,
      "require": 5036,
      "---": 5037,
      "ateway": 5038,
      "Change": 5039,
      "parametrize": 5040,
      "Meta": 5041,
      "Schema": 5042,
      "çĶ": 5043,
      "Ġvoid": 5044,
      "[:-": 5045,
      "clip": 5046,
      "factory": 5047,
      "Ġassociated": 5048,
      "mem": 5049,
      "Ġcsv": 5050,
      "Ġcontact": 5051,
      "Ġxml": 5052,
      "Ġactive": 5053,
      ":.": 5054,
      "duc": 5055,
      "align": 5056,
      "Ġ'')": 5057,
      "voice": 5058,
      "viders": 5059,
      "Ġindi": 5060,
      "istribut": 5061,
      "formed": 5062,
      "bi": 5063,
      "Ġ\"+": 5064,
      "HER": 5065,
      "BASE": 5066,
      "101": 5067,
      "PRE": 5068,
      "ferences": 5069,
      "structions": 5070,
      "Down": 5071,
      "MT": 5072,
      "Norm": 5073,
      "reen": 5074,
      "Ġattention": 5075,
      "warn": 5076,
      "unks": 5077,
      "123": 5078,
      "={\"": 5079,
      "mgmt": 5080,
      "fd": 5081,
      "ĠSO": 5082,
      "Ġotherwise": 5083,
      "choice": 5084,
      "Packet": 5085,
      "pair": 5086,
      "Ġflask": 5087,
      "ĠSettingsCmd": 5088,
      "schedule": 5089,
      "41": 5090,
      "OK": 5091,
      "WE": 5092,
      "lev": 5093,
      "ĠAc": 5094,
      "ĠEvent": 5095,
      "Ġshutil": 5096,
      "Ġacc": 5097,
      "Multi": 5098,
      "fee": 5099,
      "MAIL": 5100,
      "lang": 5101,
      "æĹ": 5102,
      "Ġjoin": 5103,
      "Ġfra": 5104,
      "ĠMib": 5105,
      "ONE": 5106,
      "sendText": 5107,
      "havi": 5108,
      "niDigital": 5109,
      "anxi": 5110,
      "')],": 5111,
      "ILITY": 5112,
      "reason": 5113,
      "Ġplease": 5114,
      "Ġstri": 5115,
      "SET": 5116,
      "ĠExit": 5117,
      "abspath": 5118,
      "blue": 5119,
      "ĠUpdate": 5120,
      ">=": 5121,
      "utation": 5122,
      "coords": 5123,
      "Ġbar": 5124,
      "plt": 5125,
      "72": 5126,
      "92": 5127,
      "Stack": 5128,
      "ĠAsync": 5129,
      "tainer": 5130,
      "Ġneeds": 5131,
      "And": 5132,
      "wik": 5133,
      "Ġfp": 5134,
      "Ġexecute": 5135,
      "Ġmetavar": 5136,
      "Ip": 5137,
      "ius": 5138,
      "native": 5139,
      "ands": 5140,
      "FORM": 5141,
      "GB": 5142,
      "Page": 5143,
      "inner": 5144,
      "Ġ[])": 5145,
      "è®": 5146,
      "Ġ{},": 5147,
      "sizes": 5148,
      "vt": 5149,
      "LIST": 5150,
      "68": 5151,
      "cpp": 5152,
      "ji": 5153,
      "requires": 5154,
      "\"][": 5155,
      "Program": 5156,
      "month": 5157,
      "leton": 5158,
      "Ġactivation": 5159,
      "Normal": 5160,
      "}\\": 5161,
      "ĠValid": 5162,
      "Ed": 5163,
      "Ġbegin": 5164,
      "Ġrot": 5165,
      "Ġdeserialized": 5166,
      "LS": 5167,
      "bs": 5168,
      "abilities": 5169,
      "ĠĠĠĠĠĠĠĠĠĠĠĠĠĠĠĠĠĠĠĠĠĠĠĠĠĠĠĠĠĠĠĠĠĠĠĠĠĠĠĠĠĠĠĠ": 5170,
      "axes": 5171,
      "NUM": 5172,
      "Ġsci": 5173,
      "cbb": 5174,
      "400": 5175,
      "Ġcould": 5176,
      "Ġprogress": 5177,
      "uggestions": 5178,
      "ĠHttpResponse": 5179,
      "bt": 5180,
      "Ġlower": 5181,
      "Ġdrop": 5182,
      "Ġbias": 5183,
      "providers": 5184,
      "Ġmachine": 5185,
      "ava": 5186,
      "GR": 5187,
      "Sum": 5188,
      "Ġedit": 5189,
      "Ġtr": 5190,
      "ACE": 5191,
      "QUEST": 5192,
      "Ġmerge": 5193,
      "Mix": 5194,
      "Ġcamera": 5195,
      "Ġstdout": 5196,
      "IMAGE": 5197,
      "Ġuses": 5198,
      "localhost": 5199,
      "Attr": 5200,
      "wallet": 5201,
      "Ġmaster": 5202,
      "ĠInvalid": 5203,
      "period": 5204,
      "Ġcondition": 5205,
      "Wor": 5206,
      "effect": 5207,
      "hd": 5208,
      "Ġrequire": 5209,
      "ters": 5210,
      "ĠST": 5211,
      "firm": 5212,
      "enchmark": 5213,
      "Tri": 5214,
      "Tree": 5215,
      "push": 5216,
      "Ġgap": 5217,
      "LOW": 5218,
      "pot": 5219,
      "rev": 5220,
      "Transform": 5221,
      "Ġsvn": 5222,
      "Center": 5223,
      "lst": 5224,
      "istic": 5225,
      "Ġsegment": 5226,
      "mpler": 5227,
      "./": 5228,
      "bed": 5229,
      "Ġcross": 5230,
      "Ġ</": 5231,
      "uding": 5232,
      "relation": 5233,
      "ãĢĤ": 5234,
      "Factory": 5235,
      "avi": 5236,
      "pdf": 5237,
      "slice": 5238,
      "vocab": 5239,
      "Ġcheckpoint": 5240,
      "Buffer": 5241,
      "2000": 5242,
      "yaml": 5243,
      "MPL": 5244,
      "latest": 5245,
      "shuffle": 5246,
      "aging": 5247,
      "ĠQt": 5248,
      "Annot": 5249,
      "menv": 5250,
      "\"\",": 5251,
      "vals": 5252,
      "Ġdeprecated": 5253,
      "Ġenabled": 5254,
      "Pl": 5255,
      "camera": 5256,
      "categories": 5257,
      "Ġutil": 5258,
      "stage": 5259,
      "Ġcpp": 5260,
      "Ġinv": 5261,
      "expect": 5262,
      "Ġduring": 5263,
      "ĠGroup": 5264,
      "voke": 5265,
      "Level": 5266,
      "ĠPre": 5267,
      "dapt": 5268,
      "audio": 5269,
      "Ġlow": 5270,
      "ĠTuple": 5271,
      "Ġmesh": 5272,
      "cached": 5273,
      "Ġchannels": 5274,
      "Ġrepresentation": 5275,
      "NING": 5276,
      "dense": 5277,
      "writ": 5278,
      "Ġflat": 5279,
      "ĠField": 5280,
      "moco": 5281,
      "Ġboolean": 5282,
      "Identifier": 5283,
      "'re": 5284,
      "Constraint": 5285,
      "note": 5286,
      "publish": 5287,
      "/%": 5288,
      "Fore": 5289,
      "Ġregex": 5290,
      "Ġtimes": 5291,
      "Ġusername": 5292,
      "Failed": 5293,
      "æī": 5294,
      "Ġ))": 5295,
      "seline": 5296,
      "preview": 5297,
      "Ġdirection": 5298,
      "Ġ60": 5299,
      "kes": 5300,
      "vas": 5301,
      "Ġ'<": 5302,
      "ANT": 5303,
      ")\",": 5304,
      "rm": 5305,
      "complex": 5306,
      "æį®": 5307,
      "guid": 5308,
      "some": 5309,
      "Ġbeta": 5310,
      "ĠSQL": 5311,
      "ĠAd": 5312,
      "bei": 5313,
      "Ġflags": 5314,
      "Ġsaved": 5315,
      "dell": 5316,
      "roid": 5317,
      "ropy": 5318,
      "Ġasynchronous": 5319,
      "Exec": 5320,
      "culate": 5321,
      "hour": 5322,
      "Ġmp": 5323,
      "alf": 5324,
      "Ġig": 5325,
      "contact": 5326,
      "forms": 5327,
      "initions": 5328,
      "ĠRequest": 5329,
      "udit": 5330,
      "ili": 5331,
      "avg": 5332,
      "ĠKeyError": 5333,
      "Row": 5334,
      "Ġtransaction": 5335,
      "Ġprodu": 5336,
      "TA": 5337,
      "bf": 5338,
      "false": 5339,
      "usage": 5340,
      "segment": 5341,
      "alan": 5342,
      "MPLE": 5343,
      "packages": 5344,
      "wit": 5345,
      "stderr": 5346,
      "span": 5347,
      "9633": 5348,
      "constants": 5349,
      "ĠHebei": 5350,
      "Tuple": 5351,
      "squeeze": 5352,
      "']),": 5353,
      "ORY": 5354,
      "ĠInput": 5355,
      "transpose": 5356,
      "svn": 5357,
      "Ġdestination": 5358,
      "mar": 5359,
      "adya": 5360,
      "counts": 5361,
      "setStatus": 5362,
      "Ġmany": 5363,
      "Ġmeans": 5364,
      "IST": 5365,
      "dk": 5366,
      "oogle": 5367,
      "Ġensure": 5368,
      "loaded": 5369,
      "ueue": 5370,
      "accuracy": 5371,
      "unittest": 5372,
      "Validator": 5373,
      "Open": 5374,
      "{\"": 5375,
      "Ġfake": 5376,
      "><": 5377,
      "game": 5378,
      "rer": 5379,
      "umul": 5380,
      "Ġthreshold": 5381,
      "PN": 5382,
      "Qt": 5383,
      "zen": 5384,
      "Ġfactor": 5385,
      "ĠsetUp": 5386,
      "Ext": 5387,
      "Ġpower": 5388,
      "Ġprediction": 5389,
      "Ġchoices": 5390,
      "pandas": 5391,
      "éĢ": 5392,
      "()):": 5393,
      "Ġshuffle": 5394,
      "518": 5395,
      "Pass": 5396,
      "INFO": 5397,
      "running": 5398,
      "86157": 5399,
      "links": 5400,
      "{}'.": 5401,
      "elements": 5402,
      "gan": 5403,
      "geo": 5404,
      "Ġsimple": 5405,
      "Ġcomment": 5406,
      "flatten": 5407,
      "Fail": 5408,
      "Sup": 5409,
      "black": 5410,
      "Ġlayers": 5411,
      "Ġbad": 5412,
      "market": 5413,
      "media": 5414,
      ")(": 5415,
      "padding": 5416,
      "')[": 5417,
      "ĠRaises": 5418,
      "cade": 5419,
      "ĠInit": 5420,
      "Off": 5421,
      "æĪ": 5422,
      "Ġput": 5423,
      "Ġdefaults": 5424,
      "days": 5425,
      "'})": 5426,
      "Core": 5427,
      "elem": 5428,
      "Ġast": 5429,
      "Ġdefinition": 5430,
      "Ġdeleted": 5431,
      "logs": 5432,
      "present": 5433,
      "ĠMeta": 5434,
      "ãģ®": 5435,
      "yang": 5436,
      "Ġctypes": 5437,
      "()]": 5438,
      "ĠDi": 5439,
      "ugment": 5440,
      "ORS": 5441,
      "aving": 5442,
      "Ġinterpol": 5443,
      "randint": 5444,
      "jor": 5445,
      "Ġinsert": 5446,
      "LED": 5447,
      "akes": 5448,
      "Dep": 5449,
      "Ġowner": 5450,
      "Url": 5451,
      "\\',": 5452,
      "Ġhex": 5453,
      "Ġagg": 5454,
      "Ġkeras": 5455,
      "Ġprec": 5456,
      "utton": 5457,
      "Ġwho": 5458,
      "Ġyear": 5459,
      "æķ°æį®": 5460,
      "ĠImportError": 5461,
      "USE": 5462,
      "VICE": 5463,
      "uous": 5464,
      "Ġ14": 5465,
      "annotations": 5466,
      "Ġsuffix": 5467,
      "78": 5468,
      "Part": 5469,
      "SUB": 5470,
      "Warning": 5471,
      "ryption": 5472,
      "Ġalias": 5473,
      "Ġfreq": 5474,
      "added": 5475,
      "mak": 5476,
      "provider": 5477,
      "Read": 5478,
      "neighb": 5479,
      "marker": 5480,
      "ĠArgument": 5481,
      "ĠOnly": 5482,
      "urface": 5483,
      "Ġdepth": 5484,
      "tries": 5485,
      "ivative": 5486,
      "APP": 5487,
      "Match": 5488,
      "entities": 5489,
      "lier": 5490,
      "System": 5491,
      "Ġincluded": 5492,
      "BUT": 5493,
      "tz": 5494,
      "share": 5495,
      "300": 5496,
      "500": 5497,
      "Dir": 5498,
      "wards": 5499,
      "Ġtheta": 5500,
      "program": 5501,
      "Ġexclude": 5502,
      "Ġlr": 5503,
      "Ġsen": 5504,
      "ĠError": 5505,
      "library": 5506,
      "edges": 5507,
      "Ġcy": 5508,
      "ializers": 5509,
      "solution": 5510,
      "Ġrelated": 5511,
      "speed": 5512,
      "isode": 5513,
      "direction": 5514,
      "ĠMake": 5515,
      "Ġstates": 5516,
      "Ġasyncio": 5517,
      "rules": 5518,
      "ĠRuntime": 5519,
      "Port": 5520,
      "deep": 5521,
      "endswith": 5522,
      "sph": 5523,
      "Types": 5524,
      "Ġrepresenting": 5525,
      "*.": 5526,
      "GHT": 5527,
      "Link": 5528,
      "dp": 5529,
      "ga": 5530,
      "syn": 5531,
      "ĠClo": 5532,
      "should": 5533,
      "contents": 5534,
      "Ġblocks": 5535,
      "Ġprimary": 5536,
      "probs": 5537,
      "ubei": 5538,
      "done": 5539,
      "Ġfalse": 5540,
      "Ġnamed": 5541,
      "scriptions": 5542,
      "1234": 5543,
      "DIS": 5544,
      "Bucket": 5545,
      "FTWARE": 5546,
      "mes": 5547,
      "Ġpixel": 5548,
      "asm": 5549,
      "bert": 5550,
      "precision": 5551,
      "ĠOutput": 5552,
      "Socket": 5553,
      "redirect": 5554,
      "(\"-": 5555,
      "Ġbelow": 5556,
      "ĠOper": 5557,
      "ĠHubei": 5558,
      "cient": 5559,
      "Ġsummary": 5560,
      "Ġscipy": 5561,
      "Top": 5562,
      "Ġå": 5563,
      "Ġmigrations": 5564,
      "contin": 5565,
      "extensions": 5566,
      "figure": 5567,
      "indent": 5568,
      "ugins": 5569,
      "projects": 5570,
      "ĠMessage": 5571,
      "!!": 5572,
      "EMAIL": 5573,
      "JSON": 5574,
      "unity": 5575,
      "Ġupload": 5576,
      "Ġsignature": 5577,
      "sparse": 5578,
      "adget": 5579,
      "izhou": 5580,
      "ĠĠĠĠĠĠĠĠĠĠĠĠĠĠĠĠĠĠĠĠĠĠĠĠĠĠĠĠĠĠĠĠĠĠĠĠĠĠĠĠĠĠĠĠĠĠ": 5581,
      "Expected": 5582,
      "Prefix": 5583,
      "members": 5584,
      "Ġsuggestion": 5585,
      "returns": 5586,
      "Description": 5587,
      "Feature": 5588,
      "car": 5589,
      "crop": 5590,
      "detail": 5591,
      "Ġprop": 5592,
      "storagecenter": 5593,
      "scheduler": 5594,
      "Mon": 5595,
      "Ne": 5596,
      "Ġri": 5597,
      "Ġdeployment": 5598,
      "ants": 5599,
      "Delete": 5600,
      ":`~": 5601,
      "crement": 5602,
      "FIL": 5603,
      "Ġdimensions": 5604,
      "Ð°Ð": 5605,
      "[(": 5606,
      "fp": 5607,
      "Ġbuilder": 5608,
      "ociation": 5609,
      "63": 5610,
      "One": 5611,
      "licas": 5612,
      "Proxy": 5613,
      "ploration": 5614,
      "atterns": 5615,
      "Ġangle": 5616,
      "details": 5617,
      "ilent": 5618,
      "machine": 5619,
      "__.__": 5620,
      "0101": 5621,
      "cfunc": 5622,
      "Ġquant": 5623,
      "Loss": 5624,
      "examples": 5625,
      "Ġreset": 5626,
      "ĠFOR": 5627,
      "Ġleg": 5628,
      "Ġabs": 5629,
      "ĠId": 5630,
      "ĠMock": 5631,
      "runtime": 5632,
      "Ġmodules": 5633,
      "Ġchanged": 5634,
      "mediate": 5635,
      "Ġhistory": 5636,
      "Ph": 5637,
      "sn": 5638,
      "Ġnd": 5639,
      "Ġdecode": 5640,
      "Ġ_(\"": 5641,
      "matches": 5642,
      "Ġresources": 5643,
      "Ġsignal": 5644,
      ")')": 5645,
      "Graph": 5646,
      "udio": 5647,
      "ĠSE": 5648,
      "ĠĠĠĠĠĠĠĠĠĠĠĠĠĠĠĠĠĠĠĠĠĠĠĠĠĠĠĠĠĠĠĠĠĠĠĠĠĠĠĠĠĠĠĠĠĠĠĠĠĠĠ": 5649,
      "Ġnumbers": 5650,
      "Ġpair": 5651,
      "Ġgenerator": 5652,
      "UNT": 5653,
      "Job": 5654,
      "ered": 5655,
      "las": 5656,
      "unpack": 5657,
      "istics": 5658,
      "############": 5659,
      "Ġanother": 5660,
      "Ġ------------------------------------------------------------------------": 5661,
      "-\\": 5662,
      "Be": 5663,
      "veloc": 5664,
      "ĠPRO": 5665,
      "ario": 5666,
      "``,": 5667,
      "LOCK": 5668,
      "Ġcallable": 5669,
      "Ġsklearn": 5670,
      "ipeout": 5671,
      "RY": 5672,
      "ĉčĊ": 5673,
      "ĠAS": 5674,
      "filepath": 5675,
      "ivar": 5676,
      "Ġleast": 5677,
      "condition": 5678,
      "HOST": 5679,
      "original": 5680,
      "Ġprog": 5681,
      "Ġattach": 5682,
      "ABILITY": 5683,
      "Ġdirectly": 5684,
      "glob": 5685,
      "Ġdriver": 5686,
      "ilon": 5687,
      "ĠIter": 5688,
      "ocker": 5689,
      "Ġdiff": 5690,
      "destination": 5691,
      "93": 5692,
      "Sk": 5693,
      "credentials": 5694,
      "mix": 5695,
      "ĠHT": 5696,
      "Channel": 5697,
      "failure": 5698,
      "middleware": 5699,
      "deleted": 5700,
      "ural": 5701,
      "experiment": 5702,
      "Ġduration": 5703,
      "Ġwell": 5704,
      "Ġ128": 5705,
      "ĠDefaults": 5706,
      "Sa": 5707,
      "](": 5708,
      "atory": 5709,
      "Ġentries": 5710,
      "74": 5711,
      "basic": 5712,
      "enate": 5713,
      "Ġ'[": 5714,
      "Ġschedule": 5715,
      "Ġway": 5716,
      "ĠTh": 5717,
      "Ġglob": 5718,
      "Ġ:]": 5719,
      "ĠLe": 5720,
      "*(": 5721,
      ":',": 5722,
      "fun": 5723,
      "resol": 5724,
      "chemy": 5725,
      "Ġextensions": 5726,
      "fbd": 5727,
      "Close": 5728,
      "tl": 5729,
      "pix": 5730,
      "Collection": 5731,
      "Ġmatching": 5732,
      "average": 5733,
      "orary": 5734,
      "Ġforms": 5735,
      "TypeError": 5736,
      "positions": 5737,
      "Ġdependencies": 5738,
      "dx": 5739,
      "ads": 5740,
      "('<": 5741,
      "Ġpermission": 5742,
      "Ġcalling": 5743,
      "Ġpickle": 5744,
      "Detail": 5745,
      "zure": 5746,
      "Ġbl": 5747,
      "controller": 5748,
      "Ġuuid": 5749,
      "iness": 5750,
      "Ġcurr": 5751,
      "strict": 5752,
      "ring": 5753,
      "Ġts": 5754,
      "ĠĠĠĠĠĠĠĠĠĠĠĠĠĠĠĠčĊ": 5755,
      "quential": 5756,
      "ĠLI": 5757,
      "changed": 5758,
      "ferred": 5759,
      "Ġsvntest": 5760,
      "ftime": 5761,
      "xt": 5762,
      "alg": 5763,
      "Ġaverage": 5764,
      "ĠCur": 5765,
      "Ġattemp": 5766,
      "ouse": 5767,
      "velop": 5768,
      "same": 5769,
      "country": 5770,
      "named": 5771,
      "999": 5772,
      "sources": 5773,
      "Build": 5774,
      "aussian": 5775,
      "Ġhandler": 5776,
      "$',": 5777,
      "reater": 5778,
      "aris": 5779,
      "peat": 5780,
      "Ġ256": 5781,
      "omial": 5782,
      "Configuration": 5783,
      "Ġchanges": 5784,
      "ransactions": 5785,
      "Linear": 5786,
      "ĠHTML": 5787,
      "Pub": 5788,
      "Ġlists": 5789,
      "annotation": 5790,
      "^^": 5791,
      "jpg": 5792,
      "agement": 5793,
      "tep": 5794,
      "assertIn": 5795,
      "ĠNe": 5796,
      "hostname": 5797,
      "Ġautomatic": 5798,
      ">\",": 5799,
      "SP": 5800,
      "Ġ13": 5801,
      "Ġround": 5802,
      "sphinx": 5803,
      "quote": 5804,
      "FieldDescriptor": 5805,
      "Ġsmall": 5806,
      ":\",": 5807,
      "Cre": 5808,
      "cnt": 5809,
      "Ġretrie": 5810,
      "clar": 5811,
      "ĠĠĠĠĠĠĠĠĠĠĠĠĠĠĠĠĠĠĠĠĠĠĠĠĠĠĠĠĠĠĠĠĠĠĠĠĠĠĠĠĠĠĠĠĠĠĠĠĠĠĠĠĠĠĠĠĠĠĠĠĠĠĠĠ": 5812,
      "2018": 5813,
      "jobs": 5814,
      "allowed": 5815,
      "Ġremoved": 5816,
      "AST": 5817,
      "tty": 5818,
      "hello": 5819,
      "Ġcast": 5820,
      "olds": 5821,
      "ĠMet": 5822,
      "ĠMongo": 5823,
      "ĠNO": 5824,
      "ĠValue": 5825,
      "Ġlinear": 5826,
      "ULL": 5827,
      "ĠObject": 5828,
      "Ġigno": 5829,
      ">`": 5830,
      "Ġnadya": 5831,
      "elli": 5832,
      "Ġcounter": 5833,
      "ATCH": 5834,
      "DEBUG": 5835,
      "ĠJiangsu": 5836,
      "proc": 5837,
      "Values": 5838,
      "Ġblank": 5839,
      "Ġtoo": 5840,
      "collect": 5841,
      "Ġlate": 5842,
      "({\"": 5843,
      "origin": 5844,
      "ä¿": 5845,
      "Ġtake": 5846,
      "covery": 5847,
      "Ġstored": 5848,
      "placeholder": 5849,
      "uniform": 5850,
      "rr": 5851,
      "ras": 5852,
      "ony": 5853,
      "otes": 5854,
      "Ġ*,": 5855,
      "Ġalgorithm": 5856,
      "DEF": 5857,
      "++++": 5858,
      "DATE": 5859,
      "Hash": 5860,
      "bboxes": 5861,
      "loor": 5862,
      "===": 5863,
      "tour": 5864,
      "ĠFe": 5865,
      "liter": 5866,
      "ĠAlso": 5867,
      "Ġetc": 5868,
      "Bro": 5869,
      "{{": 5870,
      "Ġ24": 5871,
      "ecimal": 5872,
      "frames": 5873,
      "pan": 5874,
      "zz": 5875,
      "alk": 5876,
      "Ġmost": 5877,
      "Ġprior": 5878,
      "Mixin": 5879,
      ")-": 5880,
      "ao": 5881,
      "eries": 5882,
      "rozen": 5883,
      "Ġhook": 5884,
      "istant": 5885,
      "RIBUT": 5886,
      "Ġconditions": 5887,
      "Cluster": 5888,
      "Temp": 5889,
      "ough": 5890,
      "reverse": 5891,
      "Ġsolution": 5892,
      "external": 5893,
      "basename": 5894,
      "2016": 5895,
      "Union": 5896,
      "62": 5897,
      "IVE": 5898,
      "agger": 5899,
      "ively": 5900,
      "Ġprice": 5901,
      "ĠSOFTWARE": 5902,
      "SQL": 5903,
      "TC": 5904,
      "Writer": 5905,
      "Ġactions": 5906,
      "ĠET": 5907,
      "ailability": 5908,
      "dimension": 5909,
      "Ġfinally": 5910,
      "distributed": 5911,
      "wall": 5912,
      "deg": 5913,
      "Ġnested": 5914,
      "Ġavoid": 5915,
      "idence": 5916,
      "prediction": 5917,
      "feat": 5918,
      "============": 5919,
      "Ġpartic": 5920,
      "Loader": 5921,
      "Ġannotations": 5922,
      "}:": 5923,
      "Ġ?": 5924,
      "seg": 5925,
      "sep": 5926,
      "rag": 5927,
      "clone": 5928,
      "Inv": 5929,
      "Register": 5930,
      "adapter": 5931,
      "css": 5932,
      "stock": 5933,
      "Ġio": 5934,
      "Ġfaker": 5935,
      "ctest": 5936,
      "Ġwriter": 5937,
      "51": 5938,
      "oto": 5939,
      "Ġwidget": 5940,
      "priority": 5941,
      "super": 5942,
      "issues": 5943,
      "Ġcharacters": 5944,
      "Ab": 5945,
      "ua": 5946,
      "æĮ": 5947,
      "sell": 5948,
      "mentum": 5949,
      "partition": 5950,
      "Python": 5951,
      "Length": 5952,
      "_.": 5953,
      "åĩ": 5954,
      "Ġslice": 5955,
      "Ġ40": 5956,
      "Eval": 5957,
      "cogn": 5958,
      "Ġden": 5959,
      "ensity": 5960,
      "Ġassume": 5961,
      "IF": 5962,
      "Ġrpc": 5963,
      "achine": 5964,
      "ROOT": 5965,
      "Ġplugin": 5966,
      "ĠService": 5967,
      "Ġeven": 5968,
      "EM": 5969,
      "PON": 5970,
      "deserialize": 5971,
      "regular": 5972,
      "rowser": 5973,
      "volumes": 5974,
      "Layout": 5975,
      "Admin": 5976,
      "5185": 5977,
      "CS": 5978,
      "kit": 5979,
      "(\"[": 5980,
      "861590": 5981,
      "corator": 5982,
      "8499": 5983,
      ".)": 5984,
      "SY": 5985,
      "Sign": 5986,
      "isfile": 5987,
      "ĠhwRsvpTe": 5988,
      "okie": 5989,
      "Ġfilters": 5990,
      "gi": 5991,
      "é¢": 5992,
      "Rep": 5993,
      "Ġalign": 5994,
      "riterion": 5995,
      "djangoproject": 5996,
      "istration": 5997,
      "SL": 5998,
      "ado": 5999,
      "oms": 6000,
      "ĠRo": 6001,
      "Select": 6002,
      "{}\".": 6003,
      "ä¸Ģ": 6004,
      "Ġviews": 6005,
      "Ġcost": 6006,
      "ogram": 6007,
      "Ġcurrently": 6008,
      "CODE": 6009,
      "lain": 6010,
      "allback": 6011,
      "Control": 6012,
      "Ġreceived": 6013,
      "Ge": 6014,
      "iases": 6015,
      "pat": 6016,
      "ĠDef": 6017,
      "Hy": 6018,
      "predictions": 6019,
      "disable": 6020,
      "Ġmodify": 6021,
      "ä¸ª": 6022,
      "Ġ2018": 6023,
      "choices": 6024,
      "Ġoccur": 6025,
      "âĸĪ": 6026,
      "cons": 6027,
      "Ġgot": 6028,
      "energy": 6029,
      "oked": 6030,
      "Keys": 6031,
      "functions": 6032,
      "ĠDEFAULT": 6033,
      "Ġown": 6034,
      "ev": 6035,
      "records": 6036,
      "pio": 6037,
      "ĠInner": 6038,
      "datasets": 6039,
      "Ġmatches": 6040,
      "helpers": 6041,
      "cip": 6042,
      "diag": 6043,
      "ppings": 6044,
      "ĠConstruct": 6045,
      "Ġsubset": 6046,
      "ĠColumn": 6047,
      "utc": 6048,
      "Ġinject": 6049,
      "workflow": 6050,
      "Ġscalar": 6051,
      "chors": 6052,
      "Ġconstraint": 6053,
      "Ġyet": 6054,
      "worker": 6055,
      "ĠCONF": 6056,
      "Operator": 6057,
      "->": 6058,
      "Middleware": 6059,
      "ane": 6060,
      "Ġdst": 6061,
      "ssl": 6062,
      "Record": 6063,
      "ĠPri": 6064,
      "ideo": 6065,
      "primary": 6066,
      "åįķ": 6067,
      "Li": 6068,
      "åŃ": 6069,
      "024": 6070,
      "grade": 6071,
      "ä¸Ń": 6072,
      "/\"": 6073,
      "Bin": 6074,
      "ĠččĊ": 6075,
      "ulk": 6076,
      "['_": 6077,
      "ĠDet": 6078,
      "Ġaddr": 6079,
      "Ġindent": 6080,
      "'+": 6081,
      ")\")": 6082,
      "constraint": 6083,
      "quences": 6084,
      "Ġbehavi": 6085,
      "fast": 6086,
      "submit": 6087,
      "aff": 6088,
      "listen": 6089,
      "Container": 6090,
      "Ġnegative": 6091,
      "Ġcalls": 6092,
      "operation": 6093,
      "âķĲâķĲâķĲâķĲâķĲâķĲâķĲâķĲ": 6094,
      "'\"": 6095,
      "61": 6096,
      "Kind": 6097,
      "Ġreserved": 6098,
      "Ġshell": 6099,
      "mappings": 6100,
      "ĠRed": 6101,
      "Ġruntime": 6102,
      "andidates": 6103,
      "UST": 6104,
      "Ġcons": 6105,
      "Ġfigure": 6106,
      "Ġinstalled": 6107,
      "blank": 6108,
      "see": 6109,
      "Ġclear": 6110,
      "pet": 6111,
      "861576": 6112,
      "Ġseries": 6113,
      "LOC": 6114,
      "integr": 6115,
      "Jo": 6116,
      "bone": 6117,
      "dy": 6118,
      "tol": 6119,
      "alert": 6120,
      "Regex": 6121,
      "Ġcollect": 6122,
      "hyper": 6123,
      "Ġptr": 6124,
      "team": 6125,
      "Ġrad": 6126,
      "ĠDoc": 6127,
      "preload": 6128,
      "Ġattrs": 6129,
      "****************": 6130,
      "velopment": 6131,
      ")+": 6132,
      "Ġmlog": 6133,
      "backup": 6134,
      "trainer": 6135,
      "MET": 6136,
      "Memory": 6137,
      "ĠDispose": 6138,
      ">'": 6139,
      "Av": 6140,
      "Empty": 6141,
      "Ġspeed": 6142,
      "ĠLine": 6143,
      "iff": 6144,
      "RIGHT": 6145,
      "VENT": 6146,
      "ae": 6147,
      "Ġimplementation": 6148,
      "Ġrelease": 6149,
      "setMax": 6150,
      "Ġsets": 6151,
      "ignKey": 6152,
      "calls": 6153,
      "dst": 6154,
      "suggestions": 6155,
      "erify": 6156,
      "dep": 6157,
      "ality": 6158,
      "ĠDB": 6159,
      "signal": 6160,
      "switch": 6161,
      "Ġclose": 6162,
      "sired": 6163,
      "knn": 6164,
      "Ġcm": 6165,
      "monitor": 6166,
      "ducer": 6167,
      "PONSE": 6168,
      "VID": 6169,
      "å¼": 6170,
      "del": 6171,
      "ĠVariable": 6172,
      "Ġexecution": 6173,
      "HERE": 6174,
      "Long": 6175,
      "OF": 6176,
      "Sto": 6177,
      "watch": 6178,
      "Ġfo": 6179,
      "serve": 6180,
      "riend": 6181,
      "ĠClass": 6182,
      "Ġthose": 6183,
      "ĠFunction": 6184,
      "ĠMan": 6185,
      "stride": 6186,
      "NS": 6187,
      "Ġ###": 6188,
      "Ġapplied": 6189,
      "FIX": 6190,
      "2020": 6191,
      "Endpoint": 6192,
      "ĠMongolia": 6193,
      "AME": 6194,
      "DD": 6195,
      "tk": 6196,
      "åº": 6197,
      "protect": 6198,
      "XXX": 6199,
      "Provider": 6200,
      "symbols": 6201,
      "ĠResponse": 6202,
      "Ġtermin": 6203,
      "Ġcalculate": 6204,
      "Ġignored": 6205,
      "TEXT": 6206,
      "unge": 6207,
      "allen": 6208,
      "Ġexport": 6209,
      "usion": 6210,
      "Ġresol": 6211,
      "irt": 6212,
      "cesses": 6213,
      "Ġtasks": 6214,
      "uplicate": 6215,
      "Simple": 6216,
      "Ġfore": 6217,
      "strftime": 6218,
      "ĠDO": 6219,
      "Project": 6220,
      "Ġarrays": 6221,
      "stanti": 6222,
      "ADD": 6223,
      "Ġstructure": 6224,
      "ĠCallable": 6225,
      "Cache": 6226,
      "PY": 6227,
      "Ġcenter": 6228,
      "Ġrepository": 6229,
      "ilt": 6230,
      "Ġhome": 6231,
      "ised": 6232,
      "ĠInteger": 6233,
      "Ġannotation": 6234,
      ")'": 6235,
      "Ġestim": 6236,
      "Ġ=================================": 6237,
      "deletion": 6238,
      "appro": 6239,
      "Ġstill": 6240,
      "hood": 6241,
      "selected": 6242,
      "handlers": 6243,
      "aces": 6244,
      "cid": 6245,
      "nc": 6246,
      "çĽ": 6247,
      "Ġusage": 6248,
      "(\"<": 6249,
      "Ġlater": 6250,
      "related": 6251,
      "override": 6252,
      "Ġinplace": 6253,
      "truth": 6254,
      "Ġwere": 6255,
      "white": 6256,
      "heads": 6257,
      "ArgumentParser": 6258,
      "Button": 6259,
      "Flag": 6260,
      "cn": 6261,
      "vlan": 6262,
      "router": 6263,
      "utions": 6264,
      "Ġrepo": 6265,
      "entries": 6266,
      "cov": 6267,
      "Ġblack": 6268,
      "dictionary": 6269,
      "Ġminimum": 6270,
      "Ġparts": 6271,
      "polling": 6272,
      "Operations": 6273,
      "~~~~~~~~": 6274,
      "Cho": 6275,
      "dummy": 6276,
      "éĹ": 6277,
      "lies": 6278,
      "Ġappend": 6279,
      "404": 6280,
      "pid": 6281,
      "connections": 6282,
      "multip": 6283,
      "dirs": 6284,
      "embeddings": 6285,
      "pkg": 6286,
      "Ġepochs": 6287,
      "|'": 6288,
      "erial": 6289,
      "entrances": 6290,
      "vie": 6291,
      "ĠMax": 6292,
      "Generator": 6293,
      "broadcast": 6294,
      "rupt": 6295,
      ":])": 6296,
      "Cap": 6297,
      "bra": 6298,
      "met": 6299,
      "Ġsess": 6300,
      "Ġmacro": 6301,
      "Ġ<<": 6302,
      "Ġpredictions": 6303,
      "maining": 6304,
      "Ġpositive": 6305,
      "flush": 6306,
      "STATUS": 6307,
      "Ġencoded": 6308,
      "orizont": 6309,
      "512": 6310,
      "SU": 6311,
      "You": 6312,
      "uses": 6313,
      "trial": 6314,
      "Ġonce": 6315,
      "reader": 6316,
      "activation": 6317,
      "Ġchecks": 6318,
      "processor": 6319,
      "Child": 6320,
      "Sensor": 6321,
      "Sender": 6322,
      "ii": 6323,
      "px": 6324,
      "Ġ'{}": 6325,
      "ĠOptions": 6326,
      "Ġworks": 6327,
      "Accept": 6328,
      "ĠRuntimeError": 6329,
      "setMaxAccess": 6330,
      "CF": 6331,
      "Missing": 6332,
      "asset": 6333,
      "()['": 6334,
      "ĠCDF": 6335,
      "Ġshared": 6336,
      "Ġrequested": 6337,
      "Ġevalu": 6338,
      "Association": 6339,
      "Over": 6340,
      "shell": 6341,
      "ĠAST": 6342,
      "ĠPlease": 6343,
      "Ġpercent": 6344,
      "Ġlinks": 6345,
      "partial": 6346,
      "Boolean": 6347,
      "Common": 6348,
      "Validation": 6349,
      "termine": 6350,
      "cir": 6351,
      "dtypes": 6352,
      "gu": 6353,
      "Ġvert": 6354,
      "Ġ\"{}": 6355,
      "mpy": 6356,
      "uman": 6357,
      "ĠĠĠĠĠĠĠĠĠĠĠĠĠĠĠĠĠĠĠĠĠĠĠĠĠĠĠĠĠĠĠĠĠĠĠĠĠĠĠĠĠĠĠĠĠ": 6358,
      "txid": 6359,
      "PathCheck": 6360,
      "MESPathCheck": 6361,
      "Zh": 6362,
      "dynamic": 6363,
      "Ġexperiment": 6364,
      "ĠOS": 6365,
      "Ġlogin": 6366,
      "subplot": 6367,
      "=%.": 6368,
      "Generic": 6369,
      "VALID": 6370,
      "StorageCenter": 6371,
      "ffic": 6372,
      "VM": 6373,
      "Ġsbox": 6374,
      "argmax": 6375,
      "ARY": 6376,
      "Any": 6377,
      "GT": 6378,
      "Hist": 6379,
      "cancel": 6380,
      "wrapper": 6381,
      "det": 6382,
      "Ġplay": 6383,
      "ĠJMESPathCheck": 6384,
      "resourceGroup": 6385,
      "ĠSequence": 6386,
      "alyzer": 6387,
      "Items": 6388,
      "urse": 6389,
      "ĠLanguage": 6390,
      "ĠOTHER": 6391,
      "ifiers": 6392,
      "linalg": 6393,
      "KET": 6394,
      "Failure": 6395,
      "Embed": 6396,
      "Ġ(-": 6397,
      "ĠMO": 6398,
      "cycle": 6399,
      "ĠArg": 6400,
      "pages": 6401,
      "Ġmarker": 6402,
      "contains": 6403,
      "ticks": 6404,
      "Ġembedding": 6405,
      "ĠNOTE": 6406,
      "Ġprecision": 6407,
      "chat": 6408,
      "edirs": 6409,
      "Ġcomm": 6410,
      "templates": 6411,
      "HEAD": 6412,
      "Ġevaluate": 6413,
      "aggreg": 6414,
      "79": 6415,
      "Lib": 6416,
      "Usage": 6417,
      "Ġcredentials": 6418,
      "Ġwrap": 6419,
      "upy": 6420,
      "Ġlon": 6421,
      "ocation": 6422,
      "ayment": 6423,
      "ASK": 6424,
      "Ġtraits": 6425,
      "Ġcached": 6426,
      "avier": 6427,
      "iloc": 6428,
      "ina": 6429,
      "orn": 6430,
      "ĠMIT": 6431,
      "tables": 6432,
      "Unit": 6433,
      "Ġloaded": 6434,
      "operations": 6435,
      "ĠAttribute": 6436,
      "criteria": 6437,
      "gon": 6438,
      "}\",": 6439,
      "roi": 6440,
      "utures": 6441,
      "Ġ(%": 6442,
      "çĶ¨": 6443,
      "Lim": 6444,
      "Ġfoo": 6445,
      "cha": 6446,
      "ulate": 6447,
      "ĠAct": 6448,
      "mooth": 6449,
      "cipe": 6450,
      "Ġcontents": 6451,
      "Specifies": 6452,
      "ĠAlert": 6453,
      "Document": 6454,
      "Ġcoordinates": 6455,
      "mult": 6456,
      "upt": 6457,
      "Ġslot": 6458,
      "hop": 6459,
      "861586": 6460,
      "Ġlet": 6461,
      "Ġentities": 6462,
      "orders": 6463,
      "Ġregular": 6464,
      "ridge": 6465,
      "chart": 6466,
      "quival": 6467,
      "green": 6468,
      "CLASS": 6469,
      "Util": 6470,
      "Ġnotice": 6471,
      "Ġnumeric": 6472,
      "Constant": 6473,
      "Ġcolors": 6474,
      "internet": 6475,
      "Ġoverride": 6476,
      "swer": 6477,
      "supported": 6478,
      "Ġtraceback": 6479,
      "Helper": 6480,
      "AUTH": 6481,
      "702": 6482,
      "BC": 6483,
      "BER": 6484,
      "ìĿ": 6485,
      "Ġalong": 6486,
      "INGS": 6487,
      "MIT": 6488,
      "NET": 6489,
      "Random": 6490,
      "dc": 6491,
      "}',": 6492,
      "Ġdat": 6493,
      "Ġbasic": 6494,
      "pars": 6495,
      "Ġstandard": 6496,
      "Ġcurrency": 6497,
      "Ġcopyright": 6498,
      "Ġclick": 6499,
      "elligence": 6500,
      "OPT": 6501,
      "how": 6502,
      "wb": 6503,
      "Ġfuture": 6504,
      "Ġwipeout": 6505,
      "pts": 6506,
      "ĠCustom": 6507,
      "article": 6508,
      "Ġless": 6509,
      "translate": 6510,
      "slug": 6511,
      "atalo": 6512,
      "MODEL": 6513,
      "Matrix": 6514,
      "allenge": 6515,
      "'d": 6516,
      "798": 6517,
      "mc": 6518,
      "ĠPub": 6519,
      "boot": 6520,
      "validator": 6521,
      "è¡Į": 6522,
      "Ret": 6523,
      "gz": 6524,
      "chi": 6525,
      "contract": 6526,
      "ica": 6527,
      "Ġaccuracy": 6528,
      "Ġargstr": 6529,
      "WORD": 6530,
      "Ġmedia": 6531,
      "ĠMibTable": 6532,
      "live": 6533,
      "eds": 6534,
      "refresh": 6535,
      "Ġpackages": 6536,
      "æĸ°": 6537,
      "Ġ2020": 6538,
      "wiki": 6539,
      "mu": 6540,
      "mpt": 6541,
      "identity": 6542,
      "ĠEN": 6543,
      "ĠWhether": 6544,
      "runner": 6545,
      "861598": 6546,
      "Bool": 6547,
      "makedirs": 6548,
      "orizontal": 6549,
      "eb": 6550,
      "Ð»": 6551,
      "è´": 6552,
      "Ġjs": 6553,
      "lices": 6554,
      "Ġdid": 6555,
      "Ġbro": 6556,
      "Ġproxy": 6557,
      "configure": 6558,
      "âķł": 6559,
      "Ġdetection": 6560,
      "Ġcapt": 6561,
      "aper": 6562,
      "([])": 6563,
      "subset": 6564,
      "veloper": 6565,
      "Only": 6566,
      "highlight": 6567,
      "ĠLoad": 6568,
      "Agent": 6569,
      "BY": 6570,
      "break": 6571,
      "elif": 6572,
      "ining": 6573,
      "Ġ(_": 6574,
      "trigger": 6575,
      "ĠBuild": 6576,
      "when": 6577,
      "webapp": 6578,
      "ja": 6579,
      "rse": 6580,
      "vance": 6581,
      "Ġimplemented": 6582,
      "Ġak": 6583,
      "Ġbboxes": 6584,
      "Ġsources": 6585,
      "Track": 6586,
      "Ġincluding": 6587,
      "Async": 6588,
      "alchemy": 6589,
      "asarray": 6590,
      "TypeId": 6591,
      "Art": 6592,
      "Ġupper": 6593,
      "Ġfluid": 6594,
      "FLAGS": 6595,
      "irtual": 6596,
      "(',": 6597,
      "Ġretry": 6598,
      "Ġmight": 6599,
      "ĠInc": 6600,
      "Results": 6601,
      "2021": 6602,
      "Scale": 6603,
      "]}": 6604,
      "Ġfname": 6605,
      "Ġcharacter": 6606,
      "Ġreduce": 6607,
      "Print": 6608,
      "city": 6609,
      "ipy": 6610,
      "tw": 6611,
      "transport": 6612,
      "æİ": 6613,
      "enan": 6614,
      "derer": 6615,
      "Ġdefine": 6616,
      "ĠThese": 6617,
      "Ġfixed": 6618,
      "Ġarr": 6619,
      "DateTime": 6620,
      "Web": 6621,
      "Ġsigma": 6622,
      "æĺ¯": 6623,
      "AV": 6624,
      "Font": 6625,
      "ov": 6626,
      "tcp": 6627,
      "ĠĠĠĠĠĠĠĠĠĠĠĠĠĠĠĠĠĠĠĠĠĠĠĠĠĠĠĠĠĠĠĠĠĠĠĠĠĠĠĠĠĠĠĠĠĠĠĠ": 6628,
      "activ": 6629,
      "crete": 6630,
      "Queue": 6631,
      "tolist": 6632,
      "ĠElement": 6633,
      "------------------------": 6634,
      "configs": 6635,
      "ĠReg": 6636,
      "ãĤĴ": 6637,
      "ĠArguments": 6638,
      "MAN": 6639,
      "every": 6640,
      "family": 6641,
      "simul": 6642,
      "uizhou": 6643,
      "Ġll": 6644,
      "Reference": 6645,
      "ĠIO": 6646,
      "door": 6647,
      "Ġfee": 6648,
      "NAMES": 6649,
      "Ġbottom": 6650,
      "MetadataModel": 6651,
      "PASS": 6652,
      "since": 6653,
      "eno": 6654,
      "Ġba": 6655,
      "Ġus": 6656,
      "Ġeq": 6657,
      "icast": 6658,
      "RECT": 6659,
      "Bytes": 6660,
      "aws": 6661,
      "IntegerField": 6662,
      "iso": 6663,
      "Ġ18": 6664,
      "phinx": 6665,
      "Ġ}}": 6666,
      "Ġsymbols": 6667,
      "Ġbn": 6668,
      "Ġdecoder": 6669,
      "ĠĠĠĠĠĠĠĠĠĠĠĠĠĠĠĠĠĠĠĠĠĠĠĠĠĠĠĠĠĠĠĠĠĠĠĠĠĠĠĠĠĠĠĠĠĠĠĠĠĠ": 6670,
      "Ġarea": 6671,
      "runc": 6672,
      "Ġproblem": 6673,
      "Ġsensor": 6674,
      "dr": 6675,
      "Ġicon": 6676,
      "Ġinside": 6677,
      "cessary": 6678,
      "Ġrelation": 6679,
      "Backend": 6680,
      "Rel": 6681,
      "rea": 6682,
      "defaults": 6683,
      "URCE": 6684,
      "UND": 6685,
      "Ġconstants": 6686,
      "!\")": 6687,
      "(('": 6688,
      "AX": 6689,
      "Ñĥ": 6690,
      "intelligence": 6691,
      "REQUEST": 6692,
      "linux": 6693,
      "negative": 6694,
      "Struct": 6695,
      "ForeignKey": 6696,
      "Ġndarray": 6697,
      "mpo": 6698,
      "rive": 6699,
      "iling": 6700,
      "Ġexternal": 6701,
      "apps": 6702,
      "ĠLabel": 6703,
      "ĠCloud": 6704,
      "hi": 6705,
      "reet": 6706,
      "coeff": 6707,
      "chan": 6708,
      "ĠSup": 6709,
      "ranges": 6710,
      "127": 6711,
      "workers": 6712,
      "stdin": 6713,
      "instrument": 6714,
      "unctools": 6715,
      "reward": 6716,
      "atial": 6717,
      "Ġ\"'": 6718,
      "resize": 6719,
      "licies": 6720,
      "INST": 6721,
      "Application": 6722,
      "MIB": 6723,
      "Rest": 6724,
      "UID": 6725,
      "[^": 6726,
      "bd": 6727,
      "cas": 6728,
      "æŀ": 6729,
      "lid": 6730,
      "ffff": 6731,
      "Ġlogs": 6732,
      "legend": 6733,
      "detection": 6734,
      "concatenate": 6735,
      "Write": 6736,
      "rgb": 6737,
      "Ġcar": 6738,
      "Ġcms": 6739,
      "Ġdesired": 6740,
      "prepare": 6741,
      "ĠHenan": 6742,
      "Ġspecial": 6743,
      "Parameters": 6744,
      "Ġrealm": 6745,
      "Mark": 6746,
      "keleton": 6747,
      "effi": 6748,
      "DOMAIN": 6749,
      "Ġexamples": 6750,
      "Load": 6751,
      "velocity": 6752,
      ">',": 6753,
      "rstrip": 6754,
      "ilation": 6755,
      "ĠTrain": 6756,
      "ically": 6757,
      "Location": 6758,
      ":,": 6759,
      "ACT": 6760,
      "Tick": 6761,
      "Ġperiod": 6762,
      "hooks": 6763,
      "assertIsNone": 6764,
      "Ġautomatically": 6765,
      "033": 6766,
      "Ġsilent": 6767,
      "tern": 6768,
      "Position": 6769,
      "zon": 6770,
      "Ðº": 6771,
      "Ġtz": 6772,
      "Ġcs": 6773,
      "Ġlat": 6774,
      "861597": 6775,
      "reply": 6776,
      "Ġtrainer": 6777,
      "Ġdatasets": 6778,
      "TOP": 6779,
      "NOR": 6780,
      "SING": 6781,
      "spe": 6782,
      "ĠCode": 6783,
      "capt": 6784,
      "Ġaccording": 6785,
      "Ġinitialize": 6786,
      "Ġpublish": 6787,
      "quivalent": 6788,
      "Custom": 6789,
      "Ġes": 6790,
      "Ġcc": 6791,
      "uber": 6792,
      "Ġrespect": 6793,
      "ĠPO": 6794,
      "phone": 6795,
      "Ġdivision": 6796,
      "Example": 6797,
      "COMM": 6798,
      "Ġswap": 6799,
      "IZ": 6800,
      "nms": 6801,
      "uj": 6802,
      "ypes": 6803,
      "Ġ1024": 6804,
      "Ġhour": 6805,
      "boolean": 6806,
      "bins": 6807,
      "Ġtrigger": 6808,
      "variance": 6809,
      "\\\"": 6810,
      "lu": 6811,
      "pus": 6812,
      "ectors": 6813,
      "thresh": 6814,
      "])[": 6815,
      "ĠGoogle": 6816,
      "loyment": 6817,
      "LU": 6818,
      "Vector": 6819,
      "idual": 6820,
      "Ġmakes": 6821,
      "moid": 6822,
      "ERS": 6823,
      "Ġexplicit": 6824,
      "Ġ2019": 6825,
      "support": 6826,
      "RESPONSE": 6827,
      "LY": 6828,
      "Pa": 6829,
      "iver": 6830,
      "doors": 6831,
      "00000": 6832,
      "Ġbuf": 6833,
      "Ġquote": 6834,
      "ĠServer": 6835,
      "pixel": 6836,
      "\\.": 6837,
      "san": 6838,
      "strings": 6839,
      "parsed": 6840,
      "Ġ>>": 6841,
      "interfaces": 6842,
      "iteritems": 6843,
      "neg": 6844,
      "ä¸º": 6845,
      "certificate": 6846,
      "gym": 6847,
      "Plugin": 6848,
      "ĠĠĠčĊ": 6849,
      "Ġpush": 6850,
      "Ġsin": 6851,
      "digest": 6852,
      "Ġexceptions": 6853,
      "ĠDjango": 6854,
      "Ġvs": 6855,
      "Ġxp": 6856,
      "ograph": 6857,
      "updates": 6858,
      "background": 6859,
      "skill": 6860,
      "TRAIN": 6861,
      "Option": 6862,
      "Rate": 6863,
      "guild": 6864,
      "Ġinner": 6865,
      "Ġgu": 6866,
      "ĠConv": 6867,
      "Operation": 6868,
      "ĠCompute": 6869,
      "SnapshotMetadataModel": 6870,
      "Ġsimilar": 6871,
      "GI": 6872,
      "cmp": 6873,
      "xs": 6874,
      "stand": 6875,
      "ullable": 6876,
      "ĠForm": 6877,
      "screen": 6878,
      "Ġproper": 6879,
      "POINT": 6880,
      "WORK": 6881,
      "Bot": 6882,
      "CD": 6883,
      "Impl": 6884,
      "Video": 6885,
      "rack": 6886,
      "')]": 6887,
      "Ġgamma": 6888,
      "ĠVi": 6889,
      "cheduler": 6890,
      "softmax": 6891,
      "]=": 6892,
      "Ġnone": 6893,
      "ĠAss": 6894,
      "Encoder": 6895,
      "sigma": 6896,
      "ĠAssert": 6897,
      "Dist": 6898,
      "Func": 6899,
      "Mapping": 6900,
      "ç½": 6901,
      "Ġtakes": 6902,
      "Ġcir": 6903,
      "utdown": 6904,
      "Ġwrapper": 6905,
      "cont": 6906,
      "Ġlang": 6907,
      "Ġobs": 6908,
      "Ġ400": 6909,
      "DOWN": 6910,
      "frac": 6911,
      "Ġsyntax": 6912,
      "StorageCenterApi": 6913,
      "Ġ-----": 6914,
      "Ġdx": 6915,
      "ilong": 6916,
      "console": 6917,
      "pology": 6918,
      "Ġgran": 6919,
      "ĠDes": 6920,
      "Ġcases": 6921,
      "ĠHeilong": 6922,
      "distribution": 6923,
      "ĠHeilongjiang": 6924,
      "SK": 6925,
      "fold": 6926,
      "href": 6927,
      "ied": 6928,
      "roy": 6929,
      "abstract": 6930,
      "Ġgit": 6931,
      "ĠDate": 6932,
      "Ġsecret": 6933,
      "Ġtempfile": 6934,
      "DU": 6935,
      "king": 6936,
      "multiple": 6937,
      "recv": 6938,
      "Ġcat": 6939,
      "une": 6940,
      "numeric": 6941,
      "START": 6942,
      "generated": 6943,
      "Ġmodifi": 6944,
      "magic": 6945,
      "RPC": 6946,
      "irect": 6947,
      "mq": 6948,
      "tex": 6949,
      "lists": 6950,
      "Ġcover": 6951,
      "Ġcountry": 6952,
      "agic": 6953,
      "Ġ404": 6954,
      "builtin": 6955,
      "specific": 6956,
      "Ġevaluation": 6957,
      "deredDict": 6958,
      "Ġhyper": 6959,
      "EP": 6960,
      "YPE": 6961,
      "[[": 6962,
      "oh": 6963,
      "deploy": 6964,
      "Ġ\"<": 6965,
      "strategy": 6966,
      "versions": 6967,
      "Ġshot": 6968,
      "Ġpartial": 6969,
      "Broker": 6970,
      "_)": 6971,
      "ye": 6972,
      "meth": 6973,
      "posed": 6974,
      "='-": 6975,
      "buy": 6976,
      "verted": 6977,
      "limiter": 6978,
      "Route": 6979,
      "lished": 6980,
      ")**": 6981,
      "BE": 6982,
      "KEN": 6983,
      "mis": 6984,
      "qdm": 6985,
      "deprecated": 6986,
      "definitions": 6987,
      "ĠCOP": 6988,
      "ĠNetwork": 6989,
      "Ġworker": 6990,
      "ĠState": 6991,
      "unknown": 6992,
      "dependencies": 6993,
      "/(": 6994,
      "></": 6995,
      "eer": 6996,
      "}{": 6997,
      "strument": 6998,
      "ĠTable": 6999,
      "Ġ17": 7000,
      "']):": 7001,
      "Ġexpr": 7002,
      "small": 7003,
      "SSL": 7004,
      "Ġpredicted": 7005,
      "ĠEntity": 7006,
      "æĹ¶": 7007,
      "Ġlatest": 7008,
      "fmt": 7009,
      "âŀ": 7010,
      "ond": 7011,
      "lour": 7012,
      "Ġadapt": 7013,
      "coordin": 7014,
      "ĠSha": 7015,
      "ĠUSE": 7016,
      "Ġsubscription": 7017,
      "Ġ500": 7018,
      "ashboard": 7019,
      "noise": 7020,
      "Ġallows": 7021,
      "arison": 7022,
      "åĢ": 7023,
      "Ġuntil": 7024,
      "Ġda": 7025,
      "proj": 7026,
      "logical": 7027,
      "shan": 7028,
      "ĠInt": 7029,
      "matmul": 7030,
      "Ġcompare": 7031,
      "ANCE": 7032,
      "organ": 7033,
      "Ġfeat": 7034,
      "sentence": 7035,
      "brocade": 7036,
      "CHECK": 7037,
      "Extension": 7038,
      "Dense": 7039,
      "pyplot": 7040,
      "Ġgood": 7041,
      "âķłâŀ": 7042,
      "âķłâŀ©": 7043,
      "orth": 7044,
      "assistant": 7045,
      "prog": 7046,
      "classifier": 7047,
      "acter": 7048,
      "ARCH": 7049,
      "Ġupdates": 7050,
      "ILD": 7051,
      "vidual": 7052,
      "ungeon": 7053,
      "flip": 7054,
      "ivers": 7055,
      "ially": 7056,
      "Ġ'#": 7057,
      "endor": 7058,
      "Addr": 7059,
      "finished": 7060,
      "NotFoundError": 7061,
      "batches": 7062,
      "cdf": 7063,
      "yto": 7064,
      "Ġlight": 7065,
      "retry": 7066,
      "Ġcategories": 7067,
      "Ġreader": 7068,
      "Ġgreater": 7069,
      "Ġprepare": 7070,
      "Ġneighb": 7071,
      "Ġtrial": 7072,
      "Authentication": 7073,
      "sistent": 7074,
      ")?": 7075,
      "bundle": 7076,
      "erm": 7077,
      "stub": 7078,
      "Ġshift": 7079,
      "Ġsentence": 7080,
      "ĠCOPY": 7081,
      "Hook": 7082,
      "stit": 7083,
      "ĠCan": 7084,
      "dataframe": 7085,
      "timedelta": 7086,
      "Ġvocab": 7087,
      "ĠWHERE": 7088,
      "without": 7089,
      "iterations": 7090,
      "plugins": 7091,
      "packet": 7092,
      "9655": 7093,
      "servations": 7094,
      "Ġtyp": 7095,
      "'\",": 7096,
      "Raw": 7097,
      "mas": 7098,
      "Ġæ": 7099,
      "ĠEach": 7100,
      "ĠMust": 7101,
      "Ġroom": 7102,
      "caf": 7103,
      "Ġstarting": 7104,
      "aves": 7105,
      "creen": 7106,
      "findall": 7107,
      "Ġintegr": 7108,
      "ataloader": 7109,
      "Bit": 7110,
      "dom": 7111,
      "setdefault": 7112,
      "Ġ\"\"\",": 7113,
      "Ġprovider": 7114,
      "uped": 7115,
      "wt": 7116,
      "åľ": 7117,
      "interpol": 7118,
      "Ġruns": 7119,
      "Ġbehavior": 7120,
      "METHO": 7121,
      ":{": 7122,
      "PH": 7123,
      "éĺ": 7124,
      "regs": 7125,
      "lec": 7126,
      "Ġmultip": 7127,
      "Ġdeep": 7128,
      "Ġxx": 7129,
      "ASH": 7130,
      "Ġiteration": 7131,
      "rlz": 7132,
      "Ġcreating": 7133,
      "ĠSpecifies": 7134,
      "Annotation": 7135,
      "cwd": 7136,
      "impl": 7137,
      "otion": 7138,
      "usive": 7139,
      "redis": 7140,
      "phase": 7141,
      "ĠStart": 7142,
      "CONT": 7143,
      "ĠInterpreter": 7144,
      "Total": 7145,
      "dn": 7146,
      "pin": 7147,
      "udi": 7148,
      "warnings": 7149,
      "å¹": 7150,
      "Ġfast": 7151,
      "Ġsparse": 7152,
      "previous": 7153,
      "ĠConvert": 7154,
      "DEX": 7155,
      "MAG": 7156,
      "LOAD": 7157,
      "preds": 7158,
      "Ġlayout": 7159,
      "arp": 7160,
      "Ġ([": 7161,
      "Ġsep": 7162,
      "Ġsender": 7163,
      "ĠConnection": 7164,
      "fieldset": 7165,
      "suite": 7166,
      "COLOR": 7167,
      "Summary": 7168,
      "Password": 7169,
      "Ġaggreg": 7170,
      "Limit": 7171,
      "Ġë": 7172,
      "ĠĠĠĠččĊ": 7173,
      "Ġreward": 7174,
      "Ġsite": 7175,
      "rie": 7176,
      "('.": 7177,
      "major": 7178,
      "Ġdetermin": 7179,
      "...,": 7180,
      "ENTRY": 7181,
      "ãĢģ": 7182,
      "buckets": 7183,
      "/<": 7184,
      "Cannot": 7185,
      "Fault": 7186,
      "TF": 7187,
      "fund": 7188,
      "Ġtol": 7189,
      "ĠOne": 7190,
      "Ġmag": 7191,
      "ĠBe": 7192,
      "translation": 7193,
      "sqlite": 7194,
      "Local": 7195,
      "ĠCommand": 7196,
      "CR": 7197,
      "Host": 7198,
      "health": 7199,
      "Ġrecords": 7200,
      "Ġmix": 7201,
      "Ġcont": 7202,
      "allclose": 7203,
      "Ġcompile": 7204,
      "Ġstatement": 7205,
      "Ġtransforms": 7206,
      "ĠKeyword": 7207,
      "Ġrules": 7208,
      "ĠShaanxi": 7209,
      "Single": 7210,
      "mob": 7211,
      "Ġfh": 7212,
      "Ġsq": 7213,
      "0001": 7214,
      "perm": 7215,
      "Ġexact": 7216,
      "processors": 7217,
      "Ġ&',": 7218,
      "Ġcounts": 7219,
      "ĠDevice": 7220,
      "+\"": 7221,
      "cmake": 7222,
      "vor": 7223,
      "star": 7224,
      "Ġrevision": 7225,
      "COUNT": 7226,
      "Classifier": 7227,
      "åĪĨ": 7228,
      "é¢ĺ": 7229,
      "Grad": 7230,
      "IAL": 7231,
      "bc": 7232,
      "å¯": 7233,
      "separ": 7234,
      "Ġpur": 7235,
      "losses": 7236,
      "today": 7237,
      "Ġstderr": 7238,
      "Ġdetermine": 7239,
      "Ġknow": 7240,
      "Ġlogits": 7241,
      "netes": 7242,
      "plus": 7243,
      "Trace": 7244,
      "ubernetes": 7245,
      ":-": 7246,
      "ade": 7247,
      "fm": 7248,
      "icon": 7249,
      "xp": 7250,
      "inplace": 7251,
      "rename": 7252,
      "measure": 7253,
      "Ġinspect": 7254,
      "Ġdescri": 7255,
      "Ġship": 7256,
      "Ġzer": 7257,
      "Ġscra": 7258,
      "Ġnormalize": 7259,
      "candidate": 7260,
      "den": 7261,
      "must": 7262,
      "nx": 7263,
      "olo": 7264,
      "hejiang": 7265,
      "Ġsqu": 7266,
      "uess": 7267,
      "umbn": 7268,
      "Ġwrong": 7269,
      "Ġuseful": 7270,
      "ĠZhejiang": 7271,
      "umbnail": 7272,
      "Rights": 7273,
      "Ġbus": 7274,
      "ĠOther": 7275,
      "ĠRead": 7276,
      "Ġtimedelta": 7277,
      "axM": 7278,
      "...\")": 7279,
      "TRAN": 7280,
      "precation": 7281,
      "Ġedges": 7282,
      "ij": 7283,
      "Ġclip": 7284,
      "Ġwatch": 7285,
      "Ġgame": 7286,
      "backward": 7287,
      "ysql": 7288,
      "Ġrepr": 7289,
      "Root": 7290,
      "mkdir": 7291,
      "ĠDocument": 7292,
      "Ġcircuit": 7293,
      "Ġep": 7294,
      "phi": 7295,
      "LOB": 7296,
      "chars": 7297,
      "videointelligence": 7298,
      "artifacts": 7299,
      "Use": 7300,
      "enario": 7301,
      "ĠNE": 7302,
      "actual": 7303,
      "Properties": 7304,
      "Sets": 7305,
      "Shape": 7306,
      "Byte": 7307,
      "Author": 7308,
      "Ġfailure": 7309,
      ":\"": 7310,
      "pies": 7311,
      "Ġredis": 7312,
      "\"]]": 7313,
      "numbers": 7314,
      "normalize": 7315,
      "atalog": 7316,
      "Mapper": 7317,
      "Lines": 7318,
      "å·": 7319,
      "Ġcut": 7320,
      "Ġcandidate": 7321,
      "geometry": 7322,
      "Ġnb": 7323,
      "may": 7324,
      "ĠAuto": 7325,
      "person": 7326,
      "tech": 7327,
      "scatter": 7328,
      "[\"_": 7329,
      "ĠVM": 7330,
      "Could": 7331,
      "connected": 7332,
      "prior": 7333,
      "Ġbackup": 7334,
      "ĠProcess": 7335,
      "Ġpacket": 7336,
      "Alias": 7337,
      "BL": 7338,
      "BACK": 7339,
      "lazy": 7340,
      "clusters": 7341,
      "Ġseg": 7342,
      "ynomial": 7343,
      "maximum": 7344,
      "861596": 7345,
      "calc": 7346,
      "Ġdisabled": 7347,
      "closed": 7348,
      "Ġqml": 7349,
      "tdc": 7350,
      "Ġdays": 7351,
      "Ftdc": 7352,
      "ĠTH": 7353,
      "ĠCl": 7354,
      "locations": 7355,
      "CThost": 7356,
      "CThostFtdc": 7357,
      "GRO": 7358,
      "Please": 7359,
      "acon": 7360,
      "ven": 7361,
      "Ġbig": 7362,
      "Ġ[{": 7363,
      "izers": 7364,
      "Ġequ": 7365,
      "cluded": 7366,
      "scan": 7367,
      "Ġkw": 7368,
      "Ġappe": 7369,
      "Ġvisit": 7370,
      "Skip": 7371,
      "ior": 7372,
      "micro": 7373,
      "semble": 7374,
      "ermin": 7375,
      "deployment": 7376,
      "Ġsimp": 7377,
      "Ġproto": 7378,
      "ĠMy": 7379,
      "ĠBE": 7380,
      "ĠWindow": 7381,
      "Exp": 7382,
      "Ġterms": 7383,
      "land": 7384,
      "wn": 7385,
      "unused": 7386,
      "permission": 7387,
      "Ġengine": 7388,
      "Ġdefaultdict": 7389,
      "Ġpoly": 7390,
      "Ġcomplex": 7391,
      "401": 7392,
      "FUN": 7393,
      "tp": 7394,
      "Ġtb": 7395,
      "ĠTask": 7396,
      "Ġ300": 7397,
      "udo": 7398,
      "based": 7399,
      "Ġlookup": 7400,
      "Obj": 7401,
      "Ġtables": 7402,
      "while": 7403,
      "backends": 7404,
      "Ġagainst": 7405,
      "agicMock": 7406,
      "%%": 7407,
      "CESS": 7408,
      "ISE": 7409,
      "RM": 7410,
      "SN": 7411,
      "patterns": 7412,
      "Ġtile": 7413,
      "iters": 7414,
      "roles": 7415,
      "Ġwin": 7416,
      "resnet": 7417,
      "theme": 7418,
      "Timestamp": 7419,
      "emcc": 7420,
      "Ġcomplete": 7421,
      "existing": 7422,
      "ĠSymbol": 7423,
      "ĠMibTableColumn": 7424,
      ":'": 7425,
      "}/{": 7426,
      "åĮ": 7427,
      "æĢ": 7428,
      "Ġta": 7429,
      "lict": 7430,
      "Ġrc": 7431,
      "Ġenc": 7432,
      "Unknown": 7433,
      "good": 7434,
      "gene": 7435,
      "ĠNotes": 7436,
      "Ġrepresents": 7437,
      "Directory": 7438,
      "clause": 7439,
      "FORMAT": 7440,
      "Programming": 7441,
      "FC": 7442,
      "onal": 7443,
      "relative": 7444,
      "ĠCL": 7445,
      "Ġstrategy": 7446,
      "Arguments": 7447,
      "âĢĻ": 7448,
      "commend": 7449,
      ",))": 7450,
      "ordered": 7451,
      "leter": 7452,
      "objs": 7453,
      "Ġmeasure": 7454,
      "minimum": 7455,
      "archive": 7456,
      "Ġpositions": 7457,
      "Ġwritten": 7458,
      "Private": 7459,
      "attn": 7460,
      "Hello": 7461,
      "emb": 7462,
      "lm": 7463,
      "tc": 7464,
      "xc": 7465,
      "utors": 7466,
      "urations": 7467,
      "ota": 7468,
      "Ġwarning": 7469,
      "take": 7470,
      "Ġmade": 7471,
      "Ġanchor": 7472,
      "quality": 7473,
      "indexes": 7474,
      "selection": 7475,
      "Interval": 7476,
      "grees": 7477,
      "gression": 7478,
      "ĠSystem": 7479,
      "GLX": 7480,
      "pickle": 7481,
      "Ġstrip": 7482,
      "dog": 7483,
      "sat": 7484,
      "Ġcla": 7485,
      "Ġsn": 7486,
      "Ġdropout": 7487,
      "],[": 7488,
      "lengths": 7489,
      "Ġmodified": 7490,
      "Ġloader": 7491,
      "Ġloading": 7492,
      "square": 7493,
      "CID": 7494,
      "ration": 7495,
      "uv": 7496,
      "å°": 7497,
      "under": 7498,
      "Ġcontrib": 7499,
      "Ġlarge": 7500,
      "Ġcos": 7501,
      "ATTR": 7502,
      "eft": 7503,
      "priate": 7504,
      "pls": 7505,
      "evaluation": 7506,
      "Ġ----------------------------------------------------------------": 7507,
      "#--------------------------------": 7508,
      "Cart": 7509,
      "Machine": 7510,
      "OM": 7511,
      "seek": 7512,
      "peak": 7513,
      "ula": 7514,
      "ĠNew": 7515,
      "Ġroute": 7516,
      "ĠExchange": 7517,
      "vartype": 7518,
      "Security": 7519,
      "crimin": 7520,
      "Ġtensors": 7521,
      "CLUD": 7522,
      "subscriptionId": 7523,
      "CLUDING": 7524,
      "/#": 7525,
      "å¾": 7526,
      "Ġtm": 7527,
      "Ġdue": 7528,
      "ialog": 7529,
      "Ġyaml": 7530,
      "subscriptions": 7531,
      "iteral": 7532,
      "Names": 7533,
      "notification": 7534,
      "Ġtuples": 7535,
      "accounts": 7536,
      "ï¼ļ": 7537,
      "Can": 7538,
      "fr": 7539,
      "gers": 7540,
      "Ġvec": 7541,
      "Ġturn": 7542,
      "isual": 7543,
      "moji": 7544,
      "]]]": 7545,
      "ICES": 7546,
      "2014": 7547,
      "Ġpairs": 7548,
      "Display": 7549,
      "IMIT": 7550,
      "itespace": 7551,
      "RC": 7552,
      "Xi": 7553,
      "uzhou": 7554,
      "infer": 7555,
      "Ġmc": 7556,
      "mazon": 7557,
      "produ": 7558,
      "\")),": 7559,
      "compare": 7560,
      "MEM": 7561,
      "0000000": 7562,
      "execution": 7563,
      "DEFINE": 7564,
      "mpool": 7565,
      "Ba": 7566,
      "BLOCK": 7567,
      "Find": 7568,
      "efa": 7569,
      "çī": 7570,
      "onom": 7571,
      "standard": 7572,
      "Ġfunctools": 7573,
      "ĠSH": 7574,
      "processed": 7575,
      "ĠLIMIT": 7576,
      "ARD": 7577,
      "expl": 7578,
      "devices": 7579,
      "ĠStatus": 7580,
      "Ġconverted": 7581,
      "æĪĲ": 7582,
      "CDF": 7583,
      "Dark": 7584,
      "NESS": 7585,
      "nested": 7586,
      "Ġmid": 7587,
      "activity": 7588,
      "Extract": 7589,
      "RED": 7590,
      "Ġformats": 7591,
      "192": 7592,
      "ĠAttributes": 7593,
      "uptools": 7594,
      "(\"\"\"": 7595,
      "Last": 7596,
      "Mac": 7597,
      "Ġed": 7598,
      "Ġtransport": 7599,
      "arc": 7600,
      "fire": 7601,
      "ĠThere": 7602,
      "episode": 7603,
      "Ġsym": 7604,
      "Ġitertools": 7605,
      "XXXXXXXXXXXXXXXX": 7606,
      "1024": 7607,
      "Make": 7608,
      "Ren": 7609,
      "Ġsl": 7610,
      "ĠTF": 7611,
      "lying": 7612,
      "spaces": 7613,
      "sender": 7614,
      "861594": 7615,
      "Ġboard": 7616,
      "Ġ80": 7617,
      "CREATE": 7618,
      "claration": 7619,
      "CV": 7620,
      "Fields": 7621,
      "Json": 7622,
      "Mask": 7623,
      "categorical": 7624,
      "fx": 7625,
      "sock": 7626,
      "Ġcnt": 7627,
      "unic": 7628,
      "isdir": 7629,
      "Ġelem": 7630,
      "prod": 7631,
      "Ġcols": 7632,
      "Ġversions": 7633,
      "CHAN": 7634,
      "temperature": 7635,
      "Ġpages": 7636,
      "ĠAttributeError": 7637,
      ":],": 7638,
      "]/": 7639,
      "tas": 7640,
      "ylabel": 7641,
      "heat": 7642,
      "Ġdig": 7643,
      "Ġdtypes": 7644,
      "adf": 7645,
      "Ġcoin": 7646,
      "lyph": 7647,
      "Contact": 7648,
      "Environment": 7649,
      "Ġcodes": 7650,
      "'}),": 7651,
      "æľī": 7652,
      "ĠWorld": 7653,
      "Bar": 7654,
      "Dest": 7655,
      "FS": 7656,
      "gd": 7657,
      "Ġtqdm": 7658,
      "ĠCast": 7659,
      "Ġclusters": 7660,
      "groupdict": 7661,
      "Ġserializer": 7662,
      "iteration": 7663,
      "ABEL": 7664,
      "ä¸į": 7665,
      "bp": 7666,
      "Ã©": 7667,
      "Ġstub": 7668,
      "Ġ*=": 7669,
      "modified": 7670,
      "subprocess": 7671,
      "Ġactually": 7672,
      "ĠGeneral": 7673,
      "Ġvariance": 7674,
      "Details": 7675,
      "ujian": 7676,
      "Import": 7677,
      "Ñı": 7678,
      "sess": 7679,
      "Ġom": 7680,
      "definition": 7681,
      "Ġwallet": 7682,
      "ĠDecimal": 7683,
      "Connect": 7684,
      "refs": 7685,
      "tended": 7686,
      "Domain": 7687,
      "Scalar": 7688,
      "Hyrule": 7689,
      "BaxM": 7690,
      "FE": 7691,
      "ever": 7692,
      "vc": 7693,
      "anchor": 7694,
      "Ġsche": 7695,
      "Ġmass": 7696,
      "ĠFujian": 7697,
      "shard": 7698,
      "Ġsec": 7699,
      "hole": 7700,
      "ĠBu": 7701,
      "ATED": 7702,
      "Ġnecessary": 7703,
      "limits": 7704,
      "Parse": 7705,
      "Commit": 7706,
      "TOKEN": 7707,
      "Ġcertificate": 7708,
      "Offset": 7709,
      "Ġpixels": 7710,
      "MB": 7711,
      "ech": 7712,
      "ios": 7713,
      "tb": 7714,
      "rase": 7715,
      "()}": 7716,
      "amb": 7717,
      "ĠFirst": 7718,
      "Ġordered": 7719,
      "ĠOp": 7720,
      "ĠBlock": 7721,
      "Ġsupp": 7722,
      "DA": 7723,
      "GEN": 7724,
      "echo": 7725,
      "oring": 7726,
      "maps": 7727,
      "tached": 7728,
      "ATA": 7729,
      "Arg": 7730,
      "ĠDEBUG": 7731,
      "detections": 7732,
      "\"',": 7733,
      "Cell": 7734,
      "SPE": 7735,
      "uator": 7736,
      "vl": 7737,
      "åĨ": 7738,
      "atom": 7739,
      "ering": 7740,
      "profiles": 7741,
      "LOGGER": 7742,
      "Ġmonth": 7743,
      "Iterator": 7744,
      "sensor": 7745,
      "Bid": 7746,
      "fan": 7747,
      "floor": 7748,
      "ka": 7749,
      "stone": 7750,
      "Ġck": 7751,
      "Ġcriteria": 7752,
      "chunks": 7753,
      "endar": 7754,
      "Ġhapp": 7755,
      "scene": 7756,
      "ĠWrite": 7757,
      "pairs": 7758,
      "LETE": 7759,
      "Ġauthentication": 7760,
      "xyz": 7761,
      "AAAA": 7762,
      "ĠPoint": 7763,
      "Ġpkg": 7764,
      "Ġasynchronously": 7765,
      "Script": 7766,
      "xb": 7767,
      "Ġ\"#": 7768,
      "coverage": 7769,
      "define": 7770,
      "strate": 7771,
      "Ġhaving": 7772,
      "ĠON": 7773,
      "ĠMark": 7774,
      "ĠRemove": 7775,
      "861577": 7776,
      "Ġ2011": 7777,
      "ESSAGE": 7778,
      "Checker": 7779,
      "Ġnormalized": 7780,
      "cleanup": 7781,
      "Del": 7782,
      "ndim": 7783,
      "ä¹": 7784,
      "getitem": 7785,
      "trunc": 7786,
      "Ġproc": 7787,
      "ensemble": 7788,
      "Segment": 7789,
      "ROLE": 7790,
      "Param": 7791,
      "509": 7792,
      "Ġchildren": 7793,
      "Thread": 7794,
      "BatchNorm": 7795,
      "112": 7796,
      "tion": 7797,
      "instructions": 7798,
      "serializer": 7799,
      "ĠShould": 7800,
      "listdir": 7801,
      "Ġans": 7802,
      "lify": 7803,
      "manifest": 7804,
      "tokenizer": 7805,
      "Ġ2017": 7806,
      "âĸĪâĸĪ": 7807,
      "ium": 7808,
      "mass": 7809,
      "sal": 7810,
      "Ġspark": 7811,
      "Ġrv": 7812,
      "ĠDA": 7813,
      "assertAll": 7814,
      "Ġknown": 7815,
      "Expression": 7816,
      "mapper": 7817,
      "2012": 7818,
      "tmpdir": 7819,
      "Ġsqlalchemy": 7820,
      "neighbor": 7821,
      "ĠInterpreterException": 7822,
      "AMP": 7823,
      "Hex": 7824,
      "Post": 7825,
      "xor": 7826,
      "Ġpot": 7827,
      "ranks": 7828,
      "ĠIMP": 7829,
      "assertNot": 7830,
      "antic": 7831,
      "curr": 7832,
      "posal": 7833,
      "Ġinitialized": 7834,
      "Show": 7835,
      "WR": 7836,
      "WIT": 7837,
      "yield": 7838,
      "Ġum": 7839,
      "Ġuri": 7840,
      "analysis": 7841,
      "exe": 7842,
      "tyle": 7843,
      "Ġatt": 7844,
      "Ġpathlib": 7845,
      "replicas": 7846,
      "astic": 7847,
      "disabled": 7848,
      "Ġjsonify": 7849,
      "Ġcalc": 7850,
      "Ġworking": 7851,
      "Ġlocations": 7852,
      "Digis": 7853,
      "exploration": 7854,
      "Javier": 7855,
      "menu": 7856,
      "qq": 7857,
      "xlabel": 7858,
      "è¾": 7859,
      "Ġquestion": 7860,
      "Ġtw": 7861,
      "Ġfmt": 7862,
      "urtle": 7863,
      "')).": 7864,
      "apis": 7865,
      "parallel": 7866,
      "Ġprocessed": 7867,
      "Ġunused": 7868,
      "Exists": 7869,
      "arest": 7870,
      "Unable": 7871,
      "scripts": 7872,
      "Attack": 7873,
      "ãĥ¼": 7874,
      "SERVER": 7875,
      "Ġassigned": 7876,
      "STRING": 7877,
      "cafJavier": 7878,
      "lon": 7879,
      "wires": 7880,
      "invoke": 7881,
      "itect": 7882,
      "Ġcoords": 7883,
      "Exchange": 7884,
      "nost": 7885,
      "Ġzone": 7886,
      "Ġexpand": 7887,
      "transforms": 7888,
      "Ġselection": 7889,
      "Ġwebapp": 7890,
      "vanced": 7891,
      "METHOD": 7892,
      "Grid": 7893,
      "xim": 7894,
      "revision": 7895,
      "entropy": 7896,
      "Ġrand": 7897,
      "ĠMin": 7898,
      "ivot": 7899,
      "sence": 7900,
      "ARM": 7901,
      "2011": 7902,
      "POS": 7903,
      "callbacks": 7904,
      "Poller": 7905,
      "cafJavierParser": 7906,
      "tage": 7907,
      "Ġ''.": 7908,
      "livery": 7909,
      "ĠTYPE": 7910,
      "Ġground": 7911,
      "ĠFL": 7912,
      "Ġdataframe": 7913,
      "=\"<": 7914,
      "Ġnumer": 7915,
      "ĠGe": 7916,
      "runs": 7917,
      "Ġ512": 7918,
      "beam": 7919,
      "Ġsympy": 7920,
      "radius": 7921,
      "Ġbackground": 7922,
      "Height": 7923,
      "grads": 7924,
      "ĠGenerated": 7925,
      "Ġseparate": 7926,
      "Ġderivative": 7927,
      "Redirect": 7928,
      "East": 7929,
      "RR": 7930,
      "hing": 7931,
      "vered": 7932,
      "ĠAb": 7933,
      "ARG": 7934,
      "markdown": 7935,
      "Ġcomponents": 7936,
      "Pi": 7937,
      "Sec": 7938,
      "equ": 7939,
      "java": 7940,
      "arrow": 7941,
      "Ġface": 7942,
      "ism": 7943,
      "Ġem": 7944,
      "Ġdelay": 7945,
      "keypoints": 7946,
      "anner": 7947,
      "STOR": 7948,
      "subproject": 7949,
      "statement": 7950,
      "Stats": 7951,
      "Ġserialize": 7952,
      "Ġdiscord": 7953,
      "Ġregistry": 7954,
      "Ġsupports": 7955,
      "ãĢĺ": 7956,
      "ãĢĻ": 7957,
      "capacity": 7958,
      ">\"": 7959,
      "Email": 7960,
      "benchmark": 7961,
      "leaf": 7962,
      "rouped": 7963,
      "Ġmu": 7964,
      "Ġbins": 7965,
      "iming": 7966,
      "ĠOUT": 7967,
      "Controller": 7968,
      "fixed": 7969,
      "cating": 7970,
      "irection": 7971,
      "argvlist": 7972,
      "slots": 7973,
      "ĠQuant": 7974,
      "âķłâŀ©ãĢĺ": 7975,
      "TS": 7976,
      "osed": 7977,
      "oauth": 7978,
      "seer": 7979,
      "Ġfs": 7980,
      "Ġdummy": 7981,
      "ends": 7982,
      "allery": 7983,
      "Ġgs": 7984,
      "='',": 7985,
      "Ġyang": 7986,
      "[:]": 7987,
      "restpy": 7988,
      "fficient": 7989,
      "rp": 7990,
      "}]": 7991,
      "Ġaugment": 7992,
      "resume": 7993,
      "Ġ%}": 7994,
      "saved": 7995,
      "2015": 7996,
      "Ġprocessing": 7997,
      "protobuf": 7998,
      "Windows": 7999,
      "ĠWork": 8000,
      "criminator": 8001,
      "sect": 8002,
      "secs": 8003,
      "Ġsync": 8004,
      "=='": 8005,
      "verts": 8006,
      "trl": 8007,
      "ĠRet": 8008,
      "groupby": 8009,
      "hosts": 8010,
      "Ġpartition": 8011,
      "protected": 8012,
      "600": 8013,
      "Cor": 8014,
      "RUN": 8015,
      "Tx": 8016,
      "repeat": 8017,
      "Ġ\"\")": 8018,
      "coord": 8019,
      "Ġdy": 8020,
      "scapi": 8021,
      "domains": 8022,
      "Ġthreading": 8023,
      "levant": 8024,
      "lb": 8025,
      "Ñĭ": 8026,
      "çŁ": 8027,
      "story": 8028,
      "adj": 8029,
      "ased": 8030,
      "ĠĠĠĠĠĠĠĠĠĠĠĠĠĠĠĠĠĠĠĠĠĠĠĠĠĠĠĠĠĠĠĠĠĠĠĠĠĠĠĠĠĠĠĠĠĠĠĠĠ": 8031,
      "pretrained": 8032,
      "Ġmanager": 8033,
      "660": 8034,
      "svnadmin": 8035,
      "Creation": 8036,
      "literals": 8037,
      "Ġparticular": 8038,
      "CLI": 8039,
      "gle": 8040,
      "Ġinc": 8041,
      "Ġbalance": 8042,
      "ĠMat": 8043,
      "momentum": 8044,
      "Ġalert": 8045,
      "ENG": 8046,
      "canvas": 8047,
      "Lin": 8048,
      "cam": 8049,
      "Ġ19": 8050,
      "observation": 8051,
      "bos": 8052,
      "ĠEnd": 8053,
      "shapes": 8054,
      "Gets": 8055,
      "Ġtemperature": 8056,
      "IES": 8057,
      "Msg": 8058,
      "detach": 8059,
      "alloc": 8060,
      "rome": 8061,
      "Ġpprint": 8062,
      "Ġsoft": 8063,
      "Ġok": 8064,
      "Ġmem": 8065,
      "formatter": 8066,
      "Ġdiag": 8067,
      "generic": 8068,
      "Enabled": 8069,
      "TEMPL": 8070,
      "Ġretrieve": 8071,
      ",-": 8072,
      "PES": 8073,
      "Srv": 8074,
      "West": 8075,
      "serial": 8076,
      "macro": 8077,
      "Ġconversion": 8078,
      "='%": 8079,
      "validated": 8080,
      "Ġdoctest": 8081,
      "Formatter": 8082,
      "Ġembeddings": 8083,
      "btn": 8084,
      "Ġ=================================================================": 8085,
      "Main": 8086,
      "dag": 8087,
      "kseer": 8088,
      "xd": 8089,
      "}_": 8090,
      "Ġazure": 8091,
      "absolute": 8092,
      "outh": 8093,
      "Ġratio": 8094,
      "ĠLIC": 8095,
      "ĠOver": 8096,
      "fekseer": 8097,
      "instanceId": 8098,
      "Ġchunks": 8099,
      "ĠReal": 8100,
      "567": 8101,
      "ROPoller": 8102,
      "Ġconnections": 8103,
      "Ġmanaged": 8104,
      "bottom": 8105,
      "OLDER": 8106,
      "ĠChange": 8107,
      "/*": 8108,
      ">,": 8109,
      "Step": 8110,
      "xe": 8111,
      "yes": 8112,
      "æĿ": 8113,
      "inator": 8114,
      "inference": 8115,
      "Ġaudio": 8116,
      "fic": 8117,
      "Ġthree": 8118,
      "\")[": 8119,
      "ĠFilter": 8120,
      "grpc": 8121,
      "transfer": 8122,
      "Ġadjust": 8123,
      "dicate": 8124,
      "Role": 8125,
      "ĠOrderedDict": 8126,
      "presentation": 8127,
      "resourceGroupName": 8128,
      "ĠCastle": 8129,
      "CUR": 8130,
      "TABLE": 8131,
      "bet": 8132,
      "sur": 8133,
      "trees": 8134,
      "aring": 8135,
      "ceed": 8136,
      "Ġsleep": 8137,
      "getblock": 8138,
      "versed": 8139,
      "ĠFl": 8140,
      "Ġobservation": 8141,
      "ĠArray": 8142,
      "scheme": 8143,
      "hashes": 8144,
      "Ġboto": 8145,
      "Ġperformance": 8146,
      "Big": 8147,
      "Bound": 8148,
      "LINE": 8149,
      "RSE": 8150,
      "umin": 8151,
      "ables": 8152,
      "typ": 8153,
      "ĠReserved": 8154,
      "Prob": 8155,
      "which": 8156,
      "Ġprobability": 8157,
      "Ġsafe": 8158,
      "Ġcloud": 8159,
      "IGHT": 8160,
      "rmt": 8161,
      "wasm": 8162,
      "getattr": 8163,
      "intf": 8164,
      "igrate": 8165,
      "too": 8166,
      "Ġnotification": 8167,
      "Rece": 8168,
      "ĠBack": 8169,
      "ĠGraph": 8170,
      "Ġkeywords": 8171,
      "PIPE": 8172,
      "Ġlibvirt": 8173,
      "Ġsimulation": 8174,
      "Ġbaseline": 8175,
      "=\"\"\"": 8176,
      "stim": 8177,
      "converter": 8178,
      "ages": 8179,
      "ĠApi": 8180,
      "ĠCor": 8181,
      "ĠFind": 8182,
      "Ġrl": 8183,
      "Ġoutside": 8184,
      "Ġlogic": 8185,
      "compress": 8186,
      "dispatch": 8187,
      "ãģĻ": 8188,
      "Interpol": 8189,
      "ĠQuery": 8190,
      "ĠinjectFault": 8191,
      "fw": 8192,
      "rnn": 8193,
      "inations": 8194,
      "Ġpys": 8195,
      "__))": 8196,
      "ranches": 8197,
      "initialized": 8198,
      "readline": 8199,
      "ĠHow": 8200,
      "notify": 8201,
      "Ġones": 8202,
      "Metric": 8203,
      "Prepare": 8204,
      "Ġskipped": 8205,
      "Ġsuccessfully": 8206,
      "Ġappropriate": 8207,
      ",%": 8208,
      "=\"\",": 8209,
      "Bad": 8210,
      "OC": 8211,
      "cred": 8212,
      "tic": 8213,
      "å½": 8214,
      "deps": 8215,
      "Ġam": 8216,
      "gether": 8217,
      "Ġhref": 8218,
      "replica": 8219,
      "selector": 8220,
      "Ġoverwrite": 8221,
      "Ġvisual": 8222,
      "Ġpreds": 8223,
      "CCESS": 8224,
      "Ġcompatible": 8225,
      "ATTRIBUT": 8226,
      "ĠEntrance": 8227,
      "acl": 8228,
      "inder": 8229,
      "Ġtab": 8230,
      "getenv": 8231,
      "veh": 8232,
      "ships": 8233,
      "ĠPi": 8234,
      "validators": 8235,
      "ENS": 8236,
      "ledge": 8237,
      "Ġpriority": 8238,
      "Ġswitch": 8239,
      "Ġdecimal": 8240,
      "threads": 8241,
      "Monitor": 8242,
      "LIN": 8243,
      "raries": 8244,
      "à§": 8245,
      "Ġ'+": 8246,
      "ilds": 8247,
      "Ġtools": 8248,
      "003": 8249,
      "icles": 8250,
      "ĠPass": 8251,
      "Ġaddresses": 8252,
      "ĠYANG": 8253,
      "PRESS": 8254,
      "hintText": 8255,
      "Store": 8256,
      "ĠLICENSE": 8257,
      "Gui": 8258,
      "My": 8259,
      "Mult": 8260,
      "Ġ00": 8261,
      "Ġ\"*": 8262,
      "();": 8263,
      "Ġvm": 8264,
      "ĠMicrosoft": 8265,
      "dicts": 8266,
      "Ġchart": 8267,
      "Ġnova": 8268,
      "Resv": 8269,
      "ICT": 8270,
      "ĠJson": 8271,
      "Ġexplo": 8272,
      "traceback": 8273,
      "={}):": 8274,
      "Global": 8275,
      "HU": 8276,
      "XML": 8277,
      "bg": 8278,
      "oom": 8279,
      "alps": 8280,
      "Ġred": 8281,
      "outine": 8282,
      "Ġbuiltin": 8283,
      "Ġformatted": 8284,
      "DIRECT": 8285,
      "Ġsomething": 8286,
      "Ġcause": 8287,
      "åĩº": 8288,
      "AF": 8289,
      "Multiple": 8290,
      "Sim": 8291,
      "hui": 8292,
      "semb": 8293,
      "Ġscreen": 8294,
      "Ġwires": 8295,
      "mbo": 8296,
      "STATE": 8297,
      "Ġdouble": 8298,
      "Ġconnected": 8299,
      "ãĤĭ": 8300,
      "Ġdirectories": 8301,
      "ĠFIX": 8302,
      "###############": 8303,
      "/')": 8304,
      "Fn": 8305,
      "aug": 8306,
      "frequency": 8307,
      "æĬ": 8308,
      "celer": 8309,
      "urb": 8310,
      "rices": 8311,
      "ayer": 8312,
      "subnet": 8313,
      "Ġ2021": 8314,
      "ganization": 8315,
      "ĠFeature": 8316,
      ".%": 8317,
      "tar": 8318,
      "Ð¼": 8319,
      "ÑĮ": 8320,
      "infl": 8321,
      "Ġ=====": 8322,
      "anchors": 8323,
      "Ġren": 8324,
      "Ġinstructions": 8325,
      "Ġconsole": 8326,
      "dates": 8327,
      "Ġkeypoint": 8328,
      "Ġchecking": 8329,
      "Ġneg": 8330,
      "={},": 8331,
      "ĠWeb": 8332,
      "éĩı": 8333,
      "GAP": 8334,
      "your": 8335,
      "segments": 8336,
      "Ġimplement": 8337,
      "Ġ'\"": 8338,
      "Ġinfer": 8339,
      "Ġssl": 8340,
      "Ġdynamic": 8341,
      "rier": 8342,
      "']]:": 8343,
      "Ġear": 8344,
      "outer": 8345,
      "Remove": 8346,
      "ims": 8347,
      "substrate": 8348,
      "iterator": 8349,
      "{}.": 8350,
      "markets": 8351,
      "tensorflow": 8352,
      "crops": 8353,
      "Component": 8354,
      "alancer": 8355,
      "History": 8356,
      "Ġlonger": 8357,
      "ytoCM": 8358,
      "'m": 8359,
      "405": 8360,
      "CKET": 8361,
      "OFF": 8362,
      "Quest": 8363,
      "URI": 8364,
      "ima": 8365,
      "wid": 8366,
      "æ±": 8367,
      "onts": 8368,
      "Ġcent": 8369,
      "Ġcrypt": 8370,
      "Ġdot": 8371,
      "ssh": 8372,
      "(\"#": 8373,
      "istered": 8374,
      "ĠVerify": 8375,
      "Ġshown": 8376,
      "requested": 8377,
      "Ġnoise": 8378,
      "Sequential": 8379,
      "striction": 8380,
      "encoded": 8381,
      "ĠZZ": 8382,
      "RESULT": 8383,
      "Ġattempt": 8384,
      "AI": 8385,
      "æ³": 8386,
      "ç§": 8387,
      "sections": 8388,
      "atar": 8389,
      "ada": 8390,
      "aming": 8391,
      "Deleter": 8392,
      "pubkey": 8393,
      "Ġmanifest": 8394,
      "ĠProject": 8395,
      "Ġjobs": 8396,
      "Events": 8397,
      "WARNING": 8398,
      "'%": 8399,
      ">{{": 8400,
      "Lock": 8401,
      "MD": 8402,
      "gather": 8403,
      "half": 8404,
      "ners": 8405,
      "Ġ=>": 8406,
      "Ġtrunc": 8407,
      "Ġcer": 8408,
      "Ġincre": 8409,
      "Real": 8410,
      "ĠBUT": 8411,
      "125": 8412,
      "Ġitself": 8413,
      "Ġplotly": 8414,
      "BUILD": 8415,
      "UPPORT": 8416,
      "Ġindicates": 8417,
      "CES": 8418,
      "Holder": 8419,
      "IV": 8420,
      "PD": 8421,
      "RGB": 8422,
      "]',": 8423,
      "Ġ\"$": 8424,
      "Ġrect": 8425,
      "Ġsynchronous": 8426,
      "maker": 8427,
      "))[": 8428,
      "pretty": 8429,
      "acing": 8430,
      "ĠHel": 8431,
      "__(__": 8432,
      "ĠAnhui": 8433,
      "Ġsampling": 8434,
      "Ġchoice": 8435,
      "HTML": 8436,
      "securitycenter": 8437,
      "Deployment": 8438,
      "JID": 8439,
      "Microsoft": 8440,
      "SM": 8441,
      "bute": 8442,
      "front": 8443,
      "rum": 8444,
      "twe": 8445,
      "ĠĠĠĠĠĠĠĠččĊ": 8446,
      "002": 8447,
      "']=": 8448,
      "rence": 8449,
      "Ġ>',": 8450,
      "\"]',": 8451,
      "sampling": 8452,
      "Ġresulting": 8453,
      "ARK": 8454,
      "vertices": 8455,
      "catalog": 8456,
      "dicates": 8457,
      "Disk": 8458,
      "(?:": 8459,
      "æł¼": 8460,
      "Ġflatten": 8461,
      "ĠPublic": 8462,
      "+=": 8463,
      "both": 8464,
      "Ġ------": 8465,
      "Ġfrequency": 8466,
      "('.')": 8467,
      "poses": 8468,
      "Ġ23": 8469,
      "Required": 8470,
      "ĠĠĠĠĠĠĠĠĠĠĠĠĠĠĠĠĠĠĠĠĠĠĠĠĠĠĠĠĠĠĠĠĠĠĠĠĠĠĠĠĠĠĠĠĠĠĠĠĠĠĠĠĠĠĠ": 8471,
      "foot": 8472,
      "Env": 8473,
      "transition": 8474,
      "executor": 8475,
      "USERNAME": 8476,
      "VALUE": 8477,
      "ĠBoolean": 8478,
      "Binary": 8479,
      "\"})": 8480,
      "Camera": 8481,
      "eg": 8482,
      "uro": 8483,
      "rogram": 8484,
      "Ġ\"[": 8485,
      "Ġreview": 8486,
      "Ġremaining": 8487,
      "union": 8488,
      "Ġ***": 8489,
      "modifi": 8490,
      "Ġidentity": 8491,
      "Ġrunner": 8492,
      "{})": 8493,
      "POSE": 8494,
      "suit": 8495,
      "Ġfinished": 8496,
      "________": 8497,
      "Ġindicating": 8498,
      "ĠIterable": 8499,
      "MAGES": 8500,
      "itecture": 8501,
      "Bank": 8502,
      "Mpls": 8503,
      "docker": 8504,
      "enant": 8505,
      "Ġseen": 8506,
      "Ġ```": 8507,
      "ĠRights": 8508,
      "mitive": 8509,
      "048": 8510,
      "authentic": 8511,
      "visible": 8512,
      "Ġbutton": 8513,
      "Allow": 8514,
      "âĶĢâĶĢâĶĢ": 8515,
      "æĸĩ": 8516,
      "ierarch": 8517,
      "........": 8518,
      "Issue": 8519,
      "ĠâĶ": 8520,
      "Ġir": 8521,
      "Ġcb": 8522,
      "resolution": 8523,
      "clusive": 8524,
      "ĠBit": 8525,
      "subtype": 8526,
      "ysical": 8527,
      "Ġmanual": 8528,
      "airflow": 8529,
      "BrokerID": 8530,
      "LANG": 8531,
      "[\\": 8532,
      "ores": 8533,
      "zA": 8534,
      "lems": 8535,
      "ĠTEST": 8536,
      "Ġtestres": 8537,
      "Ġtestdir": 8538,
      "feats": 8539,
      "Ġsetattr": 8540,
      "txn": 8541,
      "trast": 8542,
      "Ġfilenames": 8543,
      "LIED": 8544,
      "Ġ'/'": 8545,
      "randn": 8546,
      "ĠStruct": 8547,
      "0000000000000000": 8548,
      "ĠIPv": 8549,
      "rotation": 8550,
      "Ġepsilon": 8551,
      "Edge": 8552,
      "æĮĩ": 8553,
      "Med": 8554,
      "SB": 8555,
      "[...,": 8556,
      "cum": 8557,
      "tip": 8558,
      "urm": 8559,
      "illa": 8560,
      "Ġ148": 8561,
      "Ġconverter": 8562,
      "Ġhalf": 8563,
      "ĠBY": 8564,
      "locator": 8565,
      "ĉĉčĊ": 8566,
      "linspace": 8567,
      "checks": 8568,
      "svg": 8569,
      "Ġreading": 8570,
      "streams": 8571,
      "åĬł": 8572,
      "Ġindividual": 8573,
      "Artifact": 8574,
      "Folder": 8575,
      "_'": 8576,
      "mn": 8577,
      "ti": 8578,
      "xpath": 8579,
      "Ġlab": 8580,
      "arded": 8581,
      "Ġmm": 8582,
      "Ġbind": 8583,
      "challenge": 8584,
      "ĠFound": 8585,
      "Ġmembers": 8586,
      "ĠLedge": 8587,
      "Ġhealth": 8588,
      "ĠNow": 8589,
      "ĠNormal": 8590,
      "infos": 8591,
      "Ġraised": 8592,
      "Ġ\\\"": 8593,
      "...')": 8594,
      "manual": 8595,
      "Ġtemplates": 8596,
      "Ġpeak": 8597,
      "PREFIX": 8598,
      "So": 8599,
      "VIR": 8600,
      "npy": 8601,
      "Ġ'*": 8602,
      "Ġmis": 8603,
      "elf": 8604,
      "lare": 8605,
      "vergence": 8606,
      "Ġrse": 8607,
      "Ġouter": 8608,
      "ĠUN": 8609,
      "notes": 8610,
      "ifications": 8611,
      "536": 8612,
      "trade": 8613,
      "Files": 8614,
      "Ġlevels": 8615,
      "ĠShanxi": 8616,
      "Cloud": 8617,
      "SDM": 8618,
      "Kwargs": 8619,
      "LD": 8620,
      "PK": 8621,
      "dating": 8622,
      "eled": 8623,
      "rd": 8624,
      "wind": 8625,
      "unce": 8626,
      "untain": 8627,
      "laces": 8628,
      "dialog": 8629,
      "Ġstory": 8630,
      "Ġsegments": 8631,
      "Ġxrange": 8632,
      "ĠBatch": 8633,
      "pipe": 8634,
      "catalyzer": 8635,
      "ĠDataset": 8636,
      "Ġaround": 8637,
      "Ġpersist": 8638,
      "Choice": 8639,
      "Draw": 8640,
      "ess": 8641,
      "friend": 8642,
      "olding": 8643,
      "abort": 8644,
      "perform": 8645,
      "ĠPlot": 8646,
      "ONG": 8647,
      "Ġunknown": 8648,
      "ĠGuizhou": 8649,
      "regions": 8650,
      "stems": 8651,
      "Named": 8652,
      "tenant": 8653,
      "Ġiterations": 8654,
      "fraction": 8655,
      "ĠGenerate": 8656,
      "Ġarchive": 8657,
      "utcnow": 8658,
      "Ġhomeassistant": 8659,
      "Cert": 8660,
      "ah": 8661,
      "ball": 8662,
      "crit": 8663,
      "lue": 8664,
      "mf": 8665,
      "inline": 8666,
      "ention": 8667,
      "Ġ[{'": 8668,
      "(\"_": 8669,
      "ĠIs": 8670,
      "moves": 8671,
      "Ġboot": 8672,
      "Ġbounds": 8673,
      "Exist": 8674,
      "Ġbuilt": 8675,
      "Ġregression": 8676,
      "Ġinitializer": 8677,
      "Ġiterator": 8678,
      "Ġsigned": 8679,
      "greater": 8680,
      "Generated": 8681,
      "Ġstrides": 8682,
      "ĠEventName": 8683,
      "=__": 8684,
      "candidates": 8685,
      "|\\": 8686,
      "ocal": 8687,
      "ople": 8688,
      "company": 8689,
      "Ġdispatch": 8690,
      "specs": 8691,
      "Ġteam": 8692,
      "parsers": 8693,
      "asyncio": 8694,
      "TYPES": 8695,
      "PROJECT": 8696,
      "Ġmonitor": 8697,
      "lecule": 8698,
      "(\"\")": 8699,
      ")`": 8700,
      "LABEL": 8701,
      "`\")": 8702,
      "gateway": 8703,
      "gadget": 8704,
      "ctrl": 8705,
      "Ġrestart": 8706,
      "Ġconcat": 8707,
      "tau": 8708,
      "Ġresolution": 8709,
      "responses": 8710,
      "strap": 8711,
      "535": 8712,
      "Ġclassification": 8713,
      "Copy": 8714,
      "Desert": 8715,
      "Ġframes": 8716,
      "6797": 8717,
      "Ġbounding": 8718,
      "ĠOrder": 8719,
      "Ver": 8720,
      "ceil": 8721,
      "inger": 8722,
      "Ġmgr": 8723,
      "ĠSto": 8724,
      "Ġunsigned": 8725,
      "anno": 8726,
      "Ġrouter": 8727,
      "osted": 8728,
      "topics": 8729,
      "ĠCONT": 8730,
      "Ġboundary": 8731,
      "ole": 8732,
      "zation": 8733,
      "ç®": 8734,
      "Ġ#################################": 8735,
      "Ġ10000": 8736,
      "ĠAR": 8737,
      "Ġ_('": 8738,
      "additional": 8739,
      "ĠPage": 8740,
      "iration": 8741,
      "mplitude": 8742,
      "Ġadj": 8743,
      "Ġhostname": 8744,
      "airy": 8745,
      "llout": 8746,
      "sdk": 8747,
      "Ġ}}</": 8748,
      "Ticket": 8749,
      "éĺµ": 8750,
      "Sw": 8751,
      "Uns": 8752,
      "ience": 8753,
      "Ð²": 8754,
      "Ġspa": 8755,
      "Ġdl": 8756,
      "race": 8757,
      "abric": 8758,
      "Ġord": 8759,
      "Reader": 8760,
      "angles": 8761,
      "moved": 8762,
      "trip": 8763,
      "ocb": 8764,
      "64702": 8765,
      "regression": 8766,
      "locals": 8767,
      "scaled": 8768,
      "Ġservices": 8769,
      "Ġtxt": 8770,
      "Ġterm": 8771,
      "compatible": 8772,
      "GROUP": 8773,
      "EY": 8774,
      "GD": 8775,
      "pure": 8776,
      "íķ": 8777,
      "metry": 8778,
      "Ġscheduler": 8779,
      "Ġcoverage": 8780,
      "Ġcoeff": 8781,
      "Ġmet": 8782,
      "subdir": 8783,
      "checker": 8784,
      "openflow": 8785,
      "ULAR": 8786,
      "choose": 8787,
      "CPU": 8788,
      "Ġrequirements": 8789,
      "zzle": 8790,
      "onomy": 8791,
      ";\\": 8792,
      "Vert": 8793,
      "mol": 8794,
      "æŃ": 8795,
      "ette": 8796,
      "setUp": 8797,
      "Ġhard": 8798,
      "Ġcopies": 8799,
      "ĠPost": 8800,
      "Ġxy": 8801,
      "Ġlogfile": 8802,
      "Exit": 8803,
      "Ġqueryset": 8804,
      "boundary": 8805,
      "predicted": 8806,
      "Ġdetected": 8807,
      "malloc": 8808,
      "CallbackImpl": 8809,
      "åĽŀ": 8810,
      "deepcopy": 8811,
      "AMETER": 8812,
      "PASSWORD": 8813,
      "ĠLIMITED": 8814,
      "!')": 8815,
      "10000": 8816,
      "MagicMock": 8817,
      "follow": 8818,
      "kf": 8819,
      "lc": 8820,
      "margin": 8821,
      "tures": 8822,
      "unsqueeze": 8823,
      "addresses": 8824,
      "readlines": 8825,
      "ĠHand": 8826,
      "compiler": 8827,
      "Ġpointer": 8828,
      "sumer": 8829,
      "Ġlosses": 8830,
      "ĠConfiguration": 8831,
      "gradients": 8832,
      "ĠTransform": 8833,
      "istribution": 8834,
      "Edit": 8835,
      "ĠFIXME": 8836,
      "wer": 8837,
      "è½": 8838,
      "Ġrev": 8839,
      "terms": 8840,
      "qubits": 8841,
      "ĠMn": 8842,
      "scaling": 8843,
      ":`.": 8844,
      "Ġtokenizer": 8845,
      "Ġdevices": 8846,
      "Quant": 8847,
      "lsType": 8848,
      "Ġcreation": 8849,
      "Ġcoordinate": 8850,
      "(\",": 8851,
      "hard": 8852,
      "spy": 8853,
      "sure": 8854,
      "æµ": 8855,
      "erred": 8856,
      "Ġnm": 8857,
      "exact": 8858,
      "Ġbel": 8859,
      "illi": 8860,
      "Ġ21": 8861,
      "Ġsecurity": 8862,
      "ĠModule": 8863,
      "ĠVAL": 8864,
      "Ġclassifier": 8865,
      "filled": 8866,
      "Ġspan": 8867,
      "LIB": 8868,
      "Compute": 8869,
      "QUI": 8870,
      "ticker": 8871,
      "armup": 8872,
      "ĠCalculate": 8873,
      "DefaultDeleter": 8874,
      "ĠValidation": 8875,
      "Topic": 8876,
      "Invest": 8877,
      "Geo": 8878,
      "Renderer": 8879,
      "çŁ©": 8880,
      ":\")": 8881,
      "WH": 8882,
      "WIN": 8883,
      "eager": 8884,
      "ired": 8885,
      "rat": 8886,
      "onic": 8887,
      "Ġpg": 8888,
      "Ġnullable": 8889,
      "Ġ[('": 8890,
      "apsed": 8891,
      "ĠCho": 8892,
      "Ġlb": 8893,
      "ReLU": 8894,
      "Ġcomputed": 8895,
      "2222": 8896,
      "Ġ2016": 8897,
      "sidered": 8898,
      "Ġvolumes": 8899,
      "positive": 8900,
      "legal": 8901,
      "recip": 8902,
      "received": 8903,
      "çŁ©éĺµ": 8904,
      "FR": 8905,
      "Save": 8906,
      "VAR": 8907,
      "browser": 8908,
      "iform": 8909,
      "mor": 8910,
      "Ġna": 8911,
      "Ġspect": 8912,
      "Regression": 8913,
      "wave": 8914,
      "libvirt": 8915,
      "visor": 8916,
      "COM": 8917,
      "Ġmapped": 8918,
      "Created": 8919,
      "assertRaisesRegex": 8920,
      "assertIsNot": 8921,
      "AIL": 8922,
      "It": 8923,
      "await": 8924,
      "bing": 8925,
      "eration": 8926,
      "staff": 8927,
      "Ġ\"\":": 8928,
      "lihood": 8929,
      "Ġ{%": 8930,
      "ĠSw": 8931,
      "ĠSphinx": 8932,
      "Ġsever": 8933,
      "ĠRandom": 8934,
      "quick": 8935,
      "861575": 8936,
      "pointer": 8937,
      "Ġstarts": 8938,
      "partitions": 8939,
      "SIG": 8940,
      "Ġphase": 8941,
      "incip": 8942,
      "bigquery": 8943,
      "recipient": 8944,
      "MESSAGE": 8945,
      "NP": 8946,
      "Schedule": 8947,
      "XY": 8948,
      "band": 8949,
      "fid": 8950,
      "gate": 8951,
      "qt": 8952,
      "oracle": 8953,
      "unded": 8954,
      "))]": 8955,
      "Ġequivalent": 8956,
      "Ġspecifies": 8957,
      "Ġconfigure": 8958,
      "replay": 8959,
      "Enable": 8960,
      "availability": 8961,
      "Ġdocs": 8962,
      "Ġgeneral": 8963,
      "Ġvars": 8964,
      "baseline": 8965,
      "cleaned": 8966,
      "Ġexpectation": 8967,
      "ARTIC": 8968,
      "TRACT": 8969,
      "Ġinterpolation": 8970,
      "ĠCluster": 8971,
      "FD": 8972,
      "TD": 8973,
      "cending": 8974,
      "sas": 8975,
      "transactions": 8976,
      "xff": 8977,
      "è§": 8978,
      "itation": 8979,
      "itize": 8980,
      "coef": 8981,
      "Ġnums": 8982,
      "submission": 8983,
      "ĠInstance": 8984,
      "ANNOT": 8985,
      "Ġacross": 8986,
      "Arr": 8987,
      "Ġenter": 8988,
      "ãģĹ": 8989,
      "visioning": 8990,
      "Ġpsdf": 8991,
      "ĠJiangxi": 8992,
      "SUCCESS": 8993,
      "$')": 8994,
      "Git": 8995,
      "]{": 8996,
      "vote": 8997,
      "Ġ^": 8998,
      "Ġest": 8999,
      "inct": 9000,
      "atlas": 9001,
      "ancy": 9002,
      "hest": 9003,
      "geom": 9004,
      "Ġconsidered": 9005,
      "ĠAD": 9006,
      "Ġnothing": 9007,
      "Ġ%.": 9008,
      "Ġunexpected": 9009,
      "ĠURI": 9010,
      "Exploration": 9011,
      "Ġlearn": 9012,
      "Ġresponses": 9013,
      "Identity": 9014,
      "Setting": 9015,
      "ĠIDs": 9016,
      "Ġsignode": 9017,
      "Ġplaceholder": 9018,
      "mostEqual": 9019,
      "LP": 9020,
      "gain": 9021,
      "nr": 9022,
      "qs": 9023,
      "rst": 9024,
      "ä¾": 9025,
      "reat": 9026,
      "Ġrecent": 9027,
      "Ġnx": 9028,
      "004": 9029,
      "(\".": 9030,
      "Ġdep": 9031,
      "nums": 9032,
      "Groups": 9033,
      "Price": 9034,
      "ä»ĵ": 9035,
      "Optimizer": 9036,
      "IEW": 9037,
      "Ops": 9038,
      "oods": 9039,
      "Ġ()": 9040,
      "anc": 9041,
      "Ġrecurs": 9042,
      "ĠTag": 9043,
      "than": 9044,
      "Ġeas": 9045,
      "ĠSource": 9046,
      "more": 9047,
      "ERY": 9048,
      "Ġ42": 9049,
      "ibration": 9050,
      "Ġdoor": 9051,
      "management": 9052,
      "AlmostEqual": 9053,
      "dependency": 9054,
      "WNER": 9055,
      "(':": 9056,
      "CAS": 9057,
      "Ids": 9058,
      "Ori": 9059,
      "repository": 9060,
      "retrie": 9061,
      "eras": 9062,
      "Ġmd": 9063,
      "eth": 9064,
      "apd": 9065,
      "pod": 9066,
      "Ġgpu": 9067,
      "ĠMER": 9068,
      "minor": 9069,
      "ĠUSER": 9070,
      "STM": 9071,
      "Ġconfigured": 9072,
      "Counter": 9073,
      "functional": 9074,
      "POINTER": 9075,
      "networks": 9076,
      "Ġavg": 9077,
      "Ġscene": 9078,
      "Align": 9079,
      "Like": 9080,
      "stantiate": 9081,
      "Ġbroadcast": 9082,
      "ĠIMPLIED": 9083,
      "(%": 9084,
      "]\",": 9085,
      "bold": 9086,
      "qn": 9087,
      "sid": 9088,
      "éĻ": 9089,
      "Ġfact": 9090,
      "ceeded": 9091,
      "Ġ{}))": 9092,
      "workspace": 9093,
      "ĠContext": 9094,
      "ĠExt": 9095,
      "Ġdistri": 9096,
      "861587": 9097,
      "ãģ«": 9098,
      "masks": 9099,
      "swagger": 9100,
      "ESSION": 9101,
      "windows": 9102,
      "Ġdependency": 9103,
      "ĠAuthors": 9104,
      "ĠInitialize": 9105,
      "Library": 9106,
      "BaxA": 9107,
      "gray": 9108,
      "men": 9109,
      "ongs": 9110,
      "Ġsur": 9111,
      "Ġdp": 9112,
      "Ġbasis": 9113,
      "esh": 9114,
      "ĠThen": 9115,
      "']).": 9116,
      "))))": 9117,
      "Ġcontract": 9118,
      "shop": 9119,
      "loading": 9120,
      "objectType": 9121,
      "ĠQQ": 9122,
      "Ġreduction": 9123,
      "Body": 9124,
      "Section": 9125,
      "dns": 9126,
      "timer": 9127,
      "æĶ": 9128,
      "analy": 9129,
      "utter": 9130,
      "ĠĠĠĠĠĠĠĠĠĠĠĠĠĠĠĠĠĠĠĠčĊ": 9131,
      "rab": 9132,
      "isinstance": 9133,
      "ĠClsType": 9134,
      "viation": 9135,
      "Ġgive": 9136,
      "Ġdeal": 9137,
      "phrase": 9138,
      "ENCE": 9139,
      "registration": 9140,
      "DELETE": 9141,
      "168": 9142,
      "Ġtransition": 9143,
      "functionapp": 9144,
      "operational": 9145,
      "croll": 9146,
      "cases": 9147,
      "Ġscan": 9148,
      "Ġfails": 9149,
      "Ġcalculated": 9150,
      "Ġvariant": 9151,
      "Ġgeometry": 9152,
      "Ġtoolchain": 9153,
      "requirements": 9154,
      "ĠCOPYRIGHT": 9155,
      "ĠQuantum": 9156,
      "lg": 9157,
      "vat": 9158,
      "inh": 9159,
      "ĠSo": 9160,
      "ĠAUT": 9161,
      "Ġhint": 9162,
      "Install": 9163,
      "INDEX": 9164,
      "ĠHas": 9165,
      "Ġterminal": 9166,
      "ĠOtherwise": 9167,
      "ĠFLAGS": 9168,
      "/\")": 9169,
      "information": 9170,
      "Ġtax": 9171,
      "Ġce": 9172,
      "Ġcatalog": 9173,
      "Ġsat": 9174,
      "Ġmime": 9175,
      "ĠSign": 9176,
      "Ġ22": 9177,
      "Ġrhs": 9178,
      "portion": 9179,
      "wamp": 9180,
      "Ġprevent": 9181,
      "posable": 9182,
      "SECRE": 9183,
      "Ġadding": 9184,
      "Ġversionadded": 9185,
      "Serial": 9186,
      "Ġcaller": 9187,
      "Ġports": 9188,
      "ĠGenerator": 9189,
      "Widgets": 9190,
      "TIMEOUT": 9191,
      "istributed": 9192,
      "WEI": 9193,
      "PNG": 9194,
      "Ġconsider": 9195,
      "rmtree": 9196,
      "*\\": 9197,
      "+)": 9198,
      "Day": 9199,
      "Plot": 9200,
      "]},": 9201,
      "`)": 9202,
      "gran": 9203,
      "pres": 9204,
      "orient": 9205,
      "heap": 9206,
      "Ġfold": 9207,
      "life": 9208,
      "ulated": 9209,
      "']]]": 9210,
      "filer": 9211,
      "PIO": 9212,
      "special": 9213,
      "Ġvery": 9214,
      "cmdline": 9215,
      "Ġhandling": 9216,
      "Short": 9217,
      "transformer": 9218,
      "ĠMultivalue": 9219,
      "Ġrotation": 9220,
      "mqtt": 9221,
      "=',": 9222,
      "you": 9223,
      "Ġ;": 9224,
      "Ġsizes": 9225,
      "serialized": 9226,
      "olation": 9227,
      "extras": 9228,
      "iles": 9229,
      "ĠDummy": 9230,
      "house": 9231,
      "Ġann": 9232,
      "::-": 9233,
      "Ġindexes": 9234,
      "tensors": 9235,
      "Ġincludes": 9236,
      "fragment": 9237,
      "æĸ¹": 9238,
      "å®ŀ": 9239,
      "Ġcompatibility": 9240,
      "velopers": 9241,
      "+',": 9242,
      "/\",": 9243,
      "AWEI": 9244,
      "CB": 9245,
      "Driver": 9246,
      "circuit": 9247,
      "futures": 9248,
      "gres": 9249,
      "hape": 9250,
      "pip": 9251,
      "sheet": 9252,
      "xis": 9253,
      "â£": 9254,
      "æĽ": 9255,
      "describe": 9256,
      "Ġfamily": 9257,
      "Ġdd": 9258,
      "Ġrespon": 9259,
      "Report": 9260,
      "shutdown": 9261,
      "\"]),": 9262,
      "leting": 9263,
      "pkl": 9264,
      "Does": 9265,
      "reviewer": 9266,
      "ĠCurrent": 9267,
      "upyter": 9268,
      "BytesIO": 9269,
      "Ma": 9270,
      "RSV": 9271,
      "Ġrestriction": 9272,
      "Ġborder": 9273,
      "deriv": 9274,
      "Ġsequences": 9275,
      "ĠEVENT": 9276,
      "assertAlmostEqual": 9277,
      "Ġheat": 9278,
      "ĠNum": 9279,
      "ATOR": 9280,
      "ORDER": 9281,
      "ITNESS": 9282,
      "DataIdentifier": 9283,
      "playlist": 9284,
      "PTE": 9285,
      "ĠParameter": 9286,
      "multivalue": 9287,
      "ÐµÐ½": 9288,
      "Ġcorrectly": 9289,
      "Ġlegend": 9290,
      "resolve": 9291,
      "HUAWEI": 9292,
      "RSVPTE": 9293,
      "+]": 9294,
      "SR": 9295,
      "xo": 9296,
      "Ġsell": 9297,
      "instruction": 9298,
      "Ġspe": 9299,
      "course": 9300,
      "Ġasset": 9301,
      "spot": 9302,
      "Ġencrypt": 9303,
      "signup": 9304,
      "Timeout": 9305,
      "ĠStream": 9306,
      "apter": 9307,
      "ĠAuthentication": 9308,
      "hours": 9309,
      "onym": 9310,
      "ĠWindows": 9311,
      "Ġcertain": 9312,
      "((\"": 9313,
      "5000": 9314,
      "901": 9315,
      ">')": 9316,
      "OO": 9317,
      "Slot": 9318,
      "UI": 9319,
      "Width": 9320,
      "_\"": 9321,
      "ares": 9322,
      "baz": 9323,
      "wner": 9324,
      "water": 9325,
      "walk": 9326,
      "alive": 9327,
      "Ġcp": 9328,
      "Ġpending": 9329,
      "ung": 9330,
      "getcwd": 9331,
      "ĠSection": 9332,
      "questions": 9333,
      "Ġ\\\\": 9334,
      "lane": 9335,
      "confidence": 9336,
      "CADE": 9337,
      "Skull": 9338,
      "ExistsError": 9339,
      "Basis": 9340,
      "hods": 9341,
      "iam": 9342,
      "migrations": 9343,
      "è¦": 9344,
      "Ġpat": 9345,
      "ĠSc": 9346,
      "Information": 9347,
      "Ġoracle": 9348,
      "ĠPUR": 9349,
      "ĠĠĠĠĠĠčĊ": 9350,
      "mandatory": 9351,
      "Ġcompression": 9352,
      "FileAssociation": 9353,
      "changes": 9354,
      "LIMIT": 9355,
      "Leg": 9356,
      "dependent": 9357,
      "Ġspecifying": 9358,
      "blacklist": 9359,
      "^^^^": 9360,
      "DateTimeField": 9361,
      "RSEFileAssociation": 9362,
      "Interpolators": 9363,
      "Gen": 9364,
      "Many": 9365,
      "Migration": 9366,
      "PA": 9367,
      "cles": 9368,
      "that": 9369,
      "ably": 9370,
      "Ġproj": 9371,
      "ĠEval": 9372,
      "Ġprintf": 9373,
      "Cond": 9374,
      "daily": 9375,
      "Ġ---": 9376,
      "splitlines": 9377,
      "priv": 9378,
      "CHANT": 9379,
      "Ġactivity": 9380,
      "sually": 9381,
      "Ġworkflow": 9382,
      "ĠCollection": 9383,
      "Ġeverything": 9384,
      "attachment": 9385,
      "æİ¥": 9386,
      "_=\"": 9387,
      "fq": 9388,
      "large": 9389,
      "ox": 9390,
      "ĠÑģ": 9391,
      "Ġtt": 9392,
      "ionError": 9393,
      "Ġpdf": 9394,
      "utron": 9395,
      "Ġrefer": 9396,
      "peated": 9397,
      "ully": 9398,
      "Ġpretrained": 9399,
      "Ġshard": 9400,
      "=[]": 9401,
      "Ġminutes": 9402,
      "Ġinitialization": 9403,
      "ĠParse": 9404,
      "operators": 9405,
      "Ġphi": 9406,
      "ĠShow": 9407,
      "éĹ´": 9408,
      "TRANS": 9409,
      "bosity": 9410,
      "CHANTABILITY": 9411,
      "234": 9412,
      "Fix": 9413,
      "LROPoller": 9414,
      "Virtual": 9415,
      "Ġfund": 9416,
      "Ġinverse": 9417,
      "']]):": 9418,
      "renew": 9419,
      "Ġsetuptools": 9420,
      "phab": 9421,
      "ĠHy": 9422,
      "Ġabort": 9423,
      "rading": 9424,
      "Ġlocals": 9425,
      "ĠResult": 9426,
      "nonzero": 9427,
      "Learn": 9428,
      "ĠDisposable": 9429,
      "assignment": 9430,
      "Ġcleanup": 9431,
      "æłĩ": 9432,
      "HttpResponse": 9433,
[...]
